<pad>	0
<unk>	0
<s>	0
</s>	0
▁—	-0
经济	-1
美国	-2
国家	-3
中国	-4
▁但	-5
20	-6
一个	-7
欧洲	-8
我们	-9
▁这	-10
可能	-11
政府	-12
他们	-13
问题	-14
世界	-15
▁在	-16
可以	-17
全球	-18
增长	-19
政策	-20
这一	-21
政治	-22
已经	-23
没有	-24
需要	-25
欧盟	-26
市场	-27
▁”	-28
▁,	-29
银行	-30
这些	-31
其他	-32
因为	-33
投资	-34
如果	-35
▁。	-36
主义	-37
发展	-38
以及	-39
必须	-40
金融	-41
▁)	-42
社会	-43
危机	-44
国际	-45
重要	-46
▁而	-47
大的	-48
领导	-49
应该	-50
201	-51
影响	-52
不是	-53
英国	-54
支持	-55
它们	-56
通过	-57
地区	-58
因此	-59
货币	-60
▁%	-61
200	-62
美元	-63
事实	-64
所有	-65
非洲	-66
方面	-67
实现	-68
19	-69
尽管	-70
认为	-71
企业	-72
计划	-73
成为	-74
正在	-75
的是	-76
民主	-77
的人	-78
同时	-79
目标	-80
无法	-81
提供	-82
解决	-83
许多	-84
总统	-85
现在	-86
包括	-87
能够	-88
部分	-89
欧元	-90
这样	-91
贸易	-92
导致	-93
进行	-94
组织	-95
增加	-96
公司	-97
开始	-98
情况	-99
自己	-100
就是	-101
债务	-102
▁如果	-103
改革	-104
如此	-105
自由	-106
收入	-107
的经济	-108
变化	-109
的一	-110
未来	-111
技术	-112
00	-113
▁但是	-114
财政	-115
人们	-116
带来	-117
事实上	-118
风险	-119
安全	-120
机构	-121
主要	-122
持续	-123
获得	-124
基础	-125
生产	-126
长期	-127
一些	-128
这个	-129
资本	-130
工作	-131
▁当	-132
发生	-133
领导人	-134
研究	-135
▁“	-136
什么	-137
年的	-138
能源	-139
之间	-140
目前	-141
罗斯	-142
任何	-143
行动	-144
关系	-145
存在	-146
采取	-147
更加	-148
气候	-149
世纪	-150
结果	-151
德国	-152
▁中国	-153
那些	-154
更多	-155
要求	-156
印度	-157
▁事实上	-158
过去	-159
合作	-160
日本	-161
性的	-162
最近	-163
那么	-164
到了	-165
俄罗斯	-166
特别	-167
▁此	-168
挑战	-169
的国家	-170
不会	-171
成功	-172
作为	-173
▁我们	-174
造成	-175
规模	-176
成员	-177
甚至	-178
环境	-179
联合	-180
新的	-181
稳定	-182
严重	-183
这种	-184
也是	-185
价格	-186
DP	-187
央行	-188
利益	-189
面临	-190
国内	-191
GDP	-192
亿美元	-193
时间	-194
人的	-195
服务	-196
中的	-197
十年	-198
教育	-199
国家的	-200
战略	-201
对于	-202
比如	-203
以来	-204
决定	-205
er	-206
an	-207
继续	-208
消费	-209
▁因此	-210
意味	-211
▁美国	-212
人民	-213
如何	-214
如今	-215
亚洲	-216
并不	-217
成本	-218
措施	-219
不同	-220
公共	-221
建立	-222
特朗	-223
机会	-224
一直	-225
力的	-226
特朗普	-227
只有	-228
产生	-229
欧元区	-230
一种	-231
利率	-232
▁此外	-233
意味着	-234
水平	-235
提高	-236
▁不	-237
系统	-238
出现	-239
选择	-240
表明	-241
学家	-242
作用	-243
部门	-244
这样的	-245
下降	-246
来说	-247
仍然	-248
同样	-249
▁尽管	-250
实施	-251
随着	-252
令人	-253
历史	-254
威胁	-255
战争	-256
国的	-257
保护	-258
希望	-259
生活	-260
并且	-261
行为	-262
原因	-263
竞争	-264
他们的	-265
利亚	-266
实际	-267
on	-268
使用	-269
拥有	-270
最终	-271
一步	-272
的问题	-273
需求	-274
改变	-275
来自	-276
共同	-277
监管	-278
方案	-279
价值	-280
关键	-281
项目	-282
资源	-283
能力	-284
联盟	-285
制度	-286
协议	-287
资金	-288
经济体	-289
移民	-290
不可	-291
资产	-292
委员	-293
特别是	-294
管理	-295
劳动	-296
不能	-297
似乎	-298
控制	-299
降低	-300
承诺	-301
时候	-302
斯坦	-303
中国的	-304
出口	-305
基金	-306
创造	-307
为了	-308
还是	-309
选举	-310
有效	-311
西方	-312
人口	-313
▁这一	-314
▁这些	-315
非常	-316
反对	-317
美国的	-318
是否	-319
决策	-320
委员会	-321
接受	-322
上的	-323
数据	-324
法国	-325
减少	-326
伊朗	-327
其中	-328
多数	-329
各国	-330
受到	-331
因素	-332
方式	-333
的情况	-334
大部分	-335
领域	-336
体系	-337
▁与	-338
几乎	-339
程度	-340
▁(	-341
一样	-342
从而	-343
冲突	-344
确保	-345
也许	-346
和平	-347
即使	-348
超过	-349
设施	-350
联合国	-351
是一个	-352
保持	-353
有可能	-354
力量	-355
得到	-356
谈判	-357
完全	-358
考虑	-359
的最	-360
地方	-361
提出	-362
和其他	-363
不断	-364
之一	-365
不仅	-366
模式	-367
外交	-368
自身	-369
由于	-370
的政治	-371
就业	-372
发达	-373
还有	-374
城市	-375
帮助	-376
参与	-377
改善	-378
那样	-379
进一步	-380
或者	-381
了一	-382
重新	-383
家庭	-384
en	-385
类似	-386
ar	-387
来越	-388
的新	-389
年代	-390
推动	-391
越来越	-392
▁从	-393
制定	-394
活动	-395
真正	-396
而且	-397
贷款	-398
▁欧洲	-399
化的	-400
军事	-401
关注	-402
50	-403
▁他们	-404
变得	-405
观点	-406
自己的	-407
某些	-408
虽然	-409
结构	-410
利用	-411
他的	-412
医疗	-413
取得	-414
避免	-415
气候变化	-416
创新	-417
援助	-418
而不是	-419
10	-420
▁比如	-421
相反	-422
联储	-423
都是	-424
应对	-425
基本	-426
一次	-427
破坏	-428
者的	-429
in	-430
今天	-431
赤字	-432
好的	-433
贫困	-434
美联储	-435
30	-436
的大	-437
通胀	-438
▁对	-439
巴马	-440
al	-441
平等	-442
奥巴马	-443
相关	-444
000	-445
色列	-446
以色列	-447
成员国	-448
刺激	-449
相当	-450
基础设施	-451
支出	-452
限制	-453
之间的	-454
责任	-455
数字	-456
过程	-457
起来	-458
做出	-459
只是	-460
方法	-461
发展中	-462
具有	-463
制造	-464
关于	-465
的政策	-466
根本	-467
表现	-468
努力	-469
拉克	-470
重要的	-471
状况	-472
现实	-473
地位	-474
大量	-475
ti	-476
健康	-477
信息	-478
传统	-479
会议	-480
在于	-481
年轻	-482
规则	-483
指出	-484
危险	-485
首先	-486
全世界	-487
法律	-488
报告	-489
预算	-490
经济增长	-491
上升	-492
可能会	-493
可持续	-494
知道	-495
确定	-496
当前	-497
199	-498
民众	-499
用于	-500
巨大的	-501
人类	-502
繁荣	-503
上述	-504
日益	-505
条件	-506
个人	-507
发现	-508
新兴	-509
融资	-510
压力	-511
而言	-512
至少	-513
公民	-514
的话	-515
▁最	-516
▁当然	-517
的影响	-518
投资者	-519
事件	-520
恐怖	-521
债券	-522
结束	-523
阿拉	-524
▁他	-525
▁我	-526
将会	-527
维持	-528
是在	-529
商业	-530
尼亚	-531
机制	-532
时代	-533
平衡	-534
此同时	-535
希腊	-536
扩大	-537
革命	-538
成了	-539
我们的	-540
土耳	-541
石油	-542
工业	-543
很多	-544
显然	-545
意大	-546
独立	-547
土耳其	-548
私人	-549
交易	-550
今年	-551
官员	-552
意大利	-553
代表	-554
权力	-555
相对	-556
尤其	-557
开发	-558
民族	-559
运动	-560
▁如今	-561
2008	-562
or	-563
▁其	-564
整个	-565
预测	-566
后的	-567
共和	-568
科学	-569
才能	-570
第二	-571
直接	-572
进步	-573
标准	-574
武器	-575
就会	-576
建设	-577
经济学家	-578
劳动力	-579
▁有	-580
衰退	-581
商品	-582
必要	-583
阿拉伯	-584
不再	-585
失业	-586
认识	-587
依赖	-588
税收	-589
陷入	-590
试图	-591
后果	-592
伊斯	-593
年来	-594
问题的	-595
之前	-596
农业	-597
错误	-598
的情况下	-599
儿童	-600
针对	-601
金融危机	-602
爆发	-603
所谓	-604
排放	-605
进入	-606
趋势	-607
而是	-608
经济的	-609
外国	-610
达到	-611
更多的	-612
伊斯兰	-613
两个	-614
行业	-615
调整	-616
大规模	-617
主权	-618
难民	-619
每年	-620
伙伴	-621
产品	-622
十分	-623
损失	-624
这一点	-625
内部	-626
根据	-627
依然	-628
担心	-629
储蓄	-630
核心	-631
明确	-632
及其	-633
年前	-634
相信	-635
唯一	-636
或许	-637
媒体	-638
不可能	-639
叙利亚	-640
▁它	-641
选民	-642
大学	-643
现代	-644
巴西	-645
一场	-646
克兰	-647
文化	-648
证明	-649
中东	-650
乌克兰	-651
理解	-652
行的	-653
难以	-654
流动	-655
卫生	-656
公众	-657
生产率	-658
▁与此同时	-659
▁S	-660
极端	-661
正如	-662
,000	-663
去年	-664
复杂	-665
之后	-666
意义	-667
正确	-668
但是	-669
积极	-670
比亚	-671
更为	-672
的全球	-673
汇率	-674
解释	-675
准备	-676
失败	-677
大多数	-678
不足	-679
大幅	-680
网络	-681
政府的	-682
主席	-683
迅速	-684
短期	-685
伊拉克	-686
视为	-687
加入	-688
有所	-689
阻止	-690
的时候	-691
吸引	-692
应当	-693
往往	-694
权利	-695
手段	-696
欧洲央行	-697
促进	-698
反应	-699
承认	-700
并非	-701
欧洲的	-702
▁一	-703
经历	-704
来的	-705
议会	-706
▁随着	-707
不到	-708
引发	-709
期间	-710
了一个	-711
联邦	-712
有的	-713
宣布	-714
广泛	-715
达成	-716
并没有	-717
治理	-718
中心	-719
富汗	-720
阿富汗	-721
中央	-722
面对	-723
拒绝	-724
条约	-725
▁首先	-726
范围	-727
这是	-728
最大的	-729
助于	-730
▁201	-731
货币政策	-732
埃及	-733
基于	-734
平均	-735
容易	-736
遏制	-737
足够	-738
重大	-739
个月	-740
无论	-741
暴力	-742
▁相反	-743
发展中国家	-744
意识	-745
缺乏	-746
讨论	-747
削减	-748
然而	-749
数量	-750
▁C	-751
理由	-752
腐败	-753
80	-754
只能	-755
财富	-756
不平等	-757
将在	-758
一致	-759
市场的	-760
复苏	-761
总理	-762
显示	-763
过度	-764
方面的	-765
女性	-766
第三	-767
形成	-768
快速	-769
灾难	-770
领袖	-771
也不	-772
充分	-773
时期	-774
es	-775
预期	-776
允许	-777
带来的	-778
▁:	-779
愿意	-780
代价	-781
.5	-782
崛起	-783
工具	-784
执行	-785
死亡	-786
贬值	-787
支付	-788
收益	-789
▁虽然	-790
11	-791
下的	-792
布什	-793
它们的	-794
加强	-795
人民币	-796
地区的	-797
仅仅	-798
形式	-799
调查	-800
政权	-801
失去	-802
强调	-803
毫无	-804
办法	-805
自然	-806
联系	-807
转型	-808
班牙	-809
高的	-810
西班牙	-811
▁该	-812
经常	-813
ic	-814
有利	-815
决策者	-816
60	-817
开放	-818
批评	-819
知识	-820
通常	-821
▁更	-822
一项	-823
协定	-824
巨大	-825
承担	-826
进程	-827
经验	-828
疾病	-829
的美国	-830
发达国家	-831
好处	-832
感到	-833
人员	-834
分子	-835
干预	-836
的信	-837
鼓励	-838
伦敦	-839
保证	-840
经济学	-841
共和党	-842
实际上	-843
集中	-844
▁现在	-845
正是	-846
集团	-847
70	-848
有助于	-849
出了	-850
民粹	-851
引起	-852
外部	-853
主义者	-854
某种	-855
速度	-856
12	-857
角色	-858
欧盟的	-859
理论	-860
90	-861
反映	-862
进口	-863
妇女	-864
寻求	-865
除了	-866
原则	-867
毕竟	-868
负债	-869
韩国	-870
公开	-871
投票	-872
赢得	-873
的增长	-874
表示	-875
购买	-876
主义的	-877
专家	-878
并不是	-879
之外	-880
巴勒	-881
效率	-882
比例	-883
目的	-884
强化	-885
的支持	-886
巴勒斯坦	-887
IM	-888
恢复	-889
有关	-890
燃料	-891
紧缩	-892
评估	-893
部长	-894
15	-895
完成	-896
框架	-897
第一	-898
工资	-899
治疗	-900
年轻人	-901
el	-902
合法	-903
处于	-904
多的	-905
所以	-906
即便	-907
建议	-908
▁、	-909
任务	-910
优势	-911
在一	-912
简单	-913
IMF	-914
实力	-915
转移	-916
困难	-917
扩张	-918
纽约	-919
统治	-920
的主要	-921
的欧洲	-922
人权	-923
合理	-924
大约	-925
的目标	-926
国会	-927
其他国家	-928
全面	-929
处理	-930
工人	-931
政党	-932
民主党	-933
认识到	-934
潜在	-935
确实	-936
道德	-937
的那样	-938
所谓的	-939
普京	-940
本身	-941
▁A	-942
▁P	-943
例如	-944
供应	-945
成立	-946
40	-947
储备	-948
百万	-949
的不	-950
▁然而	-951
群体	-952
两国	-953
也在	-954
朝鲜	-955
再次	-956
另一	-957
另一个	-958
是因为	-959
▁M	-960
也会	-961
增长的	-962
分析	-963
策略	-964
政策的	-965
肯定	-966
担忧	-967
的社会	-968
立场	-969
公平	-970
▁目前	-971
▁发	-972
滋病	-973
转变	-974
全球经济	-975
就像	-976
▁欧盟	-977
25	-978
态度	-979
曾经	-980
▁为了	-981
的一个	-982
的风险	-983
艾滋病	-984
程度上	-985
动荡	-986
巴基	-987
▁这种	-988
例子	-989
看到	-990
为什么	-991
tion	-992
当局	-993
退出	-994
解决方案	-995
▁而且	-996
巴基斯坦	-997
穆斯	-998
is	-999
证据	-1000
防止	-1001
塞尔	-1002
年中	-1003
进展	-1004
人都	-1005
污染	-1006
的方式	-1007
宗教	-1008
打击	-1009
▁》	-1010
很大	-1011
相比	-1012
阿根	-1013
也将	-1014
想要	-1015
它的	-1016
▁但这	-1017
▁毕竟	-1018
和经济	-1019
穆斯林	-1020
阿根廷	-1021
▁的	-1022
只要	-1023
统一	-1024
质量	-1025
▁由于	-1026
消费者	-1027
习近	-1028
秩序	-1029
习近平	-1030
国民	-1031
土地	-1032
效果	-1033
加剧	-1034
生命	-1035
贡献	-1036
▁即使	-1037
▁这样	-1038
和政治	-1039
找到	-1040
福利	-1041
障碍	-1042
2015	-1043
脆弱	-1044
美国和	-1045
也有	-1046
袭击	-1047
造成的	-1048
现象	-1049
这场	-1050
追求	-1051
增长率	-1052
崩溃	-1053
满足	-1054
一位	-1055
冲击	-1056
生物	-1057
严重的	-1058
思想	-1059
▁但在	-1060
▁英国	-1061
的国际	-1062
激励	-1063
技能	-1064
下跌	-1065
预计	-1066
▁发自	-1067
东西	-1068
坚持	-1069
逐渐	-1070
可能性	-1071
使得	-1072
保守	-1073
宪法	-1074
左右	-1075
系列	-1076
at	-1077
年以来	-1078
事情	-1079
更大的	-1080
保险	-1081
共产	-1082
削弱	-1083
明显	-1084
最大	-1085
至关	-1086
▁它们	-1087
常常	-1088
怀疑	-1089
▁一个	-1090
巴黎	-1091
提升	-1092
观察	-1093
远远	-1094
it	-1095
前景	-1096
消息	-1097
▁对于	-1098
即将	-1099
银行的	-1100
做法	-1101
全球化	-1102
体制	-1103
工程	-1104
具体	-1105
大陆	-1106
将是	-1107
万亿美元	-1108
1.	-1109
分配	-1110
总体	-1111
情绪	-1112
需要的	-1113
少数	-1114
普遍	-1115
个国家	-1116
的关键	-1117
▁200	-1118
共识	-1119
发挥	-1120
的世界	-1121
正式	-1122
▁最后	-1123
强大的	-1124
事务	-1125
食品	-1126
一切	-1127
投入	-1128
基金组织	-1129
▁因为	-1130
放弃	-1131
设计	-1132
▁许多	-1133
地球	-1134
官方	-1135
局面	-1136
政客	-1137
方向	-1138
美国人	-1139
方针	-1140
互联	-1141
峰会	-1142
▁要	-1143
组成	-1144
并未	-1145
注意	-1146
面临着	-1147
2010	-1148
教训	-1149
的高	-1150
可以在	-1151
的能力	-1152
值得	-1153
很难	-1154
状态	-1155
▁结果	-1156
提供了	-1157
各种	-1158
的政府	-1159
问题上	-1160
18	-1161
一定	-1162
信用	-1163
都会	-1164
一体	-1165
区域	-1166
恶化	-1167
il	-1168
的原因	-1169
▁以	-1170
同意	-1171
回报	-1172
膨胀	-1173
▁这是	-1174
其实	-1175
制裁	-1176
清楚	-1177
真实	-1178
负责	-1179
▁世界	-1180
产业	-1181
宽松	-1182
宏观	-1183
和社会	-1184
▁据	-1185
的重要	-1186
货币基金组织	-1187
主导	-1188
天然	-1189
新闻	-1190
精神	-1191
了解	-1192
人士	-1193
想象	-1194
汽车	-1195
道路	-1196
▁特别是	-1197
角度	-1198
am	-1199
华盛	-1200
糟糕	-1201
华盛顿	-1202
▁自	-1203
阶段	-1204
几十年	-1205
补贴	-1206
泡沫	-1207
精英	-1208
苏联	-1209
阶级	-1210
的机会	-1211
墨西	-1212
执政	-1213
规定	-1214
地产	-1215
大选	-1216
永远	-1217
该国	-1218
负担	-1219
墨西哥	-1220
重要的是	-1221
金融市场	-1222
分裂	-1223
协调	-1224
om	-1225
不但	-1226
推进	-1227
攻击	-1228
▁同样	-1229
国际社会	-1230
岗位	-1231
真正的	-1232
▁B	-1233
停滞	-1234
否则	-1235
当时	-1236
军队	-1237
层面	-1238
而非	-1239
适应	-1240
也没有	-1241
的结果	-1242
显著	-1243
制造业	-1244
就能	-1245
争论	-1246
re	-1247
为止	-1248
领土	-1249
决于	-1250
波动	-1251
立法	-1252
取决于	-1253
▁那么	-1254
类似的	-1255
▁R	-1256
停止	-1257
出的	-1258
则是	-1259
空间	-1260
计算	-1261
分之一	-1262
学生	-1263
很快	-1264
转向	-1265
在过去	-1266
克里	-1267
当地	-1268
替代	-1269
破产	-1270
ac	-1271
低于	-1272
智能	-1273
更好	-1274
种族	-1275
账户	-1276
在美国	-1277
相当于	-1278
单一	-1279
忽视	-1280
符合	-1281
见的	-1282
警告	-1283
失业率	-1284
双方	-1285
不确定	-1286
▁正如	-1287
国有	-1288
当今	-1289
科技	-1290
ro	-1291
▁F	-1292
看来	-1293
重组	-1294
也就是	-1295
互联网	-1296
有效的	-1297
欢迎	-1298
致力	-1299
▁-	-1300
不管	-1301
依靠	-1302
充满	-1303
得多	-1304
效应	-1305
来源	-1306
阿尔	-1307
▁所有	-1308
幸的是	-1309
所面临	-1310
as	-1311
利润	-1312
发布	-1313
社区	-1314
还要	-1315
▁D	-1316
周期	-1317
多样	-1318
呼吁	-1319
从未	-1320
俄国	-1321
氧化	-1322
和美国	-1323
致力于	-1324
▁为	-1325
一代	-1326
也可以	-1327
的挑战	-1328
过程中	-1329
农民	-1330
民粹主义	-1331
对其	-1332
构建	-1333
信任	-1334
高达	-1335
2014	-1336
二十	-1337
重点	-1338
多少	-1339
都在	-1340
不得	-1341
团结	-1342
摆脱	-1343
最高	-1344
胜利	-1345
候选	-1346
自身的	-1347
信心	-1348
变革	-1349
指标	-1350
最后	-1351
现有	-1352
美国总统	-1353
ation	-1354
首相	-1355
彻底	-1356
有人	-1357
粮食	-1358
▁19	-1359
2013	-1360
0.	-1361
斗争	-1362
本国	-1363
除非	-1364
▁包括	-1365
情况下	-1366
▁新	-1367
放缓	-1368
房地产	-1369
变暖	-1370
学习	-1371
股市	-1372
▁G	-1373
这类	-1374
国际货币基金组织	-1375
之中	-1376
而不	-1377
让我们	-1378
估计	-1379
旨在	-1380
消除	-1381
脱欧	-1382
的发展	-1383
尔兰	-1384
机器	-1385
天然气	-1386
▁T	-1387
双边	-1388
而易	-1389
爱尔兰	-1390
供给	-1391
多边	-1392
性和	-1393
接近	-1394
疫苗	-1395
概念	-1396
上涨	-1397
不过	-1398
北约	-1399
未能	-1400
被迫	-1401
▁没有	-1402
▁非洲	-1403
不同的	-1404
考虑到	-1405
▁就	-1406
伤害	-1407
透明	-1408
▁通过	-1409
核武器	-1410
化石	-1411
北京	-1412
发表	-1413
总是	-1414
有着	-1415
▁最近	-1416
竞争力	-1417
独裁	-1418
自我	-1419
迫使	-1420
孩子	-1421
边境	-1422
100	-1423
ent	-1424
危机的	-1425
ol	-1426
信贷	-1427
出现了	-1428
的基础	-1429
更大	-1430
以上	-1431
但却	-1432
盟友	-1433
▁以及	-1434
新兴市场	-1435
格兰	-1436
前的	-1437
有限	-1438
股票	-1439
约束	-1440
▁政府	-1441
et	-1442
者和	-1443
价值观	-1444
尤其是	-1445
的研究	-1446
结构性	-1447
在内	-1448
采用	-1449
量的	-1450
的投资	-1451
那就是	-1452
富裕	-1453
一直在	-1454
更好的	-1455
人和	-1456
的对	-1457
▁例如	-1458
正确的	-1459
▁I	-1460
差距	-1461
化石燃料	-1462
并在	-1463
萧条	-1464
规划	-1465
长的	-1466
集体	-1467
的中国	-1468
局势	-1469
普通	-1470
紧张	-1471
世界上	-1472
潜力	-1473
缅甸	-1474
言论	-1475
▁作为	-1476
▁其中	-1477
寻找	-1478
签署	-1479
2012	-1480
举行	-1481
▁人们	-1482
恐怖主义	-1483
扮演	-1484
通货	-1485
世界的	-1486
取得了	-1487
2009	-1488
债权	-1489
地缘	-1490
是一	-1491
身份	-1492
那里	-1493
事会	-1494
假设	-1495
具备	-1496
背景	-1497
and	-1498
外交政策	-1499
可持续发展	-1500
大大	-1501
监督	-1502
直到	-1503
相互	-1504
称为	-1505
缺少	-1506
▁一些	-1507
带来了	-1508
2016	-1509
禁止	-1510
不仅仅	-1511
有利于	-1512
发达经济体	-1513
2.	-1514
前所	-1515
右翼	-1516
疑问	-1517
绿色	-1518
▁这个	-1519
可以通过	-1520
出来	-1521
受益	-1522
指责	-1523
提振	-1524
法院	-1525
的反	-1526
退欧	-1527
遭受	-1528
这意味着	-1529
▁将	-1530
学校	-1531
定义	-1532
正常	-1533
竞选	-1534
增加了	-1535
显而易	-1536
思维	-1537
武装	-1538
真的	-1539
质疑	-1540
▁根据	-1541
在未来	-1542
年后	-1543
当选	-1544
批准	-1545
的同时	-1546
势力	-1547
取代	-1548
增强	-1549
▁中国的	-1550
我的	-1551
生存	-1552
统计	-1553
阻碍	-1554
严格	-1555
保障	-1556
平台	-1557
是对	-1558
驱动	-1559
这样做	-1560
▁但如果	-1561
克尔	-1562
这方面	-1563
争议	-1564
遭到	-1565
二氧化	-1566
影响力	-1567
▁到	-1568
全部	-1569
对此	-1570
开支	-1571
当然	-1572
高于	-1573
将其	-1574
痛苦	-1575
需的	-1576
为何	-1577
启动	-1578
官僚	-1579
是不	-1580
跨国	-1581
至关重要	-1582
克林	-1583
差异	-1584
要么	-1585
的一部分	-1586
基因	-1587
报道	-1588
理念	-1589
盈余	-1590
流动性	-1591
的金融	-1592
世界银行	-1593
21	-1594
太阳	-1595
有一	-1596
混乱	-1597
说法	-1598
邻国	-1599
▁不管	-1600
▁只有	-1601
▁无论	-1602
导致了	-1603
▁不幸的是	-1604
三个	-1605
实验	-1606
模型	-1607
比较	-1608
激进	-1609
议院	-1610
该地区	-1611
二氧化碳	-1612
两大	-1613
二战	-1614
年间	-1615
癌症	-1616
▁E	-1617
可靠	-1618
司法	-1619
大国	-1620
研发	-1621
随后	-1622
候选人	-1623
发生了	-1624
地缘政治	-1625
关税	-1626
后者	-1627
强烈	-1628
程序	-1629
的观点	-1630
南非	-1631
过于	-1632
▁类似	-1633
科学家	-1634
足够的	-1635
所需要的	-1636
访问	-1637
得到了	-1638
▁是	-1639
内容	-1640
取消	-1641
强大	-1642
得以	-1643
记录	-1644
香港	-1645
▁今天	-1646
之下	-1647
衡量	-1648
都不	-1649
一体化	-1650
所带来的	-1651
很少	-1652
相同	-1653
中央银行	-1654
农村	-1655
告诉	-1656
外汇	-1657
沙特	-1658
答案	-1659
很可能	-1660
造成了	-1661
2011	-1662
加速	-1663
思考	-1664
指数	-1665
能否	-1666
都有	-1667
鉴于	-1668
马斯	-1669
▁同时	-1670
最近的	-1671
民族主义	-1672
对手	-1673
对话	-1674
怎样	-1675
成果	-1676
日程	-1677
时刻	-1678
量化	-1679
就必须	-1680
再生	-1681
布鲁	-1682
前所未	-1683
的长期	-1684
▁特朗普	-1685
克服	-1686
几个	-1687
足以	-1688
我们必须	-1689
毫无疑问	-1690
下去	-1691
明白	-1692
维亚	-1693
在欧洲	-1694
th	-1695
仍在	-1696
全国	-1697
公投	-1698
在其	-1699
安排	-1700
测试	-1701
至于	-1702
经历了	-1703
分歧	-1704
包容	-1705
不应该	-1706
同样的	-1707
德里	-1708
操纵	-1709
论坛	-1710
最为	-1711
波兰	-1712
美洲	-1713
说服	-1714
▁全球	-1715
中国和	-1716
的工作	-1717
的财政	-1718
负债表	-1719
通货膨胀	-1720
培训	-1721
展开	-1722
持有	-1723
un	-1724
传染	-1725
有些	-1726
自动	-1727
生活在	-1728
资产负债表	-1729
困境	-1730
杠杆	-1731
发生的	-1732
未来的	-1733
获得了	-1734
更高	-1735
然后	-1736
犯罪	-1737
诸多	-1738
走向	-1739
意识到	-1740
欧洲人	-1741
美国在	-1742
升级	-1743
各地	-1744
缺陷	-1745
的作用	-1746
2000	-1747
东盟	-1748
实体	-1749
尊重	-1750
智利	-1751
的前	-1752
▁这意味着	-1753
专业	-1754
成就	-1755
管制	-1756
说明	-1757
产生的	-1758
许多人	-1759
2007	-1760
▁类似地	-1761
2%	-1762
之路	-1763
倾向	-1764
哥伦	-1765
担任	-1766
森林	-1767
理想	-1768
▁其次	-1769
和金融	-1770
的人口	-1771
还没有	-1772
哥伦比亚	-1773
属于	-1774
这项	-1775
举措	-1776
低的	-1777
冷战	-1778
宣称	-1779
尔多	-1780
整体	-1781
贫穷	-1782
退休	-1783
马克	-1784
▁纽约	-1785
不得不	-1786
表现出	-1787
5%	-1788
乐观	-1789
凯恩	-1790
刚刚	-1791
医生	-1792
引入	-1793
才是	-1794
资本主义	-1795
产出	-1796
传播	-1797
几年	-1798
捍卫	-1799
者们	-1800
而这	-1801
of	-1802
人工	-1803
加上	-1804
团体	-1805
失衡	-1806
实行	-1807
结论	-1808
通缩	-1809
可再生	-1810
中国经济	-1811
的可能性	-1812
与其	-1813
互相	-1814
意愿	-1815
深刻	-1816
预防	-1817
太阳能	-1818
的未来	-1819
妥协	-1820
形势	-1821
早已	-1822
气体	-1823
温和	-1824
产阶级	-1825
因为它	-1826
政府和	-1827
14	-1828
▁《	-1829
特征	-1830
生态	-1831
缓慢	-1832
了这一	-1833
ur	-1834
抑制	-1835
▁而在	-1836
被视为	-1837
变得更加	-1838
万人	-1839
主张	-1840
但在	-1841
按照	-1842
这么	-1843
ter	-1844
成功的	-1845
这些国家	-1846
会在	-1847
借贷	-1848
占据	-1849
感觉	-1850
毫不	-1851
由此	-1852
覆盖	-1853
198	-1854
克林顿	-1855
ul	-1856
全民	-1857
喜欢	-1858
描述	-1859
构成	-1860
犹太	-1861
起到	-1862
部队	-1863
500	-1864
已经在	-1865
us	-1866
促使	-1867
另外	-1868
性别	-1869
拯救	-1870
高度	-1871
的核心	-1872
问题是	-1873
欧盟委员会	-1874
动力	-1875
尼日	-1876
幸运	-1877
强劲	-1878
▁也许	-1879
▁伦敦	-1880
中国在	-1881
新兴经济体	-1882
▁如	-1883
安倍	-1884
职业	-1885
句话	-1886
巨额	-1887
恐惧	-1888
给予	-1889
表达	-1890
第一个	-1891
17	-1892
发电	-1893
西洋	-1894
诊断	-1895
遭遇	-1896
凯恩斯	-1897
可能是	-1898
工业化	-1899
不可避免	-1900
伙伴关系	-1901
自由贸易	-1902
非洲国家	-1903
ed	-1904
▁即	-1905
之处	-1906
外的	-1907
明智	-1908
现状	-1909
现金	-1910
紧密	-1911
还会	-1912
危险的	-1913
服务业	-1914
错误的	-1915
采取行动	-1916
▁H	-1917
一起	-1918
左翼	-1919
巩固	-1920
建筑	-1921
边缘	-1922
ing	-1923
▁除了	-1924
对中国	-1925
提出了	-1926
数百万	-1927
最重要的	-1928
ch	-1929
电力	-1930
空气	-1931
经营	-1932
的改革	-1933
中产阶级	-1934
亿美元的	-1935
不用	-1936
应用	-1937
承受	-1938
来看	-1939
违约	-1940
非法	-1941
▁去年	-1942
ad	-1943
众多	-1944
准确	-1945
升值	-1946
她们	-1947
定的	-1948
是一种	-1949
世界经济	-1950
▁尽管如此	-1951
各自	-1952
回到	-1953
大型	-1954
愤怒	-1955
支撑	-1956
行长	-1957
这次	-1958
197	-1959
之所以	-1960
提出的	-1961
量化宽松	-1962
▁并	-1963
发动	-1964
尝试	-1965
帝国	-1966
本地	-1967
的行为	-1968
参加	-1969
故事	-1970
温室	-1971
矛盾	-1972
结合	-1973
都将	-1974
企业的	-1975
大西洋	-1976
对美国	-1977
其它	-1978
对抗	-1979
抵制	-1980
早期	-1981
紧迫	-1982
维护	-1983
资格	-1984
的承诺	-1985
进行了	-1986
奇怪	-1987
强制	-1988
电视	-1989
究竟	-1990
穷人	-1991
著名	-1992
重建	-1993
▁并且	-1994
2017	-1995
▁也	-1996
任期	-1997
意见	-1998
留在	-1999
纳德	-2000
辩论	-2001
反映了	-2002
就可以	-2003
更高的	-2004
全球变暖	-2005
▁.	-2006
一点	-2007
人均	-2008
宣传	-2009
循环	-2010
损害	-2011
数十	-2012
短缺	-2013
议员	-2014
▁换	-2015
国防	-2016
强硬	-2017
澳大	-2018
用来	-2019
▁过去	-2020
和中国	-2021
将继续	-2022
宏观经济	-2023
布鲁塞尔	-2024
的经济增长	-2025
中所	-2026
受害	-2027
惩罚	-2028
所在	-2029
公司的	-2030
共产党	-2031
稳定的	-2032
回归	-2033
廉价	-2034
恰恰	-2035
看法	-2036
▁上述	-2037
▁甚至	-2038
与美国	-2039
必要的	-2040
肯尼亚	-2041
澳大利亚	-2042
私人部门	-2043
中期	-2044
产量	-2045
体现	-2046
协助	-2047
居民	-2048
形态	-2049
掌握	-2050
斯科	-2051
法案	-2052
原因是	-2053
在中国	-2054
机构的	-2055
人工智能	-2056
很大程度上	-2057
16	-2058
▁近	-2059
月份	-2060
灵活	-2061
评论	-2062
的计划	-2063
▁实际上	-2064
党派	-2065
抵押	-2066
语言	-2067
为基础	-2068
历史上	-2069
默克尔	-2070
开发银行	-2071
不受	-2072
不够	-2073
以后	-2074
对待	-2075
尚未	-2076
指导	-2077
斯特	-2078
海外	-2079
镇压	-2080
▁20	-2081
投资于	-2082
改革的	-2083
的市场	-2084
的数据	-2085
达到了	-2086
还需要	-2087
不利	-2088
包含	-2089
极为	-2090
海洋	-2091
清洁	-2092
牺牲	-2093
约翰	-2094
绝对	-2095
贝尔	-2096
超级	-2097
▁德国	-2098
▁日本	-2099
付出	-2100
煤炭	-2101
特殊	-2102
纳入	-2103
能在	-2104
是美国	-2105
的地区	-2106
温室气体	-2107
▁L	-2108
加拿	-2109
示威	-2110
▁那些	-2111
也无法	-2112
今天的	-2113
合法性	-2114
目前的	-2115
尼日利亚	-2116
货币联盟	-2117
可再生能源	-2118
13	-2119
le	-2120
决心	-2121
记者	-2122
诚然	-2123
不确定性	-2124
特别是在	-2125
公约	-2126
加拉	-2127
存款	-2128
客户	-2129
时的	-2130
议程	-2131
边界	-2132
▁今年	-2133
和投资	-2134
被认为	-2135
非洲的	-2136
这个问题	-2137
▁比	-2138
不愿	-2139
作出	-2140
发行	-2141
心理	-2142
法庭	-2143
涉及	-2144
瑞典	-2145
荷兰	-2146
在一起	-2147
▁和	-2148
▁简	-2149
有了	-2150
渠道	-2151
绝非	-2152
葡萄	-2153
发展的	-2154
各国政府	-2155
一旦	-2156
东亚	-2157
以前	-2158
加坡	-2159
尔德	-2160
年度	-2161
消失	-2162
要比	-2163
▁或者	-2164
低收入	-2165
在全球	-2166
存在的	-2167
有一个	-2168
已经开始	-2169
中国领导人	-2170
▁让	-2171
不太	-2172
义务	-2173
出于	-2174
变成	-2175
整合	-2176
月的	-2177
比率	-2178
脱离	-2179
药物	-2180
这里	-2181
所有人	-2182
看起来	-2183
第一次	-2184
不要	-2185
必然	-2186
极大	-2187
解放	-2188
▁诚然	-2189
的战略	-2190
的银行	-2191
人数	-2192
化为	-2193
员工	-2194
条款	-2195
流入	-2196
马里	-2197
▁of	-2198
▁在过去	-2199
也是如此	-2200
这一目标	-2201
任命	-2202
位于	-2203
借款	-2204
扩散	-2205
放在	-2206
标志	-2207
组合	-2208
计划的	-2209
领域的	-2210
劳动力市场	-2211
入侵	-2212
离开	-2213
▁即便	-2214
是如此	-2215
的努力	-2216
采取了	-2217
ob	-2218
▁K	-2219
▁N	-2220
减速	-2221
分之	-2222
召开	-2223
埃塞	-2224
更有	-2225
紧急	-2226
释放	-2227
首次	-2228
▁第三	-2229
目前为止	-2230
一般	-2231
中间	-2232
是个	-2233
让人	-2234
越南	-2235
过剩	-2236
▁第二	-2237
和服务	-2238
埃塞俄	-2239
▁在美国	-2240
中国政府	-2241
五年	-2242
用的	-2243
合组织	-2244
实现了	-2245
注意力	-2246
的债务	-2247
的民主	-2248
ment	-2249
意识形态	-2250
业务	-2251
突然	-2252
结核	-2253
青年	-2254
加拿大	-2255
的地方	-2256
让他们	-2257
埃塞俄比亚	-2258
大会	-2259
拉丁	-2260
要素	-2261
英国的	-2262
1990	-2263
另一方面	-2264
不久	-2265
产能	-2266
学院	-2267
当中	-2268
忽略	-2269
▁其他	-2270
一系列	-2271
的唯一	-2272
的环境	-2273
的需求	-2274
我们需要	-2275
下来	-2276
优先	-2277
兴趣	-2278
名义	-2279
实践	-2280
愿景	-2281
收入的	-2282
的变化	-2283
不仅仅是	-2284
交通	-2285
修正	-2286
瑞拉	-2287
言之	-2288
警察	-2289
基金会	-2290
葡萄牙	-2291
都没有	-2292
所造成的	-2293
oo	-2294
一年	-2295
委内	-2296
季度	-2297
朋友	-2298
而在	-2299
过渡	-2300
违反	-2301
都要	-2302
高级	-2303
人们的	-2304
的措施	-2305
的方法	-2306
委内瑞拉	-2307
一半	-2308
以往	-2309
国外	-2310
孤立	-2311
无疑	-2312
随之	-2313
▁In	-2314
▁印度	-2315
的领导	-2316
2020	-2317
te	-2318
住房	-2319
公正	-2320
导向	-2321
最新	-2322
疲软	-2323
科索	-2324
给了	-2325
同时也	-2326
政治家	-2327
目的是	-2328
科索沃	-2329
▁上	-2330
出售	-2331
层次	-2332
渴望	-2333
▁还有	-2334
产生了	-2335
几个月	-2336
的技术	-2337
的最佳	-2338
金融机构	-2339
以此	-2340
博拉	-2341
台湾	-2342
回应	-2343
抓住	-2344
比重	-2345
油价	-2346
至今	-2347
迹象	-2348
限于	-2349
ers	-2350
仅仅是	-2351
的时间	-2352
已经成为	-2353
3%	-2354
一下	-2355
两种	-2356
兄弟	-2357
基地	-2358
怎么	-2359
抗议	-2360
法治	-2361
消灭	-2362
电子	-2363
纳税	-2364
埃博拉	-2365
的生活	-2366
▁所有这些	-2367
命运	-2368
哪些	-2369
回答	-2370
想法	-2371
打破	-2372
权的	-2373
超越	-2374
▁可以	-2375
吸引力	-2376
的威胁	-2377
声称	-2378
抵消	-2379
柏林	-2380
此前	-2381
生素	-2382
身上	-2383
阵营	-2384
麻烦	-2385
共和国	-2386
发生在	-2387
句话说	-2388
的行动	-2389
自由化	-2390
密集	-2391
突破	-2392
罗马	-2393
认真	-2394
谨慎	-2395
哈马斯	-2396
尔多安	-2397
理事会	-2398
经合组织	-2399
前所未有的	-2400
3.	-2401
个体	-2402
之为	-2403
操作	-2404
无人	-2405
也应该	-2406
陷入了	-2407
集中在	-2408
不可持续	-2409
埃尔多安	-2410
绝大多数	-2411
导弹	-2412
常规	-2413
年龄	-2414
推行	-2415
相似	-2416
终于	-2417
获益	-2418
试验	-2419
人们对	-2420
反对派	-2421
2030	-2422
拉丁美洲	-2423
ri	-2424
上去	-2425
到的	-2426
扭曲	-2427
拉美	-2428
暴露	-2429
费用	-2430
仍然是	-2431
利比亚	-2432
孟加拉	-2433
当前的	-2434
支持者	-2435
2005	-2436
2006	-2437
许多国家	-2438
基础设施投资	-2439
▁可	-2440
于是	-2441
发起	-2442
困扰	-2443
有时	-2444
浪费	-2445
激烈	-2446
真相	-2447
逆转	-2448
企业家	-2449
的军事	-2450
范围内	-2451
ag	-2452
做好	-2453
功能	-2454
否认	-2455
密切	-2456
恐慌	-2457
指控	-2458
摧毁	-2459
经过	-2460
资助	-2461
逻辑	-2462
部署	-2463
亿欧元	-2464
民主的	-2465
的事实	-2466
以及其他	-2467
幸运的是	-2468
不满	-2469
专注	-2470
严峻	-2471
做的	-2472
偿还	-2473
加以	-2474
各方	-2475
患者	-2476
手中	-2477
无力	-2478
流向	-2479
西亚	-2480
for	-2481
▁问题	-2482
也不会	-2483
好消息	-2484
的价格	-2485
的危险	-2486
的成本	-2487
美国经济	-2488
人在	-2489
动作	-2490
动物	-2491
垄断	-2492
宗商品	-2493
巴拉克	-2494
国有企业	-2495
民主国家	-2496
东欧	-2497
两者	-2498
升高	-2499
安理	-2500
家族	-2501
巴嫩	-2502
认定	-2503
财务	-2504
过来	-2505
art	-2506
也必须	-2507
将成为	-2508
所需的	-2509
段时间	-2510
的例子	-2511
的公共	-2512
我们可以	-2513
▁你	-2514
争取	-2515
人物	-2516
仍有	-2517
可信	-2518
推翻	-2519
放松	-2520
第四	-2521
问责	-2522
▁不过	-2523
▁显然	-2524
一直是	-2525
的历史	-2526
黎巴嫩	-2527
伊斯兰教	-2528
1%	-2529
os	-2530
之时	-2531
变为	-2532
声明	-2533
暂时	-2534
林斯	-2535
毒品	-2536
获取	-2537
营养	-2538
金砖	-2539
不用说	-2540
失去了	-2541
的利益	-2542
▁俄罗斯	-2543
可能导致	-2544
主流	-2545
也能	-2546
尔的	-2547
式的	-2548
情报	-2549
持久	-2550
股东	-2551
的所有	-2552
背景下	-2553
部门的	-2554
▁大	-2555
人道	-2556
其在	-2557
期望	-2558
深远	-2559
纷纷	-2560
运作	-2561
遵守	-2562
举行的	-2563
支持的	-2564
的资金	-2565
2001	-2566
不如	-2567
丧失	-2568
以便	-2569
份额	-2570
吸收	-2571
契约	-2572
更快	-2573
物价	-2574
税率	-2575
讽刺	-2576
设备	-2577
都能	-2578
震惊	-2579
10%	-2580
会议上	-2581
在经济	-2582
教育和	-2583
的决定	-2584
地方政府	-2585
li	-2586
之上	-2587
亿人	-2588
例外	-2589
只会	-2590
在线	-2591
尼斯	-2592
是有	-2593
有多	-2594
没能	-2595
▁只要	-2596
受到了	-2597
的选择	-2598
超过了	-2599
24	-2600
减轻	-2601
制约	-2602
失望	-2603
完美	-2604
总额	-2605
排除	-2606
根源	-2607
病毒	-2608
缓解	-2609
谴责	-2610
一条	-2611
内战	-2612
外围	-2613
感染	-2614
每个	-2615
积累	-2616
艰难	-2617
证券	-2618
逐步	-2619
一部分	-2620
增长和	-2621
社会的	-2622
良好的	-2623
外汇储备	-2624
保留	-2625
南部	-2626
占领	-2627
国务	-2628
每天	-2629
百分	-2630
获胜	-2631
行政	-2632
谷歌	-2633
选项	-2634
领导的	-2635
恐怖分子	-2636
欧盟成员国	-2637
▁;	-2638
学术	-2639
还能	-2640
人口的	-2641
债务的	-2642
技术的	-2643
称之为	-2644
建立一个	-2645
长期以来	-2646
化和	-2647
固定	-2648
实质	-2649
普及	-2650
讲话	-2651
▁法国	-2652
创造了	-2653
影响到	-2654
的任务	-2655
的做法	-2656
▁换句话说	-2657
ce	-2658
um	-2659
壁垒	-2660
引导	-2661
深入	-2662
用户	-2663
受害者	-2664
是为了	-2665
的一些	-2666
的最大	-2667
▁奥巴马	-2668
经济发展	-2669
DG	-2670
一家	-2671
了对	-2672
加大	-2673
响应	-2674
情形	-2675
接触	-2676
方说	-2677
明年	-2678
更具	-2679
活力	-2680
生育	-2681
唐纳德	-2682
抗生素	-2683
更好地	-2684
的最新	-2685
▁幸运的是	-2686
以下	-2687
律宾	-2688
烟草	-2689
补偿	-2690
饱受	-2691
▁鉴于	-2692
下降到	-2693
安理会	-2694
的东西	-2695
菲律宾	-2696
共产主义	-2697
全球金融危机	-2698
中共	-2699
丰富	-2700
可怕	-2701
哈拉	-2702
彼此	-2703
日渐	-2704
也可能	-2705
和国际	-2706
成功地	-2707
时代的	-2708
有能力	-2709
现代化	-2710
英格兰	-2711
阿尔及	-2712
1,	-2713
ig	-2714
不良	-2715
低估	-2716
减税	-2717
出资	-2718
南亚	-2719
小组	-2720
深度	-2721
致命	-2722
近期	-2723
债权人	-2724
很多人	-2725
的关系	-2726
的能源	-2727
▁这就是	-2728
很有可能	-2729
45	-2730
▁W	-2731
中有	-2732
兑现	-2733
动员	-2734
对外	-2735
意料	-2736
某个	-2737
永久	-2738
流行	-2739
途径	-2740
那个	-2741
高速	-2742
▁他的	-2743
专注于	-2744
新加坡	-2745
的压力	-2746
的速度	-2747
三分之一	-2748
金融体系	-2749
不了	-2750
事业	-2751
动机	-2752
医院	-2753
小时	-2754
疟疾	-2755
觉得	-2756
赋予	-2757
还将	-2758
合理的	-2759
和安全	-2760
和欧洲	-2761
的货币	-2762
监管者	-2763
美国政府	-2764
ab	-2765
两位	-2766
但它	-2767
信号	-2768
到来	-2769
助长	-2770
太平	-2771
歧视	-2772
立刻	-2773
那种	-2774
防御	-2775
所有的	-2776
的共同	-2777
的贸易	-2778
还必须	-2779
都必须	-2780
2004	-2781
显而易见	-2782
经常项目	-2783
越来越多	-2784
▁多	-2785
出生	-2786
卡梅	-2787
幅度	-2788
形象	-2789
接着	-2790
改进	-2791
敏感	-2792
距离	-2793
在内的	-2794
▁欧元区	-2795
▁美联储	-2796
▁联合国	-2797
35	-2798
▁她	-2799
下滑	-2800
不安	-2801
年底	-2802
总值	-2803
悲剧	-2804
担保	-2805
拿出	-2806
教授	-2807
移动	-2808
良好	-2809
销售	-2810
高效	-2811
ity	-2812
▁不仅	-2813
低利率	-2814
的权利	-2815
的理由	-2816
能力的	-2817
进行的	-2818
降低了	-2819
不平等性	-2820
因为他们	-2821
大宗商品	-2822
这一问题	-2823
8%	-2824
ev	-2825
全力	-2826
声音	-2827
强势	-2828
考验	-2829
观念	-2830
解体	-2831
的人们	-2832
的后果	-2833
的自由	-2834
诺贝尔	-2835
的重要性	-2836
他在	-2837
共享	-2838
反而	-2839
并将	-2840
战斗	-2841
物种	-2842
纠正	-2843
不足以	-2844
太平洋	-2845
相关的	-2846
系统的	-2847
苏格兰	-2848
塞尔维亚	-2849
id	-2850
使其	-2851
保健	-2852
分别	-2853
复兴	-2854
正义	-2855
殖民	-2856
没人	-2857
私营	-2858
综合	-2859
蔓延	-2860
负面	-2861
还在	-2862
首席	-2863
几年来	-2864
在一个	-2865
投资和	-2866
水平的	-2867
选举中	-2868
主权债务	-2869
所面临的	-2870
特朗普的	-2871
越来越多的	-2872
利班	-2873
就在	-2874
急剧	-2875
本质	-2876
演讲	-2877
落实	-2878
重塑	-2879
结核病	-2880
一名	-2881
显得	-2882
权威	-2883
毁灭	-2884
融入	-2885
规范	-2886
说是	-2887
▁除非	-2888
一开始	-2889
出现在	-2890
和政府	-2891
形成了	-2892
转化为	-2893
阿尔及利亚	-2894
以南	-2895
养老	-2896
各个	-2897
多元	-2898
文章	-2899
设立	-2900
迫切	-2901
300	-2902
些时候	-2903
会导致	-2904
反过来	-2905
大萧条	-2906
投资的	-2907
提供的	-2908
负责任	-2909
▁简言之	-2910
7%	-2911
一份	-2912
严厉	-2913
信誉	-2914
充足	-2915
判断	-2916
区别	-2917
开展	-2918
房价	-2919
抛弃	-2920
文明	-2921
施加	-2922
材料	-2923
注入	-2924
清晰	-2925
游戏	-2926
运用	-2927
重视	-2928
顾问	-2929
他们在	-2930
撒哈拉	-2931
的反应	-2932
美元的	-2933
▁但这一	-2934
乔治	-2935
从事	-2936
创业	-2937
庇护	-2938
投机	-2939
昂贵	-2940
是最	-2941
机遇	-2942
点是	-2943
社交	-2944
缺口	-2945
阶层	-2946
主义和	-2947
和环境	-2948
有效地	-2949
重要性	-2950
▁但这些	-2951
资产价格	-2952
▁在这方面	-2953
▁欧洲央行	-2954
一路	-2955
下了	-2956
产权	-2957
关闭	-2958
加沙	-2959
完整	-2960
德拉	-2961
此次	-2962
职位	-2963
萨德	-2964
路线	-2965
选票	-2966
▁而这	-2967
和日本	-2968
政治上	-2969
权力的	-2970
▁这样的	-2971
世界各地	-2972
政策制定	-2973
不少	-2974
低碳	-2975
做到	-2976
医学	-2977
古巴	-2978
融合	-2979
道理	-2980
参与者	-2981
的态度	-2982
长时间	-2983
▁and	-2984
▁O	-2985
临时	-2986
僵局	-2987
群众	-2988
耐药	-2989
补充	-2990
▁..	-2991
价值的	-2992
在国际	-2993
塔利班	-2994
广泛的	-2995
有力的	-2996
百分点	-2997
的人民	-2998
▁美国的	-2999
世界其他	-3000
的大规模	-3001
的问题是	-3002
两年	-3003
了其	-3004
匈牙	-3005
合适	-3006
定价	-3007
是由	-3008
期待	-3009
理性	-3010
纳粹	-3011
英镑	-3012
落后	-3013
陷阱	-3014
▁如此	-3015
匈牙利	-3016
对欧洲	-3017
导致的	-3018
引起了	-3019
▁...	-3020
这样一个	-3021
ir	-3022
人为	-3023
伦理	-3024
但这	-3025
何种	-3026
到底	-3027
原本	-3028
合同	-3029
坚定	-3030
布莱	-3031
披露	-3032
相应	-3033
要想	-3034
196	-3035
也不是	-3036
可能的	-3037
和全球	-3038
工作的	-3039
很容易	-3040
政府在	-3041
的力量	-3042
目标的	-3043
看上去	-3044
▁199	-3045
显而易见的	-3046
ve	-3047
▁除	-3048
▁马	-3049
从来	-3050
加快	-3051
度的	-3052
死刑	-3053
物质	-3054
今年的	-3055
十年中	-3056
适用于	-3057
财政部长	-3058
交流	-3059
催生	-3060
出台	-3061
基督	-3062
学者	-3063
推迟	-3064
雄心	-3065
额外	-3066
▁当时	-3067
人认为	-3068
十年的	-3069
应该是	-3070
的公司	-3071
的成功	-3072
的经验	-3073
相对于	-3074
银行家	-3075
二十世纪	-3076
欧洲国家	-3077
证据表明	-3078
▁这是一个	-3079
发展中国家的	-3080
主宰	-3081
人力	-3082
伟大	-3083
修改	-3084
分享	-3085
剑桥	-3086
发明	-3087
工厂	-3088
延长	-3089
授权	-3090
法官	-3091
滥用	-3092
训练	-3093
起了	-3094
迄今	-3095
面前	-3096
多样性	-3097
的一项	-3098
的水平	-3099
经济和	-3100
▁for	-3101
27	-3102
一国	-3103
不在	-3104
为例	-3105
最低	-3106
瑞士	-3107
男性	-3108
约旦	-3109
象征	-3110
▁亚洲	-3111
▁就像	-3112
▁经济	-3113
众议院	-3114
必须在	-3115
的欧盟	-3116
研究所	-3117
▁他们的	-3118
成员国的	-3119
ational	-3120
两次	-3121
享受	-3122
使命	-3123
填补	-3124
宣言	-3125
成长	-3126
煽动	-3127
签订	-3128
艺术	-3129
领先	-3130
首脑	-3131
.5%	-3132
倾向于	-3133
就需要	-3134
是中国	-3135
的法律	-3136
与此同时	-3137
所有人都	-3138
某种程度上	-3139
ec	-3140
一轮	-3141
位置	-3142
冒险	-3143
压倒	-3144
就将	-3145
性质	-3146
推广	-3147
更是	-3148
步骤	-3149
沉重	-3150
私有	-3151
萎靡	-3152
配置	-3153
页岩	-3154
▁所以	-3155
保守党	-3156
庞大的	-3157
生产力	-3158
的说法	-3159
这两个	-3160
▁考虑到	-3161
所有这些	-3162
6%	-3163
ay	-3164
eb	-3165
上限	-3166
减排	-3167
和解	-3168
夏天	-3169
多年	-3170
大多	-3171
屠杀	-3172
才会	-3173
拖累	-3174
本月	-3175
的确	-3176
终结	-3177
老龄	-3178
起诉	-3179
运行	-3180
不需要	-3181
十年来	-3182
卡梅伦	-3183
存在着	-3184
得不到	-3185
时间里	-3186
明确的	-3187
的安全	-3188
突尼斯	-3189
几十年来	-3190
的经济体	-3191
IP	-3192
op	-3193
不上	-3194
为此	-3195
予以	-3196
大战	-3197
天气	-3198
提醒	-3199
最佳	-3200
秘书	-3201
细胞	-3202
评级	-3203
里斯	-3204
▁最终	-3205
也需要	-3206
关系的	-3207
影响的	-3208
的信息	-3209
的移民	-3210
人民银行	-3211
自然资源	-3212
▁2008	-3213
沙特阿拉伯	-3214
至关重要的	-3215
3⁄	-3216
为其	-3217
互动	-3218
估算	-3219
但其	-3220
信仰	-3221
剥夺	-3222
南海	-3223
却是	-3224
外界	-3225
她的	-3226
席位	-3227
扭转	-3228
拉里	-3229
来讲	-3230
极其	-3231
格鲁	-3232
榜样	-3233
消极	-3234
狭隘	-3235
纪念	-3236
3⁄4	-3237
与其他	-3238
也许是	-3239
以至于	-3240
十年前	-3241
建立了	-3242
的战争	-3243
风险的	-3244
国家安全	-3245
英国退欧	-3246
财政政策	-3247
中等	-3248
人才	-3249
利息	-3250
情景	-3251
最初	-3252
本人	-3253
纠纷	-3254
运转	-3255
连续	-3256
400	-3257
传染病	-3258
协议的	-3259
只不过	-3260
各国的	-3261
将导致	-3262
引发了	-3263
的权力	-3264
透明度	-3265
2050	-3266
▁但我们	-3267
▁华盛顿	-3268
几乎没有	-3269
资本市场	-3270
预算赤字	-3271
温室气体排放	-3272
▁由	-3273
丑闻	-3274
伯特	-3275
免疫	-3276
办公	-3277
否决	-3278
哈佛	-3279
小的	-3280
无关	-3281
清算	-3282
萨尔	-3283
饥饿	-3284
十年代	-3285
法国的	-3286
背后的	-3287
银行和	-3288
一个国家	-3289
和意大利	-3290
▁毫无疑问	-3291
撒哈拉以南	-3292
23	-3293
分散	-3294
印象	-3295
就越	-3296
干涉	-3297
引擎	-3298
看似	-3299
秘密	-3300
不稳定	-3301
中国人	-3302
了一项	-3303
已成为	-3304
形式的	-3305
相对较	-3306
组成的	-3307
布什政府	-3308
28	-3309
▁用	-3310
南欧	-3311
团队	-3312
审查	-3313
工党	-3314
所能	-3315
所说	-3316
敦促	-3317
武力	-3318
注定	-3319
泰国	-3320
特定	-3321
能让	-3322
记忆	-3323
▁国际	-3324
不再是	-3325
战争的	-3326
构成了	-3327
组织的	-3328
获得的	-3329
阿萨德	-3330
在很大程度上	-3331
上了	-3332
北欧	-3333
在此	-3334
弱势	-3335
弱点	-3336
忧虑	-3337
案件	-3338
类型	-3339
背后	-3340
花费	-3341
药品	-3342
重重	-3343
做出了	-3344
制度的	-3345
的非洲	-3346
领导层	-3347
保护主义	-3348
生产总值	-3349
一套	-3350
不应	-3351
作物	-3352
保罗	-3353
凸显	-3354
十九	-3355
和新	-3356
哈根	-3357
成熟	-3358
无可	-3359
苏丹	-3360
马上	-3361
▁至少	-3362
▁要想	-3363
伴随着	-3364
取得的	-3365
因为这	-3366
在这个	-3367
大学的	-3368
的现实	-3369
更不用说	-3370
经常账户	-3371
这些问题	-3372
并不意味着	-3373
6.	-3374
▁总	-3375
反弹	-3376
发放	-3377
哥本	-3378
完善	-3379
将对	-3380
悲观	-3381
慈善	-3382
方的	-3383
种子	-3384
艰巨	-3385
诱惑	-3386
面积	-3387
是否会	-3388
的企业	-3389
2002	-3390
▁大部分	-3391
哥本哈根	-3392
4%	-3393
ci	-3394
两倍	-3395
乃至	-3396
便利	-3397
偿付	-3398
全新	-3399
后来	-3400
姆林	-3401
巴尔	-3402
平民	-3403
沦为	-3404
的小	-3405
的总	-3406
监控	-3407
霸权	-3408
首要	-3409
到来的	-3410
可行的	-3411
的效果	-3412
的角色	-3413
都可以	-3414
可持续性	-3415
欧洲议会	-3416
非洲大陆	-3417
不论	-3418
世俗	-3419
人群	-3420
克利	-3421
国债	-3422
害怕	-3423
所得	-3424
暴跌	-3425
残酷	-3426
申请	-3427
绝望	-3428
而论	-3429
这位	-3430
与中国	-3431
几年中	-3432
利益的	-3433
建立在	-3434
意义的	-3435
目标是	-3436
就业机会	-3437
财政赤字	-3438
4.	-3439
oh	-3440
▁平	-3441
专制	-3442
中美	-3443
什叶	-3444
卢旺	-3445
地说	-3446
展示	-3447
广告	-3448
很有	-3449
性恋	-3450
或是	-3451
战胜	-3452
提议	-3453
梦想	-3454
毕业	-3455
电影	-3456
电脑	-3457
等待	-3458
遗产	-3459
阻挠	-3460
难题	-3461
▁巴西	-3462
也同样	-3463
卢旺达	-3464
可能在	-3465
唯一的	-3466
实施了	-3467
已经被	-3468
并不能	-3469
机器人	-3470
极大的	-3471
的责任	-3472
自由的	-3473
让人们	-3474
都需要	-3475
高收入	-3476
1980	-3477
社交媒体	-3478
迄今为止	-3479
你们	-3480
化学	-3481
单位	-3482
审慎	-3483
巨头	-3484
手机	-3485
效益	-3486
敌人	-3487
时机	-3488
民意	-3489
活跃	-3490
立即	-3491
米尔	-3492
证实	-3493
▁有些	-3494
他们所	-3495
参议院	-3496
尽可能	-3497
的一半	-3498
的增加	-3499
的方案	-3500
非政府	-3501
先进	-3502
公布	-3503
关心	-3504
决议	-3505
四个	-3506
地利	-3507
延续	-3508
收缩	-3509
收集	-3510
热情	-3511
现任	-3512
而已	-3513
运营	-3514
零售	-3515
鼓吹	-3516
鼓舞	-3517
20%	-3518
ion	-3519
man	-3520
以确保	-3521
奥地利	-3522
最好的	-3523
计算机	-3524
转移到	-3525
过去的	-3526
还可以	-3527
伊斯兰国	-3528
克里姆林	-3529
因为它们	-3530
没有什么	-3531
这个国家	-3532
▁如果我们	-3533
he	-3534
前任	-3535
容忍	-3536
意外	-3537
更强	-3538
深化	-3539
父母	-3540
病人	-3541
ert	-3542
ich	-3543
加剧了	-3544
基本上	-3545
来自于	-3546
让美国	-3547
赢得了	-3548
都无法	-3549
▁另一个	-3550
▁这也是	-3551
金融稳定	-3552
不必	-3553
之春	-3554
习惯	-3555
出版	-3556
加州	-3557
动摇	-3558
口号	-3559
可行	-3560
大众	-3561
战后	-3562
政变	-3563
消耗	-3564
焦点	-3565
电网	-3566
继承	-3567
进而	-3568
马拉	-3569
高企	-3570
高昂	-3571
ard	-3572
主要是	-3573
办公室	-3574
我们在	-3575
提高了	-3576
的必要	-3577
的要求	-3578
第二次	-3579
角度看	-3580
马克龙	-3581
危机爆发	-3582
孟加拉国	-3583
实现这一目标	-3584
今后	-3585
倒闭	-3586
做得	-3587
公决	-3588
多么	-3589
居住	-3590
工会	-3591
常态	-3592
庞大	-3593
沮丧	-3594
老年	-3595
认可	-3596
识别	-3597
跨境	-3598
颠覆	-3599
但他们	-3600
和公共	-3601
国家和	-3602
政策和	-3603
更多地	-3604
的基本	-3605
的担忧	-3606
索马里	-3607
行为的	-3608
▁也就是	-3609
▁比方说	-3610
取得成功	-3611
tu	-3612
▁像	-3613
他人	-3614
低迷	-3615
便是	-3616
剧烈	-3617
周边	-3618
崩盘	-3619
恰当	-3620
探讨	-3621
掩盖	-3622
果断	-3623
检查	-3624
沙尔	-3625
物理	-3626
电话	-3627
西藏	-3628
路径	-3629
达尔	-3630
▁在此	-3631
也不能	-3632
什叶派	-3633
但它们	-3634
再平衡	-3635
冲突的	-3636
是什么	-3637
深层次	-3638
的价值	-3639
财政部	-3640
的基础上	-3641
结构性改革	-3642
CA	-3643
▁反	-3644
上海	-3645
中小	-3646
争端	-3647
勃勃	-3648
处在	-3649
大于	-3650
实在	-3651
干旱	-3652
按揭	-3653
追随	-3654
1.5	-3655
80%	-3656
伯克利	-3657
变成了	-3658
复杂的	-3659
威胁到	-3660
带一路	-3661
排放量	-3662
的收入	-3663
▁欧洲的	-3664
ge	-3665
im	-3666
严肃	-3667
丹麦	-3668
借助	-3669
免费	-3670
农场	-3671
华尔	-3672
塞浦	-3673
太多	-3674
奥斯	-3675
年到	-3676
引人	-3677
抱怨	-3678
无所	-3679
更少	-3680
爆炸	-3681
课程	-3682
路斯	-3683
运输	-3684
不愿意	-3685
企业和	-3686
华尔街	-3687
另一种	-3688
心而论	-3689
成为了	-3690
最贫困	-3691
清楚地	-3692
肯定会	-3693
董事会	-3694
任何时候	-3695
和西班牙	-3696
塞浦路斯	-3697
所有国家	-3698
英国脱欧	-3699
生产率增长	-3700
av	-3701
▁那	-3702
乌干	-3703
千年	-3704
后代	-3705
婴儿	-3706
年初	-3707
性地	-3708
截然	-3709
拉斯	-3710
智慧	-3711
环保	-3712
间的	-3713
频繁	-3714
▁巴黎	-3715
乌干达	-3716
了一场	-3717
其中的	-3718
无人机	-3719
犹太人	-3720
的信号	-3721
通胀率	-3722
非常规	-3723
2003	-3724
2018	-3725
▁以色列	-3726
空气污染	-3727
可持续发展目标	-3728
▁每	-3729
一天	-3730
不起	-3731
举动	-3732
之际	-3733
典型	-3734
制药	-3735
前进	-3736
印尼	-3737
哪里	-3738
富人	-3739
挪威	-3740
挽救	-3741
极权	-3742
沃尔	-3743
确认	-3744
而被	-3745
连接	-3746
逊尼	-3747
不存在	-3748
中获益	-3749
之一是	-3750
了美国	-3751
伊朗的	-3752
依赖于	-3753
出来的	-3754
在今年	-3755
很大的	-3756
政治的	-3757
的一次	-3758
的巨大	-3759
的最后	-3760
纳税人	-3761
国家主席	-3762
研究表明	-3763
▁我们需要	-3764
▁问题在于	-3765
年金融危机	-3766
▁·	-3767
一再	-3768
世贸	-3769
何时	-3770
修复	-3771
危害	-3772
始于	-3773
威慑	-3774
履行	-3775
幸福	-3776
源自	-3777
罗姆	-3778
食物	-3779
▁西方	-3780
基本面	-3781
德国的	-3782
总需求	-3783
日本的	-3784
软实力	-3785
重大的	-3786
个百分点	-3787
公民社会	-3788
合作伙伴	-3789
就业岗位	-3790
自由民主	-3791
民粹主义者	-3792
ah	-3793
em	-3794
切实	-3795
切尔	-3796
刑事	-3797
将军	-3798
最好	-3799
沟通	-3800
焦虑	-3801
犹豫	-3802
白宫	-3803
红利	-3804
野心	-3805
难度	-3806
30%	-3807
▁这场	-3808
也包括	-3809
供应链	-3810
养老金	-3811
出现的	-3812
参议员	-3813
批评者	-3814
积极的	-3815
的领导人	-3816
商品和服务	-3817
阿拉伯之春	-3818
CD	-3819
仇恨	-3820
倡议	-3821
在不	-3822
富有	-3823
房屋	-3824
提案	-3825
早就	-3826
狂热	-3827
的年	-3828
的无	-3829
航空	-3830
衰落	-3831
走上	-3832
远离	-3833
飓风	-3834
ill	-3835
亚洲的	-3836
其他人	-3837
削弱了	-3838
和技术	-3839
安全的	-3840
技术和	-3841
服务的	-3842
生育率	-3843
的一切	-3844
的事情	-3845
绝不是	-3846
观察家	-3847
解释了	-3848
一体化的	-3849
克里姆林宫	-3850
CC	-3851
▁前	-3852
▁年	-3853
▁阿	-3854
万亿	-3855
其对	-3856
动态	-3857
周年	-3858
和对	-3859
地的	-3860
太大	-3861
斯基	-3862
暗示	-3863
有望	-3864
特点	-3865
股价	-3866
自愿	-3867
迎来	-3868
防务	-3869
他们对	-3870
只有在	-3871
年代的	-3872
引发的	-3873
是通过	-3874
比以往	-3875
行业的	-3876
证明了	-3877
解决办法	-3878
贸易赤字	-3879
这种情况	-3880
In	-3881
三大	-3882
中海	-3883
仍是	-3884
以为	-3885
依旧	-3886
侵犯	-3887
侵略	-3888
前提	-3889
可谓	-3890
各大	-3891
多种	-3892
姆斯	-3893
日的	-3894
民间	-3895
法规	-3896
站在	-3897
通讯	-3898
长达	-3899
飙升	-3900
40%	-3901
▁任何	-3902
▁这将	-3903
▁这就	-3904
一世纪	-3905
不平衡	-3906
分之二	-3907
巴沙尔	-3908
总统的	-3909
斯科尼	-3910
极大地	-3911
独立的	-3912
▁在这一	-3913
人道主义	-3914
生态系统	-3915
生活水平	-3916
的影响力	-3917
经济复苏	-3918
金砖国家	-3919
9%	-3920
依据	-3921
偏好	-3922
公路	-3923
发出	-3924
呈现	-3925
急需	-3926
收紧	-3927
洪水	-3928
种植	-3929
赢家	-3930
50%	-3931
ank	-3932
▁于是	-3933
也许会	-3934
以上的	-3935
和印度	-3936
基督教	-3937
密集型	-3938
巴尔干	-3939
收益率	-3940
标志着	-3941
死亡率	-3942
甚至是	-3943
的好处	-3944
的资本	-3945
繁荣的	-3946
转变为	-3947
逊尼派	-3948
▁尤其是	-3949
工作岗位	-3950
结构改革	-3951
▁在这样的	-3952
▁再	-3953
借口	-3954
入了	-3955
势头	-3956
同事	-3957
均衡	-3958
女孩	-3959
审判	-3960
寿命	-3961
就要	-3962
开启	-3963
撤军	-3964
有害	-3965
看作	-3966
认知	-3967
走出	-3968
这条	-3969
隔离	-3970
60%	-3971
90%	-3972
ate	-3973
ook	-3974
▁一旦	-3975
▁或许	-3976
▁由此	-3977
也因此	-3978
以及对	-3979
即使是	-3980
领导力	-3981
领导者	-3982
一些国家	-3983
亚洲国家	-3984
发展援助	-3985
抵押贷款	-3986
▁平心而论	-3987
欧洲领导人	-3988
争夺	-3989
会上	-3990
会对	-3991
吉亚	-3992
已有	-3993
所需	-3994
文件	-3995
旅游	-3996
案例	-3997
棘手	-3998
游说	-3999
舞台	-4000
表面	-4001
足球	-4002
软件	-4003
高管	-4004
保守派	-4005
创新的	-4006
同性恋	-4007
更容易	-4008
本世纪	-4009
环境下	-4010
的代价	-4011
的时代	-4012
能够在	-4013
行动的	-4014
被称为	-4015
高质量	-4016
▁但如今	-4017
▁在这个	-4018
不太可能	-4019
成为一个	-4020
组成部分	-4021
▁2015	-4022
二十一世纪	-4023
即将到来的	-4024
ow	-4025
▁第	-4026
专门	-4027
主题	-4028
也就	-4029
力度	-4030
圣战	-4031
巴布	-4032
布雷	-4033
年内	-4034
很高	-4035
愿望	-4036
日子	-4037
时任	-4038
模糊	-4039
漏洞	-4040
父亲	-4041
独特	-4042
等于	-4043
著作	-4044
the	-4045
和教育	-4046
地中海	-4047
来西亚	-4048
模式的	-4049
的协议	-4050
的策略	-4051
破坏性	-4052
移民的	-4053
老龄化	-4054
项目的	-4055
医疗保健	-4056
并非如此	-4057
早些时候	-4058
格鲁吉亚	-4059
没有任何	-4060
该地区的	-4061
▁另一方面	-4062
巴勒斯坦人	-4063
撒哈拉以南非洲	-4064
CE	-4065
ep	-4066
之以	-4067
仔细	-4068
份子	-4069
会有	-4070
卡特	-4071
同一	-4072
好像	-4073
定居	-4074
干扰	-4075
我在	-4076
抵御	-4077
授予	-4078
支柱	-4079
理应	-4080
穷国	-4081
竞赛	-4082
西欧	-4083
议定	-4084
贝卢	-4085
遵循	-4086
采购	-4087
是全球	-4088
自动化	-4089
这一切	-4090
1997	-4091
四分之一	-4092
富裕国家	-4093
经济衰退	-4094
转移支付	-4095
这是一个	-4096
到目前为止	-4097
发达国家的	-4098
事故	-4099
亚投	-4100
北部	-4101
北非	-4102
却在	-4103
哪怕	-4104
弥补	-4105
流离	-4106
的海	-4107
缓和	-4108
缩减	-4109
迈向	-4110
▁必须	-4111
▁相比	-4112
可以从	-4113
布莱尔	-4114
改变了	-4115
明显的	-4116
来实现	-4117
来解决	-4118
的商业	-4119
的形式	-4120
的标准	-4121
的谈判	-4122
第二个	-4123
罗伯特	-4124
tern	-4125
三分之二	-4126
俄罗斯的	-4127
毫不奇怪	-4128
糟糕的是	-4129
st	-4130
▁"	-4131
▁J	-4132
下一	-4133
代理	-4134
克斯	-4135
别无	-4136
区分	-4137
地下	-4138
坚决	-4139
失所	-4140
年将	-4141
建造	-4142
律师	-4143
所作	-4144
换取	-4145
游行	-4146
特币	-4147
真主	-4148
裁决	-4149
要在	-4150
较低	-4151
这将	-4152
150	-4153
con	-4154
▁否则	-4155
▁的确	-4156
▁金融	-4157
主要的	-4158
危机中	-4159
反映出	-4160
和国家	-4161
接受的	-4162
独裁者	-4163
议定书	-4164
▁意大利	-4165
世界大战	-4166
医疗服务	-4167
尤其是在	-4168
成员资格	-4169
无法获得	-4170
极有可能	-4171
穆巴拉克	-4172
被认为是	-4173
▁经济学家	-4174
贝卢斯科尼	-4175
非政府组织	-4176
22	-4177
AR	-4178
ou	-4179
▁两	-4180
▁正	-4181
▁都	-4182
不容	-4183
中最	-4184
之势	-4185
分离	-4186
同情	-4187
哪个	-4188
商界	-4189
地理	-4190
慷慨	-4191
所赐	-4192
指引	-4193
数千	-4194
气温	-4195
温度	-4196
激发	-4197
生涯	-4198
盖茨	-4199
缩小	-4200
逮捕	-4201
里奇	-4202
黄金	-4203
600	-4204
下一个	-4205
价格的	-4206
体系的	-4207
劳动者	-4208
国务卿	-4209
大量的	-4210
应该在	-4211
我们对	-4212
有机会	-4213
灾难性	-4214
的城市	-4215
真主党	-4216
系统性	-4217
而这些	-4218
自由和	-4219
令人震惊	-4220
提供资金	-4221
欧盟国家	-4222
的一系列	-4223
的过程中	-4224
绝大部分	-4225
英国退出	-4226
ap	-4227
▁被	-4228
不及	-4229
之比	-4230
交换	-4231
以外	-4232
创建	-4233
压制	-4234
多个	-4235
姿态	-4236
局限	-4237
废除	-4238
抵抗	-4239
捐助	-4240
的中	-4241
盈利	-4242
眼下	-4243
稳步	-4244
财产	-4245
随时	-4246
首都	-4247
2.5	-4248
▁国家	-4249
东南亚	-4250
克斯坦	-4251
多样化	-4252
安全和	-4253
希拉里	-4254
是如何	-4255
根本性	-4256
水资源	-4257
的一种	-4258
类似于	-4259
脆弱性	-4260
▁为什么	-4261
全民公决	-4262
单一市场	-4263
恐怖袭击	-4264
流离失所	-4265
紧张局势	-4266
经济表现	-4267
艾滋病毒	-4268
▁无论如何	-4269
NA	-4270
之急	-4271
会被	-4272
再度	-4273
分布	-4274
受过	-4275
只占	-4276
地震	-4277
大胆	-4278
奥朗	-4279
妨碍	-4280
攀升	-4281
知的	-4282
竭尽	-4283
算法	-4284
纪录	-4285
能量	-4286
薪酬	-4287
身体	-4288
适当	-4289
▁具体	-4290
▁有人	-4291
一方面	-4292
不管是	-4293
务之急	-4294
在世界	-4295
多年的	-4296
奥朗德	-4297
对全球	-4298
政治和	-4299
新技术	-4300
的总统	-4301
的选举	-4302
石油和	-4303
而言之	-4304
莫斯科	-4305
该计划	-4306
遭到了	-4307
发展目标	-4308
大规模的	-4309
贸易伙伴	-4310
跨大西洋	-4311
PP	-4312
介入	-4313
伯南	-4314
信念	-4315
加利	-4316
南方	-4317
发言	-4318
叛乱	-4319
将让	-4320
带着	-4321
很好	-4322
德斯	-4323
态势	-4324
无视	-4325
波斯	-4326
细节	-4327
网站	-4328
让步	-4329
议题	-4330
设定	-4331
轻易	-4332
里根	-4333
人民的	-4334
令人惊	-4335
伯南克	-4336
使用的	-4337
变化的	-4338
和欧盟	-4339
外国人	-4340
实现的	-4341
年代末	-4342
扩大的	-4343
有什么	-4344
的一大	-4345
的机构	-4346
的立场	-4347
秘书长	-4348
简单的	-4349
起到了	-4350
aceb	-4351
其他地方	-4352
政府债券	-4353
法国总统	-4354
气候变化的	-4355
前往	-4356
小平	-4357
征税	-4358
心的	-4359
忘记	-4360
打造	-4361
报纸	-4362
教师	-4363
日元	-4364
来到	-4365
沉默	-4366
考察	-4367
股权	-4368
诞生	-4369
铁路	-4370
限度	-4371
预见	-4372
ati	-4373
▁几乎	-4374
不知道	-4375
共同体	-4376
受欢迎	-4377
实施的	-4378
巴布韦	-4379
我们所	-4380
收入和	-4381
比特币	-4382
的一份	-4383
的关注	-4384
耐药性	-4385
著名的	-4386
起作用	-4387
邓小平	-4388
一带一路	-4389
世界贸易	-4390
世贸组织	-4391
欧洲大陆	-4392
津巴布韦	-4393
竞争力的	-4394
通胀目标	-4395
acebook	-4396
od	-4397
上台	-4398
信服	-4399
内的	-4400
减弱	-4401
几周	-4402
务实	-4403
勇气	-4404
卡尔	-4405
反复	-4406
吉尔	-4407
它在	-4408
对立	-4409
总量	-4410
数学	-4411
更低	-4412
海军	-4413
能为	-4414
自信	-4415
虚假	-4416
过多	-4417
这两	-4418
进化	-4419
里亚	-4420
长久	-4421
风暴	-4422
麦肯	-4423
195	-4424
ern	-4425
ist	-4426
▁St	-4427
但如果	-4428
减少了	-4429
和德国	-4430
年开始	-4431
很好的	-4432
最高的	-4433
的任何	-4434
的使用	-4435
的地位	-4436
▁习近平	-4437
全球贸易	-4438
告诉我们	-4439
当务之急	-4440
达成一致	-4441
银行系统	-4442
欧元区国家	-4443
ak	-4444
ry	-4445
不出	-4446
之道	-4447
便宜	-4448
充斥	-4449
内阁	-4450
待遇	-4451
最有	-4452
母亲	-4453
民调	-4454
流程	-4455
满意	-4456
设置	-4457
诸如	-4458
这笔	-4459
都被	-4460
伟大的	-4461
在英国	-4462
就已经	-4463
演变为	-4464
的崛起	-4465
的建议	-4466
的条件	-4467
稳定和	-4468
需求的	-4469
▁the	-4470
货币贬值	-4471
英格兰银行	-4472
▁中	-4473
专利	-4474
东京	-4475
也被	-4476
件事	-4477
分化	-4478
围绕	-4479
堪称	-4480
大使	-4481
大有	-4482
它将	-4483
尊严	-4484
强迫	-4485
排斥	-4486
旅行	-4487
无数	-4488
日常	-4489
有点	-4490
注重	-4491
监狱	-4492
罪行	-4493
误导	-4494
超出	-4495
适合	-4496
驱逐	-4497
高出	-4498
-20	-4499
▁当前	-4500
一些人	-4501
下降了	-4502
中国对	-4503
了一份	-4504
健康的	-4505
前总统	-4506
去杠杆	-4507
变得更	-4508
和能源	-4509
在某些	-4510
就不会	-4511
控制的	-4512
教育的	-4513
根本上	-4514
每一个	-4515
的国内	-4516
的资源	-4517
破坏了	-4518
统治者	-4519
英国人	-4520
非正式	-4521
采取措施	-4522
之间的关系	-4523
29	-4524
会晤	-4525
但也	-4526
作家	-4527
偏见	-4528
兰克	-4529
北方	-4530
名为	-4531
培养	-4532
大力	-4533
将被	-4534
强力	-4535
意志	-4536
抨击	-4537
斯蒂	-4538
权衡	-4539
米亚	-4540
纪律	-4541
维尔	-4542
致死	-4543
详细	-4544
间接	-4545
ean	-4546
▁对此	-4547
时间的	-4548
是可以	-4549
有关的	-4550
有必要	-4551
活动的	-4552
相结合	-4553
联盟的	-4554
这些人	-4555
麦肯锡	-4556
▁土耳其	-4557
一段时间	-4558
公共部门	-4559
共和党人	-4560
快速增长	-4561
我们应该	-4562
监管机构	-4563
不可避免的	-4564
▁或	-4565
三倍	-4566
传递	-4567
免受	-4568
关联	-4569
兴起	-4570
刚果	-4571
动用	-4572
大气	-4573
恶性	-4574
意图	-4575
救助	-4576
渐进	-4577
留下	-4578
疗法	-4579
福祉	-4580
而对	-4581
聪明	-4582
行列	-4583
赞成	-4584
飞机	-4585
70%	-4586
und	-4587
▁伊朗	-4588
▁埃及	-4589
▁直到	-4590
不那么	-4591
传统的	-4592
反对者	-4593
在短期	-4594
在这一	-4595
实力的	-4596
布里奇	-4597
林斯潘	-4598
的信心	-4599
的报告	-4600
的比例	-4601
的道路	-4602
碳排放	-4603
结果是	-4604
美国对	-4605
近年来	-4606
好消息是	-4607
影响力的	-4608
所产生的	-4609
格林斯潘	-4610
欧洲经济	-4611
中国和印度	-4612
伊拉克战争	-4613
26	-4614
一边	-4615
亚太	-4616
先例	-4617
写道	-4618
判决	-4619
劳工	-4620
北美	-4621
半岛	-4622
压迫	-4623
厌恶	-4624
古老	-4625
学会	-4626
将来	-4627
平面	-4628
征收	-4629
有益	-4630
毛泽	-4631
沃斯	-4632
灾害	-4633
的名	-4634
着眼	-4635
西斯	-4636
计价	-4637
远比	-4638
钢铁	-4639
长远	-4640
预言	-4641
193	-4642
700	-4643
▁各国	-4644
▁政治	-4645
▁至于	-4646
▁这项	-4647
不久前	-4648
个世纪	-4649
似乎是	-4650
低成本	-4651
充满了	-4652
公平的	-4653
出口国	-4654
力量的	-4655
只需要	-4656
和企业	-4657
和商业	-4658
在欧盟	-4659
在没有	-4660
就业和	-4661
毛泽东	-4662
的和平	-4663
都不会	-4664
都应该	-4665
银行业	-4666
公共卫生	-4667
实体经济	-4668
低收入国家	-4669
经济增长的	-4670
▁本	-4671
中亚	-4672
加深	-4673
升息	-4674
协会	-4675
可见	-4676
含义	-4677
因而	-4678
定期	-4679
左派	-4680
强国	-4681
归咎	-4682
拉夫	-4683
拖延	-4684
探索	-4685
收支	-4686
收购	-4687
效仿	-4688
有力	-4689
此类	-4690
测量	-4691
源于	-4692
电厂	-4693
看看	-4694
继任	-4695
虐待	-4696
设法	-4697
逃离	-4698
高层	-4699
omm	-4700
▁关于	-4701
▁确实	-4702
万美元	-4703
多年来	-4704
实验室	-4705
对这些	-4706
显然是	-4707
民众的	-4708
现在的	-4709
确定性	-4710
1989	-4711
▁不管是	-4712
不断增加	-4713
令人担忧	-4714
和俄罗斯	-4715
平均水平	-4716
竭尽全力	-4717
自由主义	-4718
解决问题	-4719
金融部门	-4720
变得越来越	-4721
1/	-4722
5.	-4723
ov	-4724
不前	-4725
不止	-4726
仅有	-4727
修订	-4728
做了	-4729
出人	-4730
加纳	-4731
反思	-4732
地将	-4733
失灵	-4734
威尔	-4735
尼古	-4736
或缺	-4737
指望	-4738
提到	-4739
提款	-4740
支配	-4741
最多	-4742
民营	-4743
白人	-4744
缺失	-4745
置于	-4746
芬兰	-4747
谈论	-4748
过了	-4749
遥远	-4750
阵线	-4751
▁但它	-4752
▁就连	-4753
▁接着	-4754
不仅是	-4755
不扩散	-4756
但我们	-4757
其经济	-4758
办法是	-4759
可靠的	-4760
在国内	-4761
很重要	-4762
挑战的	-4763
接受了	-4764
民主和	-4765
生活的	-4766
的趋势	-4767
程度的	-4768
第一步	-4769
该国的	-4770
达沃斯	-4771
▁但中国	-4772
▁在中国	-4773
作为一个	-4774
坎布里奇	-4775
竞争对手	-4776
马来西亚	-4777
▁2014	-4778
其他国家的	-4779
奥巴马政府	-4780
AI	-4781
丝绸	-4782
创立	-4783
双重	-4784
国企	-4785
好事	-4786
展现	-4787
已是	-4788
弗里	-4789
必将	-4790
报复	-4791
效的	-4792
更广	-4793
最快	-4794
流失	-4795
涵盖	-4796
盟国	-4797
街头	-4798
裁军	-4799
谋杀	-4800
趋同	-4801
转换	-4802
选战	-4803
预料	-4804
风能	-4805
鲜明	-4806
Mar	-4807
▁北京	-4808
▁希腊	-4809
即使在	-4810
失败的	-4811
就无法	-4812
归咎于	-4813
机构和	-4814
欧洲和	-4815
没有人	-4816
活力的	-4817
预计将	-4818
▁全世界	-4819
▁我们的	-4820
了一系列	-4821
产能过剩	-4822
全球化的	-4823
市场经济	-4824
很可能会	-4825
欧元区的	-4826
灾难性的	-4827
直接投资	-4828
▁可以肯定	-4829
的货币政策	-4830
DR	-4831
ot	-4832
ub	-4833
不变	-4834
不惜	-4835
其反	-4836
出席	-4837
城镇	-4838
多大	-4839
子女	-4840
希特	-4841
扩展	-4842
推出	-4843
杂志	-4844
死于	-4845
着陆	-4846
等等	-4847
纯粹	-4848
辛格	-4849
辞职	-4850
辩护	-4851
邀请	-4852
金钱	-4853
雇主	-4854
音乐	-4855
SDG	-4856
aul	-4857
▁on	-4858
与欧盟	-4859
了全球	-4860
会带来	-4861
印度的	-4862
危机前	-4863
可以为	-4864
可以让	-4865
和发展	-4866
增加到	-4867
家庭的	-4868
库尔德	-4869
的教育	-4870
货币的	-4871
需要在	-4872
▁但他们	-4873
一个新的	-4874
世界各国	-4875
克里米亚	-4876
公共债务	-4877
在这方面	-4878
增长模式	-4879
强有力的	-4880
财政刺激	-4881
▁我们必须	-4882
▁美国总统	-4883
阿拉伯世界	-4884
阿拉伯国家	-4885
自由贸易协定	-4886
ia	-4887
qu	-4888
▁d	-4889
乐部	-4890
亦然	-4891
仍将	-4892
促成	-4893
否定	-4894
得出	-4895
手术	-4896
掌权	-4897
救援	-4898
既然	-4899
易事	-4900
用水	-4901
穆尔	-4902
筛查	-4903
自主	-4904
行事	-4905
身为	-4906
连任	-4907
重振	-4908
雇用	-4909
est	-4910
了中国	-4911
俱乐部	-4912
借款人	-4913
和英国	-4914
和资本	-4915
峰会上	-4916
工作者	-4917
性疾病	-4918
理论上	-4919
规则的	-4920
都不是	-4921
页岩气	-4922
▁伯克利	-4923
▁大多数	-4924
丝绸之路	-4925
为基础的	-4926
别无选择	-4927
特别提款	-4928
这一观点	-4929
这些措施	-4930
问题上的	-4931
▁更糟糕的是	-4932
2,	-4933
ew	-4934
▁V	-4935
不堪	-4936
两党	-4937
两岸	-4938
也要	-4939
体验	-4940
你的	-4941
全体	-4942
出色	-4943
圣地	-4944
巴斯	-4945
引用	-4946
推高	-4947
教科	-4948
数百	-4949
无限	-4950
浪潮	-4951
涌入	-4952
疫情	-4953
目睹	-4954
破裂	-4955
科研	-4956
稀缺	-4957
诉讼	-4958
适用	-4959
194	-4960
▁Ch	-4961
上个月	-4962
也存在	-4963
亚投行	-4964
些什么	-4965
全球性	-4966
和文化	-4967
城市化	-4968
普林斯	-4969
每个人	-4970
的因素	-4971
的暴力	-4972
的状况	-4973
第二大	-4974
西方的	-4975
警告说	-4976
马克思	-4977
不可或缺	-4978
令人信服	-4979
基地组织	-4980
▁2010	-4981
美国和欧洲	-4982
Facebook	-4983
hi	-4984
▁说	-4985
一道	-4986
下台	-4987
优秀	-4988
凝聚	-4989
列为	-4990
尼克	-4991
已久	-4992
市长	-4993
拉动	-4994
正好	-4995
比赛	-4996
激增	-4997
生的	-4998
管辖	-4999
精力	-5000
经理	-5001
肥胖	-5002
通往	-5003
里的	-5004
面向	-5005
魅力	-5006
ohn	-5007
▁另外	-5008
▁未来	-5009
上升到	-5010
严格的	-5011
储蓄率	-5012
充斥着	-5013
共同的	-5014
内部的	-5015
创新和	-5016
印度和	-5017
可以用	-5018
对欧盟	-5019
就应该	-5020
让它们	-5021
▁但尽管	-5022
世界上最	-5023
主导地位	-5024
其他地区	-5025
十九世纪	-5026
普林斯顿	-5027
清洁能源	-5028
经济危机	-5029
的解决方案	-5030
联合国安理会	-5031
国家主席习近平	-5032
主持	-5033
人所	-5034
以使	-5035
勒庞	-5036
友好	-5037
和不	-5038
对比	-5039
尔斯	-5040
扼杀	-5041
接收	-5042
未必	-5043
树立	-5044
根深	-5045
模仿	-5046
特区	-5047
看待	-5048
禁令	-5049
维奇	-5050
论文	-5051
转折	-5052
黑暗	-5053
ell	-5054
▁应该	-5055
不相同	-5056
什么样	-5057
令人瞩	-5058
其实是	-5059
单方面	-5060
困难的	-5061
国际法	-5062
意义上	-5063
政府对	-5064
普京的	-5065
更广泛	-5066
最大化	-5067
核计划	-5068
欧元的	-5069
的下降	-5070
的数字	-5071
的资产	-5072
稳定性	-5073
等国家	-5074
被用于	-5075
角度讲	-5076
▁在欧洲	-5077
出人意料	-5078
如果没有	-5079
年增长率	-5080
总体而言	-5081
更有可能	-5082
的支持者	-5083
税收收入	-5084
言论自由	-5085
这一比例	-5086
这方面的	-5087
An	-5088
EC	-5089
aw	-5090
京都	-5091
住宅	-5092
体育	-5093
准则	-5094
前沿	-5095
加密	-5096
匹配	-5097
半年	-5098
同等	-5099
士兵	-5100
太过	-5101
学科	-5102
富国	-5103
执法	-5104
挣扎	-5105
提名	-5106
摩洛	-5107
敌对	-5108
既得	-5109
明证	-5110
是以	-5111
美中	-5112
而又	-5113
警惕	-5114
起着	-5115
过早	-5116
▁从而	-5117
了欧洲	-5118
会产生	-5119
包容性	-5120
占全球	-5121
就没有	-5122
希特勒	-5123
排除在	-5124
摩洛哥	-5125
是否能	-5126
此之外	-5127
现有的	-5128
的传统	-5129
的信任	-5130
的新兴	-5131
的概念	-5132
的第一	-5133
罗斯福	-5134
选择了	-5135
了这一点	-5136
各成员国	-5137
很快就会	-5138
是正确的	-5139
知识产权	-5140
这一趋势	-5141
长期利率	-5142
▁相比之下	-5143
▁到目前为止	-5144
国内生产总值	-5145
75	-5146
临床	-5147
代人	-5148
及时	-5149
反恐	-5150
听到	-5151
吸取	-5152
地带	-5153
子孙	-5154
家宝	-5155
将从	-5156
将使	-5157
差别	-5158
形容	-5159
忍受	-5160
所为	-5161
排名	-5162
浮动	-5163
熟悉	-5164
秘鲁	-5165
舆论	-5166
莫迪	-5167
蒂固	-5168
蛋白	-5169
uro	-5170
下一次	-5171
了这些	-5172
他们将	-5173
以来最	-5174
再一次	-5175
和政策	-5176
在去年	-5177
大幅度	-5178
大银行	-5179
已经有	-5180
年代初	-5181
并最终	-5182
提高到	-5183
最新的	-5184
生产商	-5185
的人类	-5186
的土地	-5187
看到了	-5188
莫过于	-5189
资源的	-5190
1998	-5191
▁The	-5192
恰恰相反	-5193
根深蒂固	-5194
社会主义	-5195
能够获得	-5196
▁Part	-5197
▁坎布里奇	-5198
政治领导人	-5199
侵蚀	-5200
创始	-5201
卡塔	-5202
基准	-5203
大概	-5204
开采	-5205
戈尔	-5206
接种	-5207
推特	-5208
放任	-5209
数以	-5210
日内	-5211
果真	-5212
检测	-5213
正统	-5214
炸弹	-5215
萎缩	-5216
认同	-5217
误解	-5218
重申	-5219
附近	-5220
lob	-5221
▁某些	-5222
▁正在	-5223
不可少	-5224
中获得	-5225
也开始	-5226
加利福	-5227
历史的	-5228
合作的	-5229
和就业	-5230
和法国	-5231
它们在	-5232
年前的	-5233
想象的	-5234
来应对	-5235
极右翼	-5236
根本不	-5237
海平面	-5238
的合作	-5239
的领域	-5240
给我们	-5241
还包括	-5242
采取的	-5243
随之而	-5244
evel	-5245
▁阿根廷	-5246
不是一个	-5247
俄罗斯和	-5248
必不可少	-5249
提高利率	-5250
lobal	-5251
▁2012	-5252
加利福尼亚	-5253
生物多样性	-5254
SA	-5255
ff	-5256
ru	-5257
为首	-5258
以致	-5259
充当	-5260
叙事	-5261
在了	-5262
埔寨	-5263
宝贵	-5264
容克	-5265
年里	-5266
并为	-5267
影子	-5268
星期	-5269
有权	-5270
此后	-5271
目光	-5272
筹集	-5273
管道	-5274
美军	-5275
自杀	-5276
自治	-5277
触发	-5278
转而	-5279
邪恶	-5280
错了	-5281
ens	-5282
▁民主	-5283
助长了	-5284
可怕的	-5285
在许多	-5286
引人注	-5287
本质上	-5288
柬埔寨	-5289
温家宝	-5290
环境中	-5291
的个人	-5292
的依赖	-5293
的德国	-5294
的讨论	-5295
而中国	-5296
至少在	-5297
行动方	-5298
资本外	-5299
进入了	-5300
远低于	-5301
里斯本	-5302
▁在这种	-5303
中央政府	-5304
和平进程	-5305
性别平等	-5306
新兴国家	-5307
是错误的	-5308
社会保障	-5309
美国国会	-5310
自由市场	-5311
▁2013	-5312
不可持续的	-5313
贸易和投资	-5314
年全球金融危机	-5315
ik	-5316
一倍	-5317
东部	-5318
主动	-5319
之地	-5320
剩余	-5321
加泰	-5322
卡扎	-5323
同盟	-5324
和非	-5325
和高	-5326
咨询	-5327
对策	-5328
平价	-5329
捷克	-5330
描绘	-5331
揭露	-5332
汲取	-5333
混合	-5334
特权	-5335
猜测	-5336
电池	-5337
组建	-5338
而后	-5339
西部	-5340
赶超	-5341
追溯	-5342
重启	-5343
ran	-5344
▁人类	-5345
▁布什	-5346
▁按照	-5347
▁银行	-5348
中心的	-5349
二十年	-5350
体现在	-5351
公司和	-5352
再加上	-5353
决不能	-5354
加泰罗	-5355
周期性	-5356
国集团	-5357
巴塞尔	-5358
成本的	-5359
或其他	-5360
执行官	-5361
的儿童	-5362
穆尔西	-5363
购买力	-5364
资本流	-5365
都知道	-5366
▁而不是	-5367
中等收入	-5368
人力资本	-5369
军事行动	-5370
子孙后代	-5371
替代方案	-5372
conom	-5373
加泰罗尼亚	-5374
▁更重要的是	-5375
7.	-5376
▁向	-5377
会谈	-5378
作品	-5379
作者	-5380
到达	-5381
制衡	-5382
大家	-5383
它是	-5384
对称	-5385
广场	-5386
异常	-5387
折磨	-5388
携带	-5389
是将	-5390
曾在	-5391
本来	-5392
漫长	-5393
直面	-5394
祖国	-5395
范畴	-5396
萨达	-5397
要让	-5398
高涨	-5399
鸦片	-5400
ess	-5401
▁一种	-5402
▁新的	-5403
▁有时	-5404
中国将	-5405
危机后	-5406
在非洲	-5407
对经济	-5408
法西斯	-5409
深刻的	-5410
的决策	-5411
的大量	-5412
结束了	-5413
1991	-5414
▁从这个	-5415
乌克兰的	-5416
价格上涨	-5417
有所下降	-5418
现在已经	-5419
的美国人	-5420
石油公司	-5421
罗马尼亚	-5422
资本账户	-5423
雄心勃勃	-5424
▁世界银行	-5425
提供了一个	-5426
特朗普政府	-5427
金融市场的	-5428
石油和天然气	-5429
▁Econom	-5430
ne	-5431
▁斯	-5432
一小	-5433
不知	-5434
临近	-5435
为时	-5436
也更	-5437
他对	-5438
企图	-5439
会计	-5440
克鲁	-5441
公私	-5442
其所	-5443
吸烟	-5444
奇迹	-5445
审视	-5446
宣扬	-5447
尤为	-5448
当作	-5449
成年	-5450
打算	-5451
数的	-5452
最小	-5453
来为	-5454
此举	-5455
沿海	-5456
注册	-5457
的水	-5458
耗尽	-5459
苹果	-5460
西岸	-5461
解除	-5462
重复	-5463
顽固	-5464
之外的	-5465
二战后	-5466
刺激了	-5467
却没有	-5468
发展和	-5469
存在于	-5470
就开始	-5471
工人的	-5472
已开始	-5473
得多的	-5474
持续的	-5475
来源于	-5476
的创新	-5477
的实际	-5478
的激励	-5479
的进步	-5480
的预测	-5481
自由派	-5482
调整的	-5483
谈判的	-5484
还应该	-5485
这也是	-5486
阻碍了	-5487
面临的	-5488
Paul	-5489
▁但这种	-5490
不可能的	-5491
借贷成本	-5492
历史学家	-5493
国际贸易	-5494
巴黎气候	-5495
极端主义	-5496
这一事实	-5497
▁不仅如此	-5498
和其他国家	-5499
奥巴马总统	-5500
经济和社会	-5501
ternational	-5502
从中	-5503
公债	-5504
军方	-5505
准入	-5506
前途	-5507
周围	-5508
增值	-5509
声誉	-5510
外债	-5511
大批	-5512
奠定	-5513
小心	-5514
小说	-5515
幻想	-5516
心脏	-5517
恶劣	-5518
成绩	-5519
打开	-5520
改造	-5521
朝着	-5522
极度	-5523
核电	-5524
海湾	-5525
燃烧	-5526
的那	-5527
签证	-5528
苦难	-5529
范式	-5530
衍生	-5531
赞助	-5532
输出	-5533
追踪	-5534
适得	-5535
Rob	-5536
▁是的	-5537
▁需要	-5538
▁香港	-5539
之后的	-5540
公众对	-5541
急需的	-5542
总量的	-5543
所得税	-5544
控制权	-5545
支出的	-5546
日内瓦	-5547
有理由	-5548
现实的	-5549
的家庭	-5550
的生产	-5551
的过程	-5552
而不能	-5553
而美国	-5554
贸易战	-5555
1970	-5556
▁让我们	-5557
世界秩序	-5558
令人失望	-5559
卫生组织	-5560
永远不会	-5561
的问题上	-5562
行动起来	-5563
适得其反	-5564
金融系统	-5565
难民危机	-5566
1,000	-5567
▁2011	-5568
▁好消息是	-5569
俄罗斯总统	-5570
指出的那样	-5571
欧盟领导人	-5572
首席执行官	-5573
▁最重要的是	-5574
3,	-5575
CT	-5576
▁U	-5577
上加	-5578
举办	-5579
事物	-5580
但对	-5581
修建	-5582
元素	-5583
前者	-5584
区块	-5585
博弈	-5586
宪章	-5587
意的	-5588
指向	-5589
指挥	-5590
提前	-5591
更新	-5592
本土	-5593
此外	-5594
短短	-5595
科奇	-5596
累积	-5597
约为	-5598
葛兰	-5599
超导	-5600
轨迹	-5601
遇到	-5602
附加	-5603
ine	-5604
▁第四	-5605
▁自从	-5606
▁通常	-5607
三十年	-5608
不信任	-5609
与欧洲	-5610
也已经	-5611
会发生	-5612
依然是	-5613
和债务	-5614
和平的	-5615
和监管	-5616
增长了	-5617
完全是	-5618
恢复力	-5619
政权的	-5620
的一致	-5621
的人均	-5622
的前提	-5623
管理者	-5624
让中国	-5625
▁Pro	-5626
停滞不前	-5627
加入欧盟	-5628
委员会的	-5629
既得利益	-5630
最高法院	-5631
欧洲银行	-5632
私营部门	-5633
财政紧缩	-5634
总理默克尔	-5635
特别提款权	-5636
美联储主席	-5637
evelop	-5638
65	-5639
io	-5640
不多	-5641
主教	-5642
减缓	-5643
各州	-5644
国界	-5645
奖励	-5646
奥运	-5647
对象	-5648
将为	-5649
将于	-5650
就职	-5651
并对	-5652
强加	-5653
很低	-5654
愚蠢	-5655
揭示	-5656
撤出	-5657
新型	-5658
显现	-5659
曝光	-5660
杀戮	-5661
架构	-5662
概率	-5663
港口	-5664
瘫痪	-5665
等同	-5666
置疑	-5667
节目	-5668
评价	-5669
迁徙	-5670
错的	-5671
TIP	-5672
▁事实	-5673
▁可能	-5674
▁当今	-5675
▁第一	-5676
信息和	-5677
公共和	-5678
关注的	-5679
区块链	-5680
卡扎菲	-5681
去年的	-5682
定义为	-5683
已不再	-5684
更低的	-5685
正常化	-5686
生产的	-5687
的比重	-5688
的监管	-5689
的程度	-5690
的部分	-5691
的错误	-5692
观察者	-5693
阿尔巴	-5694
▁197	-5695
▁即使在	-5696
人均收入	-5697
做好准备	-5698
在政治上	-5699
极端贫困	-5700
民主制度	-5701
的人来说	-5702
经济活动	-5703
京都议定书	-5704
政治和经济	-5705
穆斯林兄弟	-5706
二氧化碳排放	-5707
经常项目赤字	-5708
Al	-5709
Ch	-5710
ES	-5711
oc	-5712
▁无	-5713
不住	-5714
不复	-5715
事关	-5716
伴随	-5717
倒退	-5718
储量	-5719
克强	-5720
千上	-5721
告终	-5722
因于	-5723
塑料	-5724
寻常	-5725
底层	-5726
悬崖	-5727
新增	-5728
有过	-5729
每一	-5730
河流	-5731
着手	-5732
给出	-5733
缓冲	-5734
英雄	-5735
蓬勃	-5736
调节	-5737
跨越	-5738
轻松	-5739
边际	-5740
通信	-5741
遗传	-5742
阴影	-5743
隐藏	-5744
霍乱	-5745
250	-5746
SDR	-5747
ber	-5748
▁还是	-5749
不在于	-5750
了许多	-5751
代表着	-5752
工程师	-5753
并因此	-5754
归因于	-5755
很好地	-5756
必然会	-5757
感受到	-5758
所造成	-5759
新一轮	-5760
李克强	-5761
的制度	-5762
的危机	-5763
的外交	-5764
的教训	-5765
的相关	-5766
的真正	-5767
的英国	-5768
的项目	-5769
着眼于	-5770
第三个	-5771
路线图	-5772
这就是	-5773
▁但随着	-5774
关键作用	-5775
刺激计划	-5776
前所未有	-5777
成为世界	-5778
所提出的	-5779
根本无法	-5780
根本没有	-5781
经济政策	-5782
自由流动	-5783
西方国家	-5784
金融服务	-5785
▁2009	-5786
▁布鲁塞尔	-5787
万亿美元的	-5788
全球经济的	-5789
政策制定者	-5790
的经济学家	-5791
联系在一起	-5792
阿尔巴尼亚	-5793
Robert	-5794
中国人民银行	-5795
大宗商品价格	-5796
QE	-5797
au	-5798
一词	-5799
主体	-5800
亚马	-5801
低了	-5802
克劳	-5803
免于	-5804
出手	-5805
区的	-5806
千万	-5807
反腐	-5808
呼声	-5809
和水	-5810
和谐	-5811
哈尼	-5812
奥尔	-5813
就连	-5814
居高	-5815
开端	-5816
得益	-5817
掌控	-5818
推向	-5819
推移	-5820
放大	-5821
政界	-5822
期的	-5823
本应	-5824
检察	-5825
特里	-5826
用途	-5827
蒙受	-5828
论者	-5829
雇佣	-5830
颇为	-5831
颇具	-5832
高估	-5833
sti	-5834
▁实现	-5835
▁我的	-5836
▁然后	-5837
世界最	-5838
创造出	-5839
制定了	-5840
副总统	-5841
又一次	-5842
因素是	-5843
局限于	-5844
很快就	-5845
忽略了	-5846
所有权	-5847
理性的	-5848
的不同	-5849
的数量	-5850
的新闻	-5851
的时期	-5852
的胜利	-5853
的规则	-5854
能带来	-5855
高科技	-5856
1000	-5857
▁即使是	-5858
充分利用	-5859
医疗保险	-5860
只不过是	-5861
大幅下降	-5862
如果我们	-5863
政府必须	-5864
最严重的	-5865
核不扩散	-5866
的方式来	-5867
联邦政府	-5868
资本流入	-5869
近几年来	-5870
不可避免地	-5871
的不确定性	-5872
▁若	-5873
不想	-5874
业的	-5875
倡导	-5876
偏离	-5877
切地	-5878
匮乏	-5879
单边	-5880
基石	-5881
增速	-5882
复制	-5883
庆祝	-5884
归根	-5885
慢性	-5886
收回	-5887
新鲜	-5888
期限	-5889
正规	-5890
民党	-5891
灭绝	-5892
的事	-5893
的女	-5894
突出	-5895
等国	-5896
紧要	-5897
纽黑	-5898
耗费	-5899
英语	-5900
补助	-5901
豁免	-5902
较为	-5903
还不	-5904
逃避	-5905
顺差	-5906
预示	-5907
iss	-5908
iti	-5909
▁Ac	-5910
▁主要	-5911
▁但对	-5912
▁关键	-5913
▁社会	-5914
▁解决	-5915
▁认为	-5916
▁韩国	-5917
充分的	-5918
其自身	-5919
准备好	-5920
双方都	-5921
和货币	-5922
和贸易	-5923
和韩国	-5924
国务院	-5925
在印度	-5926
地认为	-5927
坏消息	-5928
城市的	-5929
对那些	-5930
建立起	-5931
影响了	-5932
德拉吉	-5933
惊人的	-5934
成千上	-5935
持有的	-5936
数十年	-5937
数字化	-5938
无法在	-5939
是对的	-5940
是非常	-5941
暴力的	-5942
比美国	-5943
的信贷	-5944
的预期	-5945
纽黑文	-5946
结束后	-5947
边缘化	-5948
这么做	-5949
追随者	-5950
退休金	-5951
鲁哈尼	-5952
John	-5953
ence	-5954
▁马德里	-5955
中小企业	-5956
令人不安	-5957
以色列的	-5958
债务危机	-5959
其中包括	-5960
唯一一个	-5961
工业革命	-5962
政府官员	-5963
民族国家	-5964
波斯尼亚	-5965
很大一部分	-5966
欧洲一体化	-5967
的全球经济	-5968
evelopment	-5969
上市	-5970
不振	-5971
也让	-5972
交给	-5973
他所	-5974
优惠	-5975
会让	-5976
其余	-5977
击败	-5978
切断	-5979
加尔	-5980
医保	-5981
十亿	-5982
占比	-5983
名单	-5984
埃尔	-5985
实用	-5986
封闭	-5987
小学	-5988
就有	-5989
建国	-5990
彼得	-5991
意思	-5992
战术	-5993
房产	-5994
揽子	-5995
撤销	-5996
汇款	-5997
特色	-5998
症状	-5999
神话	-6000
维也	-6001
职务	-6002
许可	-6003
起义	-6004
远见	-6005
那时	-6006
重来	-6007
ang	-6008
与伊朗	-6009
了大量	-6010
亚马逊	-6011
人死亡	-6012
付出的	-6013
再分配	-6014
可以将	-6015
和支持	-6016
回报率	-6017
地位的	-6018
安全网	-6019
引起的	-6020
很简单	-6021
感兴趣	-6022
的不满	-6023
的科学	-6024
预见的	-6025
高风险	-6026
1945	-6027
cial	-6028
inan	-6029
▁乌克兰	-6030
▁但美国	-6031
▁在这些	-6032
▁这样做	-6033
与俄罗斯	-6034
债券市场	-6035
债务重组	-6036
几乎所有	-6037
就有可能	-6038
我们已经	-6039
所作所为	-6040
生活方式	-6041
财富基金	-6042
这场危机	-6043
领导作用	-6044
▁2017	-6045
外交政策的	-6046
az	-6047
ex	-6048
一无	-6049
之内	-6050
也为	-6051
也对	-6052
也门	-6053
五个	-6054
但仍	-6055
光是	-6056
加工	-6057
单独	-6058
卷土	-6059
原子	-6060
四年	-6061
土壤	-6062
境况	-6063
增进	-6064
士顿	-6065
失误	-6066
宽容	-6067
对付	-6068
展望	-6069
已被	-6070
席卷	-6071
平息	-6072
德曼	-6073
截止	-6074
机关	-6075
杀害	-6076
的低	-6077
的可	-6078
的非	-6079
结底	-6080
编辑	-6081
行使	-6082
身处	-6083
CEO	-6084
son	-6085
▁传统	-6086
▁普京	-6087
了一些	-6088
和地区	-6089
在最近	-6090
将带来	-6091
推动了	-6092
最近在	-6093
权利的	-6094
波士顿	-6095
潜在的	-6096
的冲突	-6097
的出口	-6098
的证据	-6099
维也纳	-6100
詹姆斯	-6101
还不到	-6102
都已经	-6103
▁新德里	-6104
▁西班牙	-6105
也有可能	-6106
几十年中	-6107
半个世纪	-6108
和叙利亚	-6109
将在未来	-6110
归根结底	-6111
石油价格	-6112
联系起来	-6113
诺贝尔奖	-6114
DA	-6115
与之	-6116
为期	-6117
但他	-6118
内塔	-6119
凭借	-6120
力和	-6121
加哥	-6122
十二	-6123
协作	-6124
反抗	-6125
受损	-6126
回顾	-6127
国王	-6128
大坝	-6129
密尔	-6130
尔尼	-6131
州和	-6132
布拉	-6133
成的	-6134
挂钩	-6135
文学	-6136
无辜	-6137
晋三	-6138
理事	-6139
生效	-6140
生计	-6141
疯狂	-6142
病例	-6143
细菌	-6144
诚实	-6145
话题	-6146
诽谤	-6147
软弱	-6148
阿里	-6149
降至	-6150
面的	-6151
顶层	-6152
25%	-6153
800	-6154
▁在我	-6155
▁来自	-6156
▁这次	-6157
不利于	-6158
从而让	-6159
体现了	-6160
因为在	-6161
在亚洲	-6162
在这些	-6163
将如何	-6164
就业率	-6165
我们将	-6166
措施的	-6167
数据的	-6168
明智的	-6169
是不是	-6170
比其他	-6171
的利率	-6172
研究者	-6173
糟糕的	-6174
继任者	-6175
能获得	-6176
芝加哥	-6177
通过了	-6178
阻止了	-6179
urop	-6180
▁第二个	-6181
中国已经	-6182
原因在于	-6183
双边关系	-6184
发挥作用	-6185
可能成为	-6186
增长放缓	-6187
奥巴马的	-6188
投资者的	-6189
投资银行	-6190
消费者的	-6191
跨太平洋	-6192
重要作用	-6193
stitu	-6194
千年发展目标	-6195
穆斯林兄弟会	-6196
9.	-6197
ht	-6198
og	-6199
▁很	-6200
不像	-6201
不大	-6202
两极	-6203
互换	-6204
人心	-6205
估值	-6206
借此	-6207
借钱	-6208
儿子	-6209
关押	-6210
内在	-6211
分担	-6212
勇敢	-6213
原教	-6214
受访	-6215
向前	-6216
多重	-6217
大臣	-6218
它所	-6219
实证	-6220
尽快	-6221
岁的	-6222
平稳	-6223
年在	-6224
应付	-6225
当代	-6226
想想	-6227
所做	-6228
报导	-6229
时报	-6230
是其	-6231
有意	-6232
步伐	-6233
比尔	-6234
海上	-6235
现行	-6236
眼中	-6237
破灭	-6238
科尔	-6239
篮子	-6240
级别	-6241
节约	-6242
花了	-6243
论证	-6244
轨道	-6245
迈进	-6246
近乎	-6247
迫害	-6248
隐私	-6249
MDG	-6250
▁柏林	-6251
为代价	-6252
保持在	-6253
副作用	-6254
原教旨	-6255
可以说	-6256
大屠杀	-6257
完成了	-6258
定居点	-6259
尼克松	-6260
并且在	-6261
应该被	-6262
忽视了	-6263
成立了	-6264
接近于	-6265
是一位	-6266
是欧洲	-6267
最重要	-6268
有一些	-6269
有限的	-6270
的一步	-6271
的其他	-6272
的需要	-6273
违反了	-6274
非洲人	-6275
1999	-6276
2025	-6277
不幸的是	-6278
中东地区	-6279
任何一个	-6280
劳动力的	-6281
商品价格	-6282
安倍晋三	-6283
就是一个	-6284
总统大选	-6285
研究人员	-6286
越来越大	-6287
这些国家的	-6288
世界其他国家	-6289
▁举	-6290
不清	-6291
东道	-6292
中止	-6293
买入	-6294
停火	-6295
内政	-6296
军备	-6297
场所	-6298
够的	-6299
始终	-6300
学派	-6301
布尔	-6302
年长	-6303
得更	-6304
捕捞	-6305
政体	-6306
有史	-6307
海啸	-6308
牛津	-6309
稳健	-6310
简直	-6311
羞辱	-6312
耐心	-6313
肯尼	-6314
自豪	-6315
营造	-6316
要为	-6317
视角	-6318
解读	-6319
论调	-6320
谎言	-6321
遗憾	-6322
马尔	-6323
▁央行	-6324
▁已经	-6325
▁答案	-6326
一致的	-6327
世界中	-6328
事件的	-6329
以及在	-6330
国内的	-6331
复杂性	-6332
外交官	-6333
多年前	-6334
政府将	-6335
无论是	-6336
有一天	-6337
有利的	-6338
没什么	-6339
法国人	-6340
注意到	-6341
灵活性	-6342
疾病的	-6343
痛苦的	-6344
的损失	-6345
的看法	-6346
的税收	-6347
的组织	-6348
的选民	-6349
萨达姆	-6350
被广泛	-6351
贷款人	-6352
长期的	-6353
▁198	-6354
▁多年来	-6355
▁结果是	-6356
就是明证	-6357
所有人的	-6358
政府应该	-6359
日益增加	-6360
是不够的	-6361
是否能够	-6362
有足够的	-6363
的必要性	-6364
紧缩政策	-6365
自身利益	-6366
这些政策	-6367
远远不够	-6368
2,000	-6369
的经济发展	-6370
进一步恶化	-6371
领导人必须	-6372
比以往任何时候	-6373
▁Development	-6374
▁p	-6375
▁仅	-6376
一段	-6377
三年	-6378
不当	-6379
不难	-6380
享有	-6381
会使	-6382
倾销	-6383
光明	-6384
兰卡	-6385
决裂	-6386
南极	-6387
双相	-6388
合约	-6389
哈萨	-6390
在与	-6391
地在	-6392
场合	-6393
坚挺	-6394
外来	-6395
宇宙	-6396
定位	-6397
将给	-6398
小型	-6399
年时	-6400
并以	-6401
当下	-6402
情感	-6403
成百	-6404
托斯	-6405
携手	-6406
方便	-6407
无需	-6408
星球	-6409
机场	-6410
极限	-6411
欧美	-6412
略有	-6413
疑虑	-6414
眼前	-6415
短暂	-6416
老牌	-6417
荒谬	-6418
萨默	-6419
警方	-6420
让我	-6421
贿赂	-6422
避难	-6423
采纳	-6424
野蛮	-6425
难免	-6426
雇员	-6427
默德	-6428
TPP	-6429
▁一位	-6430
▁基于	-6431
▁欧元	-6432
▁针对	-6433
下来的	-6434
中扮演	-6435
从现在	-6436
他们会	-6437
代表了	-6438
会成为	-6439
保持着	-6440
修正案	-6441
加入了	-6442
占据了	-6443
卡塔尔	-6444
及其他	-6445
反对党	-6446
可以被	-6447
合适的	-6448
同时又	-6449
向美国	-6450
在我们	-6451
文化的	-6452
新一代	-6453
是一场	-6454
是不可	-6455
桑德斯	-6456
正确地	-6457
的主权	-6458
的争论	-6459
的原则	-6460
的想法	-6461
的最高	-6462
的规模	-6463
的道德	-6464
私有化	-6465
能源和	-6466
衍生品	-6467
表面上	-6468
邻国的	-6469
1979	-6470
▁上个月	-6471
伊拉克的	-6472
债务负担	-6473
国内政治	-6474
国内消费	-6475
对美国的	-6476
应对措施	-6477
所取得的	-6478
无法解决	-6479
的大部分	-6480
绝非易事	-6481
试图通过	-6482
调查显示	-6483
这一结果	-6484
需要一个	-6485
2008—	-6486
传染性疾病	-6487
做到这一点	-6488
货币政策的	-6489
▁9	-6490
▁几	-6491
▁所	-6492
之不	-6493
代替	-6494
众所	-6495
低下	-6496
依存	-6497
升温	-6498
商人	-6499
在眉	-6500
塑造	-6501
大林	-6502
家园	-6503
对冲	-6504
将把	-6505
州的	-6506
延伸	-6507
建制	-6508
当年	-6509
微妙	-6510
悖论	-6511
接管	-6512
政坛	-6513
故意	-6514
有用	-6515
束缚	-6516
根除	-6517
欺诈	-6518
海地	-6519
演化	-6520
直觉	-6521
看着	-6522
空中	-6523
经受	-6524
萨斯	-6525
血腥	-6526
起点	-6527
道而	-6528
配额	-6529
阻力	-6530
ain	-6531
ind	-6532
▁大约	-6533
▁面对	-6534
人民党	-6535
但这些	-6536
全新的	-6537
决定了	-6538
凸显出	-6539
加起来	-6540
发挥了	-6541
吸引了	-6542
哲学家	-6543
在眉睫	-6544
女性的	-6545
如果不	-6546
就可能	-6547
强化了	-6548
往往会	-6549
执政的	-6550
新常态	-6551
是时候	-6552
独立性	-6553
的一年	-6554
的大幅	-6555
的女性	-6556
的持续	-6557
的有效	-6558
的目的	-6559
相同的	-6560
签署了	-6561
管理的	-6562
罕默德	-6563
美国将	-6564
规模的	-6565
该公司	-6566
TTIP	-6567
▁在英国	-6568
▁如果你	-6569
卷土重来	-6570
哈佛大学	-6571
对中国的	-6572
应该成为	-6573
总统选举	-6574
政治制度	-6575
数百万人	-6576
更进一步	-6577
的俄罗斯	-6578
经济学的	-6579
超级大国	-6580
迫在眉睫	-6581
都是如此	-6582
领导人的	-6583
▁如果中国	-6584
凯恩斯主义	-6585
哈萨克斯坦	-6586
资本主义的	-6587
▁国际货币基金组织	-6588
iv	-6589
▁巴	-6590
▁把	-6591
▁谁	-6592
一片	-6593
与会	-6594
他将	-6595
伯格	-6596
兑换	-6597
号召	-6598
各类	-6599
后续	-6600
在他	-6601
在新	-6602
大体	-6603
天的	-6604
奉行	-6605
妻子	-6606
峰值	-6607
开创	-6608
引领	-6609
弹性	-6610
托克	-6611
批判	-6612
护理	-6613
撰写	-6614
无比	-6615
无能	-6616
机械	-6617
水和	-6618
眼光	-6619
稳固	-6620
经费	-6621
罪犯	-6622
美好	-6623
胜出	-6624
诉求	-6625
赞同	-6626
过时	-6627
这让	-6628
阴谋	-6629
韦斯	-6630
饥荒	-6631
▁也是	-6632
▁但当	-6633
▁历史	-6634
▁此后	-6635
世纪的	-6636
主导的	-6637
从而使	-6638
以来的	-6639
众所周	-6640
供应商	-6641
创新性	-6642
和消费	-6643
多元化	-6644
密尔顿	-6645
尼亚胡	-6646
已经从	-6647
年美国	-6648
成百上	-6649
接下来	-6650
政府间	-6651
是我们	-6652
是无法	-6653
正处于	-6654
流行的	-6655
的产品	-6656
的局面	-6657
的潜在	-6658
脆弱的	-6659
视而不	-6660
贸易和	-6661
避免的	-6662
里兰卡	-6663
长期看	-6664
1992	-6665
▁IMF	-6666
▁但现在	-6667
▁在一个	-6668
▁在未来	-6669
全世界的	-6670
公共服务	-6671
公共财政	-6672
其中一个	-6673
军事力量	-6674
单一货币	-6675
双相障碍	-6676
发生变化	-6677
取得进展	-6678
和以色列	-6679
商业银行	-6680
增长最快	-6681
外交部长	-6682
央行行长	-6683
并不一定	-6684
更深层次	-6685
极端分子	-6686
根本性的	-6687
私人投资	-6688
能源效率	-6689
这一数字	-6690
阿富汗的	-6691
▁在经历了	-6692
内塔尼亚胡	-6693
更重要的是	-6694
合作伙伴关系	-6695
外国直接投资	-6696
uropean	-6697
8.	-6698
ie	-6699
▁1	-6700
上任	-6701
两项	-6702
交道	-6703
产物	-6704
关塔	-6705
兴奋	-6706
内贾	-6707
制止	-6708
十八	-6709
半数	-6710
各项	-6711
回避	-6712
在近	-6713
增税	-6714
多德	-6715
大致	-6716
头上	-6717
奢侈	-6718
尖锐	-6719
必需	-6720
总结	-6721
抵达	-6722
挤兑	-6723
提及	-6724
放眼	-6725
数额	-6726
无从	-6727
是让	-6728
暂停	-6729
杀死	-6730
极少	-6731
格局	-6732
清理	-6733
玻利	-6734
界定	-6735
界限	-6736
确立	-6737
神社	-6738
经典	-6739
维和	-6740
腺癌	-6741
花在	-6742
血液	-6743
说过	-6744
进攻	-6745
阅读	-6746
风格	-6747
饮食	-6748
,20	-6749
all	-6750
end	-6751
▁他在	-6752
▁他说	-6753
不公平	-6754
不能再	-6755
世纪初	-6756
中东和	-6757
之前的	-6758
价值链	-6759
内贾德	-6760
北朝鲜	-6761
发布的	-6762
召开的	-6763
四分之	-6764
外围国	-6765
对伊朗	-6766
对未来	-6767
市场上	-6768
德国人	-6769
所做的	-6770
所必须	-6771
扩大了	-6772
拒绝了	-6773
时间内	-6774
是一项	-6775
显示出	-6776
条件下	-6777
查韦斯	-6778
环境的	-6779
的严重	-6780
的手段	-6781
统一的	-6782
美国家	-6783
获得者	-6784
起来的	-6785
零利率	-6786
价格稳定	-6787
和土耳其	-6788
国家利益	-6789
如何应对	-6790
寻求庇护	-6791
将有助于	-6792
少数民族	-6793
数字技术	-6794
普遍认为	-6795
汉密尔顿	-6796
的另一个	-6797
营养不良	-6798
迫切需要	-6799
选举结果	-6800
金融中心	-6801
▁2001	-6802
▁国际社会	-6803
的基础设施	-6804
发展中经济体	-6805
在某种程度上	-6806
美国总统奥巴马	-6807
ey	-6808
up	-6809
上演	-6810
东海	-6811
中欧	-6812
们的	-6813
优质	-6814
初级	-6815
利时	-6816
协商	-6817
可疑	-6818
哲学	-6819
固然	-6820
地点	-6821
境地	-6822
处的	-6823
多次	-6824
大肆	-6825
奏效	-6826
小国	-6827
已然	-6828
强的	-6829
很小	-6830
得上	-6831
总裁	-6832
情愿	-6833
房子	-6834
提交	-6835
植物	-6836
次级	-6837
歇尔	-6838
深深	-6839
清除	-6840
潮流	-6841
热带	-6842
燃煤	-6843
爱因	-6844
牵涉	-6845
的重	-6846
精确	-6847
罪魁	-6848
艰苦	-6849
节奏	-6850
贪婪	-6851
迎接	-6852
阐述	-6853
防卫	-6854
随机	-6855
难道	-6856
驾驶	-6857
鲜有	-6858
ric	-6859
▁不论	-6860
▁财政	-6861
▁随后	-6862
个人的	-6863
低估了	-6864
前苏联	-6865
势力的	-6866
受访者	-6867
和伊朗	-6868
和长期	-6869
基础上	-6870
媒体的	-6871
将这些	-6872
尼西亚	-6873
性武器	-6874
替代品	-6875
有很多	-6876
演讲中	-6877
由美国	-6878
的前景	-6879
的最低	-6880
的民众	-6881
等同于	-6882
而在于	-6883
谈判中	-6884
过去了	-6885
还不如	-6886
追溯到	-6887
预示着	-6888
与以色列	-6889
个成员国	-6890
债务水平	-6891
北爱尔兰	-6892
去杠杆化	-6893
和葡萄牙	-6894
国家层面	-6895
国防部长	-6896
成为现实	-6897
成千上万	-6898
政府支出	-6899
无关紧要	-6900
果真如此	-6901
爱因斯坦	-6902
的增长率	-6903
的年轻人	-6904
英国政府	-6905
讽刺的是	-6906
贸易协定	-6907
造成严重	-6908
中国共产党	-6909
带来巨大的	-6910
经济和政治	-6911
▁中国领导人	-6912
一方	-6913
不顾	-6914
价还	-6915
低效	-6916
则在	-6917
功于	-6918
名字	-6919
吞并	-6920
命令	-6921
境内	-6922
夺走	-6923
安置	-6924
寡头	-6925
惊人	-6926
拨款	-6927
指定	-6928
挫折	-6929
掉了	-6930
援引	-6931
新生	-6932
枯竭	-6933
格尔	-6934
欺骗	-6935
泛美	-6936
灌溉	-6937
理工	-6938
的核	-6939
礼物	-6940
神经	-6941
结婚	-6942
罪名	-6943
职责	-6944
肆虐	-6945
若干	-6946
让他	-6947
资料	-6948
输家	-6949
雅典	-6950
预警	-6951
高等	-6952
鲁莽	-6953
齐聚	-6954
enn	-6955
ker	-6956
ort	-6957
▁但我	-6958
丘吉尔	-6959
价还价	-6960
会出现	-6961
但美国	-6962
催生了	-6963
全面的	-6964
决定性	-6965
分析师	-6966
制造商	-6967
和管理	-6968
因为他	-6969
增值税	-6970
大国的	-6971
对这一	-6972
将这一	-6973
并不会	-6974
归功于	-6975
打交道	-6976
有两个	-6977
的信用	-6978
的印度	-6979
的故事	-6980
的文化	-6981
的现象	-6982
的难民	-6983
社会和	-6984
秩序的	-6985
竞争性	-6986
美尼亚	-6987
较低的	-6988
这表明	-6989
▁Sch	-6990
▁在许多	-6991
与美国的	-6992
个国家的	-6993
从一开始	-6994
从根本上	-6995
农村地区	-6996
同时也是	-6997
和美国的	-6998
少数群体	-6999
恶性循环	-7000
教育程度	-7001
更重要的	-7002
正在经历	-7003
环境保护	-7004
讨价还价	-7005
资本流动	-7006
非常重要	-7007
▁毫不奇怪	-7008
▁简而言之	-7009
华盛顿共识	-7010
恐怖主义的	-7011
时间的推移	-7012
联合国大会	-7013
高收入国家	-7014
主权财富基金	-7015
基础设施建设	-7016
欧元区成员国	-7017
stitute	-7018
36	-7019
BR	-7020
OM	-7021
uc	-7022
▁受	-7023
▁拉	-7024
一件	-7025
三国	-7026
主管	-7027
之争	-7028
事态	-7029
仅为	-7030
会给	-7031
倒台	-7032
克的	-7033
公务	-7034
冻结	-7035
出发	-7036
单纯	-7037
变迁	-7038
召集	-7039
司机	-7040
各样	-7041
回忆	-7042
大相	-7043
安德	-7044
安抚	-7045
将近	-7046
尼黑	-7047
巨量	-7048
巴巴	-7049
年和	-7050
并无	-7051
径庭	-7052
心态	-7053
急于	-7054
总部	-7055
截至	-7056
拙劣	-7057
招募	-7058
收到	-7059
整整	-7060
施压	-7061
族裔	-7062
是无	-7063
有其	-7064
有趣	-7065
权益	-7066
检验	-7067
次于	-7068
海默	-7069
渗透	-7070
热衷	-7071
的分	-7072
监禁	-7073
直升	-7074
种种	-7075
结算	-7076
胜任	-7077
草案	-7078
薄弱	-7079
较高	-7080
这也	-7081
进来	-7082
远未	-7083
金正	-7084
钓鱼	-7085
间谍	-7086
队伍	-7087
顺利	-7088
颁布	-7089
首位	-7090
黑人	-7091
ani	-7092
▁Co	-7093
▁企业	-7094
▁长期	-7095
不一定	-7096
中国海	-7097
丰富的	-7098
付出了	-7099
以外的	-7100
任何人	-7101
压力的	-7102
原材料	-7103
同一个	-7104
听起来	-7105
和创新	-7106
回到了	-7107
在他们	-7108
大选中	-7109
得益于	-7110
恶化的	-7111
慕尼黑	-7112
文化和	-7113
斯大林	-7114
是世界	-7115
更愿意	-7116
来进行	-7117
活动家	-7118
漫长的	-7119
的人权	-7120
的存在	-7121
的解释	-7122
组织和	-7123
腐败的	-7124
该组织	-7125
贸易的	-7126
转折点	-7127
运动的	-7128
金融业	-7129
限制在	-7130
随后的	-7131
集中于	-7132
▁Con	-7133
▁如果不	-7134
▁第一个	-7135
五分之一	-7136
亚美尼亚	-7137
充分就业	-7138
全球性的	-7139
加密货币	-7140
国际合作	-7141
在阿富汗	-7142
尤其如此	-7143
年轻人的	-7144
得到解决	-7145
所提供的	-7146
技术进步	-7147
持续下去	-7148
提醒我们	-7149
没有一个	-7150
的领导下	-7151
穆罕默德	-7152
英国首相	-7153
萨尔科奇	-7154
视而不见	-7155
跨国公司	-7156
迹象表明	-7157
▁Comm	-7158
▁具体而言	-7159
▁普林斯顿	-7160
之间的联系	-7161
▁发展中国家	-7162
世界经济论坛	-7163
巴黎气候协定	-7164
▁5	-7165
与此	-7166
世卫	-7167
中介	-7168
们在	-7169
但我	-7170
体面	-7171
借鉴	-7172
偿债	-7173
储存	-7174
克制	-7175
利于	-7176
加索	-7177
名昭	-7178
女童	-7179
如同	-7180
市值	-7181
忠诚	-7182
想起	-7183
感谢	-7184
戏剧	-7185
战场	-7186
抗击	-7187
新政	-7188
有序	-7189
核能	-7190
梅德	-7191
派遣	-7192
流血	-7193
涌现	-7194
演说	-7195
版本	-7196
生意	-7197
留给	-7198
硅谷	-7199
累计	-7200
纳米	-7201
绑架	-7202
肿瘤	-7203
药方	-7204
轰炸	-7205
这座	-7206
迪拜	-7207
逆差	-7208
门槛	-7209
雷曼	-7210
麻痹	-7211
arl	-7212
▁Re	-7213
▁不久	-7214
▁与此	-7215
▁投资	-7216
▁这也	-7217
世界杯	-7218
了经济	-7219
做什么	-7220
反应堆	-7221
受益者	-7222
和实施	-7223
在整个	-7224
大衰退	-7225
奥运会	-7226
居高不	-7227
布雷顿	-7228
建筑业	-7229
强调了	-7230
扩大到	-7231
承诺要	-7232
摆脱了	-7233
教训是	-7234
方法是	-7235
有任何	-7236
有意义	-7237
来支持	-7238
的反对	-7239
的批评	-7240
的气候	-7241
立法者	-7242
等其他	-7243
等领域	-7244
约翰逊	-7245
自民党	-7246
表现得	-7247
解放军	-7248
还要多	-7249
远高于	-7250
那里的	-7251
限制了	-7252
额外的	-7253
▁许多人	-7254
▁阿富汗	-7255
专业人士	-7256
仍然存在	-7257
南中国海	-7258
大幅增加	-7259
大相径庭	-7260
就意味着	-7261
弗里德曼	-7262
很少有人	-7263
政府债务	-7264
的政治家	-7265
的经济学	-7266
▁但这样的	-7267
▁这些国家	-7268
大西洋两岸	-7269
数十亿美元	-7270
最重要的是	-7271
32	-7272
37	-7273
上下	-7274
下行	-7275
乌托	-7276
买卖	-7277
住了	-7278
偏向	-7279
包装	-7280
协力	-7281
卷入	-7282
可观	-7283
合物	-7284
哪种	-7285
回合	-7286
在对	-7287
坐视	-7288
垃圾	-7289
太少	-7290
失控	-7291
奋斗	-7292
就被	-7293
屈服	-7294
崩离	-7295
彰显	-7296
想到	-7297
指令	-7298
掠夺	-7299
无情	-7300
早在	-7301
更能	-7302
本币	-7303
杀伤	-7304
格曼	-7305
民选	-7306
氛围	-7307
深陷	-7308
猛烈	-7309
的更	-7310
相近	-7311
看出	-7312
种类	-7313
科齐	-7314
竭力	-7315
约有	-7316
结局	-7317
罕见	-7318
群岛	-7319
聚焦	-7320
股份	-7321
股本	-7322
良机	-7323
英里	-7324
重回	-7325
限额	-7326
骚乱	-7327
350	-7328
▁Tr	-7329
▁俄国	-7330
▁其实	-7331
▁市场	-7332
▁改革	-7333
▁这对	-7334
上世纪	-7335
上加霜	-7336
乌托邦	-7337
也正在	-7338
仍然在	-7339
会造成	-7340
冲突和	-7341
几年的	-7342
受益于	-7343
可能对	-7344
国神社	-7345
在一定	-7346
在这里	-7347
基础的	-7348
天主教	-7349
太多的	-7350
居住在	-7351
崩离析	-7352
年全球	-7353
影响着	-7354
性问题	-7355
所带来	-7356
找不到	-7357
找到了	-7358
承诺的	-7359
推动力	-7360
暴力和	-7361
最严重	-7362
标准的	-7363
毕业生	-7364
甚至在	-7365
的失败	-7366
的结论	-7367
的预算	-7368
移民和	-7369
等问题	-7370
经通胀	-7371
维持在	-7372
老年人	-7373
茨海默	-7374
萨默斯	-7375
达成了	-7376
1950	-7377
▁叙利亚	-7378
▁而尽管	-7379
▁而这一	-7380
▁该计划	-7381
▁这对于	-7382
中国正在	-7383
之间存在	-7384
也是一个	-7385
人的生命	-7386
似乎已经	-7387
全世界最	-7388
出口导向	-7389
压力测试	-7390
另外一个	-7391
安全问题	-7392
年代以来	-7393
并不是说	-7394
当选总统	-7395
政策利率	-7396
生物燃料	-7397
的支持率	-7398
联合国的	-7399
讽刺意味	-7400
还有其他	-7401
雪上加霜	-7402
▁2007	-7403
▁2016	-7404
▁我们应该	-7405
布雷顿森林	-7406
欧洲理事会	-7407
阿尔茨海默	-7408
麦肯锡全球	-7409
ission	-7410
经常账户赤字	-7411
▁在这种情况下	-7412
European	-7413
DI	-7414
▁Y	-7415
▁t	-7416
▁高	-7417
中学	-7418
之久	-7419
于此	-7420
亚的	-7421
伤亡	-7422
催化	-7423
内需	-7424
减免	-7425
分钟	-7426
动乱	-7427
原理	-7428
古典	-7429
听证	-7430
噩梦	-7431
外资	-7432
娱乐	-7433
并使	-7434
得主	-7435
得起	-7436
恐怕	-7437
愈演	-7438
愈烈	-7439
收获	-7440
斯达	-7441
无意	-7442
明星	-7443
未知	-7444
正当	-7445
治国	-7446
治愈	-7447
洛伐	-7448
游客	-7449
爱国	-7450
瓦解	-7451
甲烷	-7452
短视	-7453
营商	-7454
要好	-7455
规避	-7456
过分	-7457
配合	-7458
15%	-7459
▁Al	-7460
▁Le	-7461
▁in	-7462
▁教育	-7463
▁智利	-7464
▁这类	-7465
不具备	-7466
五年中	-7467
任总统	-7468
例子中	-7469
化合物	-7470
和平与	-7471
大数据	-7472
对我们	-7473
尔多瓦	-7474
并通过	-7475
很少有	-7476
把自己	-7477
撒切尔	-7478
是完全	-7479
最终将	-7480
有一种	-7481
有多少	-7482
爆发的	-7483
的恐惧	-7484
的感觉	-7485
的贡献	-7486
的障碍	-7487
监管和	-7488
碳定价	-7489
科维奇	-7490
统治的	-7491
而没有	-7492
肯尼迪	-7493
臭名昭	-7494
致命的	-7495
菲尔德	-7496
选举的	-7497
都认为	-7498
马拉雅	-7499
1960	-7500
令人惊讶	-7501
克鲁格曼	-7502
公共投资	-7503
只是一个	-7504
可以成为	-7505
吸引力的	-7506
哪个国家	-7507
国际金融	-7508
将进一步	-7509
工作时间	-7510
愈演愈烈	-7511
才能实现	-7512
摆脱贫困	-7513
更多的人	-7514
有意义的	-7515
玻利维亚	-7516
联合起来	-7517
股票市场	-7518
货币操纵	-7519
银行联盟	-7520
▁中国政府	-7521
▁发自伦敦	-7522
▁我们希望	-7523
▁更不用说	-7524
▁气候变化	-7525
▁近几年来	-7526
收入不平等	-7527
民粹主义的	-7528
部分是因为	-7529
联合国秘书长	-7530
▁Economic	-7531
34	-7532
co	-7533
▁人	-7534
一支	-7535
一日	-7536
三角	-7537
不合	-7538
也比	-7539
亚努	-7540
仅占	-7541
今日	-7542
付诸	-7543
作战	-7544
偏远	-7545
傲慢	-7546
出一	-7547
分割	-7548
分类	-7549
卜杜	-7550
受伤	-7551
可供	-7552
启发	-7553
回事	-7554
圣诞	-7555
基文	-7556
塔赫	-7557
多久	-7558
多尔	-7559
头条	-7560
定在	-7561
岛屿	-7562
德尔	-7563
意在	-7564
成分	-7565
挑起	-7566
搜索	-7567
搜集	-7568
撒冷	-7569
撤离	-7570
教学	-7571
是要	-7572
月底	-7573
有毒	-7574
杰夫	-7575
溢出	-7576
生机	-7577
百姓	-7578
真理	-7579
知名	-7580
等到	-7581
简化	-7582
米兰	-7583
纺织	-7584
而出	-7585
耶路	-7586
职能	-7587
背叛	-7588
莱斯	-7589
董事	-7590
蒙特	-7591
裨益	-7592
货物	-7593
赌注	-7594
越大	-7595
邮件	-7596
隐含	-7597
驱使	-7598
麻省	-7599
ood	-7600
ust	-7601
▁Ag	-7602
▁公司	-7603
▁如何	-7604
▁就在	-7605
▁很多	-7606
下一代	-7607
与西方	-7608
东道国	-7609
主要由	-7610
代表的	-7611
俄国的	-7612
儿麻痹	-7613
利用其	-7614
和保护	-7615
和增长	-7616
国家都	-7617
在哪里	-7618
希望的	-7619
应该将	-7620
建设性	-7621
弗兰克	-7622
往往是	-7623
恰恰是	-7624
放弃了	-7625
时期的	-7626
最后的	-7627
来说是	-7628
梅德韦	-7629
检察官	-7630
欧洲在	-7631
比例的	-7632
法塔赫	-7633
潘基文	-7634
生产者	-7635
的健康	-7636
的学生	-7637
的意愿	-7638
的理论	-7639
落后于	-7640
要求的	-7641
辅之以	-7642
这不是	-7643
这使得	-7644
那以后	-7645
1994	-7646
▁一方面	-7647
▁决策者	-7648
▁美国在	-7649
付出代价	-7650
令人沮丧	-7651
做些什么	-7652
儿麻痹症	-7653
只有一个	-7654
可以获得	-7655
喜马拉雅	-7656
实现经济	-7657
实际利率	-7658
年代中期	-7659
摩尔多瓦	-7660
斯里兰卡	-7661
甚至可以	-7662
留在欧盟	-7663
研究中心	-7664
耶路撒冷	-7665
臭名昭著	-7666
财政状况	-7667
财政联盟	-7668
还有一个	-7669
,2015	-7670
▁2005	-7671
▁如果没有	-7672
▁我们可以	-7673
企业家精神	-7674
委员会主席	-7675
意味着什么	-7676
房地产泡沫	-7677
提高生产率	-7678
方面取得了	-7679
的主要原因	-7680
泛美开发银行	-7681
7,	-7682
上周	-7683
不已	-7684
东北	-7685
之重	-7686
买单	-7687
事项	-7688
五大	-7689
亚于	-7690
亚哥	-7691
他信	-7692
先锋	-7693
几十	-7694
别人	-7695
到期	-7696
去了	-7697
可用	-7698
商务	-7699
培育	-7700
增量	-7701
夸大	-7702
夸张	-7703
客观	-7704
对方	-7705
就此	-7706
徘徊	-7707
惠及	-7708
成效	-7709
拉拉	-7710
春天	-7711
派的	-7712
清洗	-7713
游击	-7714
理所	-7715
空白	-7716
策划	-7717
结盟	-7718
罚款	-7719
耶伦	-7720
花钱	-7721
被人	-7722
见证	-7723
记住	-7724
论点	-7725
设想	-7726
这与	-7727
重蹈	-7728
铭记	-7729
靠拢	-7730
顶峰	-7731
高乐	-7732
0.5	-7733
1.4	-7734
ach	-7735
age	-7736
lim	-7737
ord	-7738
▁为何	-7739
▁原因	-7740
不作为	-7741
不断地	-7742
不清楚	-7743
不足为	-7744
了一种	-7745
他们也	-7746
他们是	-7747
会议的	-7748
但这一	-7749
具体的	-7750
发生过	-7751
和世界	-7752
和他的	-7753
和荷兰	-7754
因为其	-7755
在德国	-7756
实现其	-7757
将决定	-7758
小布什	-7759
建立的	-7760
得到的	-7761
支持率	-7762
改善了	-7763
有超过	-7764
殖民地	-7765
洛伐克	-7766
消费的	-7767
涉及到	-7768
温和的	-7769
理解的	-7770
的医疗	-7771
的发生	-7772
的工人	-7773
的思想	-7774
的日本	-7775
的生命	-7776
的认识	-7777
的贷款	-7778
硬着陆	-7779
第一大	-7780
经济中	-7781
能够为	-7782
资产的	-7783
通常是	-7784
▁000	-7785
▁欧盟的	-7786
▁这一点	-7787
▁这两个	-7788
不良贷款	-7789
全球气候	-7790
共同利益	-7791
分崩离析	-7792
可能带来	-7793
国家政府	-7794
圣地亚哥	-7795
工作人员	-7796
我们正在	-7797
所引发的	-7798
最有可能	-7799
有所不同	-7800
极端天气	-7801
的目标是	-7802
经济学奖	-7803
经济问题	-7804
继续下去	-7805
过度负债	-7806
雷曼兄弟	-7807
▁巴基斯坦	-7808
▁除此之外	-7809
和基础设施	-7810
外国投资者	-7811
实现这一点	-7812
社会和经济	-7813
世界其他地区	-7814
经常项目盈余	-7815
阿尔茨海默症	-7816
BM	-7817
▁4	-7818
▁各	-7819
不动	-7820
丧生	-7821
丰厚	-7822
买家	-7823
亨利	-7824
会将	-7825
侵入	-7826
储户	-7827
像是	-7828
克森	-7829
初衷	-7830
区区	-7831
受困	-7832
只在	-7833
可怜	-7834
大军	-7835
宗派	-7836
尊敬	-7837
州长	-7838
市民	-7839
常任	-7840
幻觉	-7841
微小	-7842
微弱	-7843
接入	-7844
摩擦	-7845
日趋	-7846
时所	-7847
昂山	-7848
更深	-7849
最坏	-7850
未经	-7851
格里	-7852
正面	-7853
法的	-7854
照顾	-7855
的老	-7856
的近	-7857
矿产	-7858
系数	-7859
终极	-7860
维克	-7861
节省	-7862
覆辙	-7863
贩毒	-7864
赋权	-7865
赤裸	-7866
较少	-7867
迁移	-7868
过高	-7869
通用	-7870
部落	-7871
顶尖	-7872
额度	-7873
黎加	-7874
▁支持	-7875
▁既然	-7876
▁每年	-7877
一无二	-7878
上一次	-7879
下跌了	-7880
不一样	-7881
两国的	-7882
中东的	-7883
中受益	-7884
为美国	-7885
为自己	-7886
人权和	-7887
以失败	-7888
体系中	-7889
使他们	-7890
军事实	-7891
决定的	-7892
包括了	-7893
即便是	-7894
可以以	-7895
和希腊	-7896
哥斯达	-7897
在政治	-7898
基因组	-7899
大公司	-7900
宏大的	-7901
将会是	-7902
将受到	-7903
将面临	-7904
帮助下	-7905
戴高乐	-7906
所有者	-7907
报告中	-7908
旅游业	-7909
有许多	-7910
机会的	-7911
核试验	-7912
比方说	-7913
潜力的	-7914
留下的	-7915
的公民	-7916
的妇女	-7917
的斗争	-7918
的理念	-7919
的话说	-7920
直升机	-7921
知识和	-7922
站出来	-7923
萨科齐	-7924
规则和	-7925
说明了	-7926
货币和	-7927
达成的	-7928
都不能	-7929
都表明	-7930
钓鱼岛	-7931
阿巴斯	-7932
马克里	-7933
▁Res	-7934
▁但欧洲	-7935
▁它们的	-7936
一直以来	-7937
不受欢迎	-7938
不同的是	-7939
不复存在	-7940
也不可能	-7941
也有助于	-7942
从而导致	-7943
保险公司	-7944
全球金融	-7945
军事干预	-7946
化学武器	-7947
发展战略	-7948
国民阵线	-7949
帝国主义	-7950
更广泛的	-7951
欧盟预算	-7952
死亡人数	-7953
比较优势	-7954
没有得到	-7955
没有理由	-7956
独一无二	-7957
白俄罗斯	-7958
的原因是	-7959
英国经济	-7960
认为自己	-7961
资本外逃	-7962
达成协议	-7963
这一过程	-7964
进一步的	-7965
问题在于	-7966
麻省理工	-7967
ative	-7968
▁其他国家	-7969
▁美国剑桥	-7970
哥斯达黎加	-7971
小儿麻痹症	-7972
新兴市场的	-7973
欧洲央行的	-7974
清楚地表明	-7975
的增长模式	-7976
解决的问题	-7977
解决问题的	-7978
随之而来的	-7979
EA	-7980
NP	-7981
一度	-7982
一番	-7983
一百	-7984
三十	-7985
上学	-7986
不乏	-7987
业绩	-7988
何处	-7989
假定	-7990
入学	-7991
制作	-7992
化肥	-7993
反射	-7994
反犹	-7995
发射	-7996
可言	-7997
史上	-7998
哈里	-7999
地图	-8000
备受	-8001
多极	-8002
大部	-8003
女权	-8004
小泉	-8005
局部	-8006
广播	-8007
建成	-8008
必定	-8009
手里	-8010
扎伊	-8011
拓展	-8012
挑衅	-8013
接纳	-8014
教堂	-8015
教条	-8016
教皇	-8017
旁观	-8018
月初	-8019
本能	-8020
标题	-8021
校园	-8022
核武	-8023
每次	-8024
沙漠	-8025
波特	-8026
波罗	-8027
洞见	-8028
浓缩	-8029
清醒	-8030
猩猩	-8031
真空	-8032
级的	-8033
纳维	-8034
缴纳	-8035
脸书	-8036
花旗	-8037
营销	-8038
表态	-8039
让它	-8040
越发	-8041
迈出	-8042
邻居	-8043
都对	-8044
采访	-8045
随处	-8046
黑客	-8047
ODA	-8048
ton	-8049
▁Un	-8050
▁能源	-8051
▁预计	-8052
会议员	-8053
似乎在	-8054
公共品	-8055
准备金	-8056
凝聚力	-8057
几乎是	-8058
卡特尔	-8059
受影响	-8060
可不是	-8061
启动了	-8062
困扰着	-8063
威胁要	-8064
宣布了	-8065
将增加	-8066
将无法	-8067
就在于	-8068
工作和	-8069
年期间	-8070
庸置疑	-8071
心协力	-8072
性力量	-8073
投票权	-8074
控制着	-8075
数量的	-8076
昂山素	-8077
是他们	-8078
服务于	-8079
来帮助	-8080
比利时	-8081
永久性	-8082
生产性	-8083
的人群	-8084
的保护	-8085
的结构	-8086
监管的	-8087
短期内	-8088
而受到	-8089
英国将	-8090
范围的	-8091
财富的	-8092
贫困和	-8093
达尔富	-8094
锋相对	-8095
集团的	-8096
马德里	-8097
2019	-8098
▁墨西哥	-8099
▁纽黑文	-8100
▁近年来	-8101
九十年代	-8102
也不应该	-8103
亚太地区	-8104
他们必须	-8105
债权人的	-8106
做出反应	-8107
全球市场	-8108
发展趋势	-8109
可以帮助	-8110
国民收入	-8111
在此期间	-8112
家庭收入	-8113
成为全球	-8114
截然不同	-8115
所导致的	-8116
方向发展	-8117
民主刚果	-8118
甚至可能	-8119
相当大的	-8120
知识分子	-8121
靖国神社	-8122
3,000	-8123
ility	-8124
▁2003	-8125
▁也就是说	-8126
▁而事实上	-8127
▁长期以来	-8128
亚努科维奇	-8129
太阳能电池	-8130
已经取得了	-8131
截然不同的	-8132
民族主义者	-8133
基础设施项目	-8134
本月早些时候	-8135
德国总理默克尔	-8136
诺贝尔经济学奖	-8137
FS	-8138
MR	-8139
Th	-8140
Tw	-8141
gr	-8142
ss	-8143
ut	-8144
一座	-8145
一来	-8146
一部	-8147
上帝	-8148
会说	-8149
传达	-8150
出路	-8151
划定	-8152
利昂	-8153
剥削	-8154
南美	-8155
反驳	-8156
可图	-8157
听众	-8158
和人	-8159
和大	-8160
哥拉	-8161
囚犯	-8162
四大	-8163
坚守	-8164
头寸	-8165
奴隶	-8166
家人	-8167
将比	-8168
布朗	-8169
广义	-8170
庄稼	-8171
当成	-8172
徒劳	-8173
得不	-8174
微观	-8175
所欲	-8176
把它	-8177
旧的	-8178
暴行	-8179
期刊	-8180
本次	-8181
村庄	-8182
沃伦	-8183
没了	-8184
法则	-8185
海域	-8186
海峡	-8187
爱的	-8188
特拉	-8189
王朝	-8190
电动	-8191
碎片	-8192
精心	-8193
聚集	-8194
背负	-8195
自贸	-8196
让其	-8197
记得	-8198
赞扬	-8199
违背	-8200
那次	-8201
都市	-8202
阻挡	-8203
霍尔	-8204
飞行	-8205
120	-8206
avi	-8207
ron	-8208
▁中东	-8209
▁但他	-8210
▁在这	-8211
▁我在	-8212
▁气候	-8213
一百万	-8214
不住脚	-8215
不过是	-8216
与世界	-8217
为他们	-8218
人类的	-8219
仅限于	-8220
他们就	-8221
充足的	-8222
公众的	-8223
创造性	-8224
参与了	-8225
可能被	-8226
喀拉拉	-8227
在那里	-8228
安哥拉	-8229
官员们	-8230
常常被	-8231
应有的	-8232
必须以	-8233
成员的	-8234
战争中	-8235
挑战是	-8236
政客们	-8237
显著的	-8238
条约的	-8239
核裁军	-8240
泽纳维	-8241
的信念	-8242
的工具	-8243
的状态	-8244
的结束	-8245
的西方	-8246
的重大	-8247
经历过	-8248
结束的	-8249
给他们	-8250
背道而	-8251
能够让	-8252
规划署	-8253
评论家	-8254
财政和	-8255
那么它	-8256
▁但对于	-8257
▁但由于	-8258
▁如果说	-8259
▁美国人	-8260
▁而中国	-8261
不足为奇	-8262
全球基金	-8263
受到威胁	-8264
四分之三	-8265
国际货币	-8266
就不可能	-8267
布什总统	-8268
当今世界	-8269
形成一个	-8270
是否应该	-8271
毫无意义	-8272
民主党人	-8273
生产率的	-8274
的支持下	-8275
目前正在	-8276
竞选活动	-8277
美元贬值	-8278
背道而驰	-8279
这一挑战	-8280
这些因素	-8281
这样一种	-8282
需要时间	-8283
不断扩大的	-8284
发展中世界	-8285
和世界银行	-8286
国际社会的	-8287
Global	-8288
▁Party	-8289
世界卫生组织	-8290
所面临的挑战	-8291
果真如此的话	-8292
首相安倍晋三	-8293
联合国气候变化	-8294
亚洲基础设施投资	-8295
33	-8296
Ge	-8297
PI	-8298
一如	-8299
不善	-8300
东方	-8301
之多	-8302
他是	-8303
会见	-8304
会面	-8305
光靠	-8306
冒着	-8307
冲动	-8308
分为	-8309
利斯	-8310
到处	-8311
加勒	-8312
十字	-8313
压低	-8314
参考	-8315
同行	-8316
吸毒	-8317
和更	-8318
塞内	-8319
多名	-8320
夫的	-8321
存活	-8322
小额	-8323
尽量	-8324
局的	-8325
巧妙	-8326
带有	-8327
带领	-8328
开战	-8329
开明	-8330
异见	-8331
弊端	-8332
恐吓	-8333
惊讶	-8334
技巧	-8335
抗药	-8336
抱有	-8337
据说	-8338
攻势	-8339
敌意	-8340
既有	-8341
明天	-8342
服装	-8343
本书	-8344
残疾	-8345
比索	-8346
法德	-8347
流通	-8348
海岸	-8349
源泉	-8350
溢价	-8351
物流	-8352
现今	-8353
电信	-8354
男子	-8355
留欧	-8356
的主	-8357
网上	-8358
考量	-8359
者是	-8360
而其	-8361
蓝图	-8362
虚拟	-8363
被捕	-8364
说的	-8365
说辞	-8366
赚取	-8367
赫尔	-8368
起草	-8369
越多	-8370
较小	-8371
远景	-8372
迟早	-8373
重心	-8374
铺平	-8375
3.5	-8376
enc	-8377
ian	-8378
mer	-8379
▁Sh	-8380
▁但要	-8381
▁现代	-8382
▁确保	-8383
一揽子	-8384
不允许	-8385
专家们	-8386
为世界	-8387
为目标	-8388
举行了	-8389
交易所	-8390
产品的	-8391
伊朗核	-8392
传统上	-8393
促成了	-8394
关键性	-8395
农业和	-8396
创纪录	-8397
制定的	-8398
发布了	-8399
和医疗	-8400
和资源	-8401
因如此	-8402
国家在	-8403
在其他	-8404
富有的	-8405
对这个	-8406
局限性	-8407
并不像	-8408
并以此	-8409
引入了	-8410
强烈的	-8411
当时的	-8412
急切地	-8413
或许是	-8414
托马斯	-8415
教科文	-8416
新政府	-8417
昂贵的	-8418
最终会	-8419
特定的	-8420
的一位	-8421
的人道	-8422
的份额	-8423
的办法	-8424
的希望	-8425
的控制	-8426
的联盟	-8427
的腐败	-8428
的限制	-8429
税收和	-8430
穷人的	-8431
结束时	-8432
选民们	-8433
难民营	-8434
非洲和	-8435
饮用水	-8436
1973	-8437
1995	-8438
5000	-8439
▁但它们	-8440
▁新加坡	-8441
▁有些人	-8442
▁而如果	-8443
▁这不是	-8444
公共支出	-8445
公共政策	-8446
创造就业	-8447
双边贸易	-8448
可以提供	-8449
可持续的	-8450
可能出现	-8451
可能造成	-8452
各不相同	-8453
周年纪念	-8454
和爱尔兰	-8455
国内经济	-8456
就业创造	-8457
收入水平	-8458
政治联盟	-8459
明确表示	-8460
普通民众	-8461
有史以来	-8462
的世界中	-8463
的大多数	-8464
的欧元区	-8465
的背景下	-8466
研究发现	-8467
站不住脚	-8468
经济转型	-8469
能源需求	-8470
认为美国	-8471
认真对待	-8472
负面影响	-8473
重大影响	-8474
高级官员	-8475
,2008	-8476
,2014	-8477
5,000	-8478
itter	-8479
▁归根结底	-8480
杀伤性武器	-8481
经济增长率	-8482
在一定程度上	-8483
欧盟成员资格	-8484
讽刺意味的是	-8485
欧盟委员会主席	-8486
西班牙和意大利	-8487
比以往任何时候都	-8488
International	-8489
2°	-8490
▁美	-8491
一大	-8492
一届	-8493
万事	-8494
不力	-8495
不定	-8496
两名	-8497
个别	-8498
为人	-8499
为数	-8500
也从	-8501
事先	-8502
从前	-8503
使之	-8504
信奉	-8505
入盟	-8506
再到	-8507
冷静	-8508
助推	-8509
占了	-8510
占到	-8511
原油	-8512
又是	-8513
同步	-8514
名叫	-8515
哈特	-8516
回来	-8517
塞拉	-8518
多人	-8519
委托	-8520
定向	-8521
对峙	-8522
很长	-8523
我所	-8524
托尼	-8525
报酬	-8526
收拾	-8527
放宽	-8528
教徒	-8529
斯塔	-8530
普罗	-8531
最具	-8532
朴槿	-8533
桥梁	-8534
水电	-8535
派系	-8536
浮现	-8537
淘汰	-8538
的三	-8539
省份	-8540
砍伐	-8541
确切	-8542
神圣	-8543
缩短	-8544
职场	-8545
能使	-8546
范例	-8547
西兰	-8548
该党	-8549
象棋	-8550
购物	-8551
迎合	-8552
这对	-8553
违法	-8554
选出	-8555
避税	-8556
陷于	-8557
靠近	-8558
顶级	-8559
频率	-8560
骄傲	-8561
验证	-8562
1.3	-8563
1.7	-8564
erv	-8565
ner	-8566
▁18	-8567
▁为此	-8568
▁总统	-8569
▁自由	-8570
▁这里	-8571
为欧洲	-8572
仅次于	-8573
代理人	-8574
会认为	-8575
债券的	-8576
农产品	-8577
另一场	-8578
和公司	-8579
和南非	-8580
和市场	-8581
和疟疾	-8582
和自由	-8583
埃克森	-8584
大得多	-8585
如何在	-8586
实在在	-8587
对他们	-8588
尼系数	-8589
市场和	-8590
帝国的	-8591
并确保	-8592
强制性	-8593
必须与	-8594
必须是	-8595
成立的	-8596
我们有	-8597
所需要	-8598
本国的	-8599
朴槿惠	-8600
极少数	-8601
流行病	-8602
源自于	-8603
独立党	-8604
的信誉	-8605
的竞争	-8606
的系统	-8607
的统治	-8608
的角度	-8609
的转型	-8610
的过度	-8611
积极地	-8612
算不上	-8613
给美国	-8614
能产生	-8615
让欧洲	-8616
资源和	-8617
较高的	-8618
迈克尔	-8619
运动员	-8620
这可能	-8621
选择的	-8622
避免了	-8623
那样的	-8624
革命的	-8625
arry	-8626
▁今天的	-8627
▁伊拉克	-8628
▁全球化	-8629
▁在这里	-8630
▁我认为	-8631
▁首先是	-8632
不断上升	-8633
以色列和	-8634
值得注意	-8635
决定性的	-8636
创造一个	-8637
在经历了	-8638
如果不是	-8639
实实在在	-8640
家庭消费	-8641
少数族裔	-8642
常任理事	-8643
日本银行	-8644
正好相反	-8645
武装冲突	-8646
理所当然	-8647
经济改革	-8648
统计数据	-8649
绿色能源	-8650
美元计价	-8651
美联储的	-8652
职业生涯	-8653
负责任的	-8654
财政整合	-8655
资产泡沫	-8656
资本管制	-8657
达尔富尔	-8658
还有很多	-8659
重新思考	-8660
重点放在	-8661
重要性的	-8662
▁这是因为	-8663
基础设施和	-8664
民族主义的	-8665
的研究表明	-8666
世界贸易组织	-8667
主权债务危机	-8668
应对气候变化	-8669
越来越多的人	-8670
俄罗斯总统普京	-8671
95	-8672
ID	-8673
yn	-8674
▁?	-8675
▁b	-8676
▁非	-8677
一战	-8678
一群	-8679
不相	-8680
世行	-8681
东扩	-8682
中位	-8683
之举	-8684
之又	-8685
乐于	-8686
了吗	-8687
亲密	-8688
人人	-8689
保加	-8690
健全	-8691
入狱	-8692
共担	-8693
利比	-8694
卫星	-8695
原始	-8696
参拜	-8697
又会	-8698
吃惊	-8699
同胞	-8700
和反	-8701
品牌	-8702
品质	-8703
困惑	-8704
多万	-8705
大卫	-8706
大脑	-8707
婚姻	-8708
宁愿	-8709
宏大	-8710
富豪	-8711
将由	-8712
尼尔	-8713
已在	-8714
巴以	-8715
弥合	-8716
忙于	-8717
总共	-8718
感受	-8719
打消	-8720
把持	-8721
把握	-8722
抬头	-8723
摇摆	-8724
攫取	-8725
斯诺	-8726
普世	-8727
智库	-8728
最不	-8729
本周	-8730
极低	-8731
查德	-8732
标签	-8733
汽油	-8734
混淆	-8735
甚远	-8736
的好	-8737
着重	-8738
社团	-8739
缩水	-8740
罗德	-8741
脱盟	-8742
过往	-8743
进了	-8744
远程	-8745
逃税	-8746
逃脱	-8747
重创	-8748
阿布	-8749
降临	-8750
顾虑	-8751
麦克	-8752
eal	-8753
▁举例	-8754
▁但从	-8755
▁报告	-8756
▁此次	-8757
▁现实	-8758
一代人	-8759
一样的	-8760
不安全	-8761
两年前	-8762
亚洲和	-8763
人来说	-8764
会继续	-8765
但没有	-8766
债务和	-8767
公民的	-8768
六个月	-8769
前总理	-8770
努力的	-8771
包含了	-8772
印度洋	-8773
发行的	-8774
可支配	-8775
可预测	-8776
合法化	-8777
如果你	-8778
实质性	-8779
对国家	-8780
对这种	-8781
将产生	-8782
崩溃的	-8783
情形中	-8784
我们也	-8785
技术上	-8786
持久的	-8787
效率的	-8788
最小化	-8789
最贫穷	-8790
桑托斯	-8791
温和派	-8792
生产和	-8793
的交易	-8794
的某些	-8795
的财富	-8796
研究的	-8797
等方面	-8798
给出了	-8799
能够以	-8800
贡献了	-8801
通胀的	-8802
道导弹	-8803
▁Pol	-8804
▁中国在	-8805
▁但即使	-8806
▁比如说	-8807
与中国的	-8808
代表大会	-8809
保加利亚	-8810
其中一些	-8811
其自身的	-8812
利比里亚	-8813
可能需要	-8814
因为这些	-8815
在短期内	-8816
在经济上	-8817
基金利率	-8818
塞拉利昂	-8819
多个国家	-8820
完全没有	-8821
建设性的	-8822
拉美国家	-8823
晚些时候	-8824
极权主义	-8825
武装力量	-8826
生活质量	-8827
蓬勃发展	-8828
行动计划	-8829
贫困人口	-8830
远远超过	-8831
长期增长	-8832
阿富汗和	-8833
降低利率	-8834
领导人们	-8835
领导人在	-8836
▁发自剑桥	-8837
▁发自纽约	-8838
中国经济的	-8839
习近平主席	-8840
人民币汇率	-8841
劳动力成本	-8842
寻求庇护者	-8843
教科文组织	-8844
社会和政治	-8845
规模最大的	-8846
通货膨胀率	-8847
创造就业机会	-8848
新兴市场国家	-8849
2008—2009	-8850
4,	-8851
▁7	-8852
▁Z	-8853
▁来	-8854
▁西	-8855
一块	-8856
中日	-8857
之旅	-8858
之计	-8859
之门	-8860
仍未	-8861
他还	-8862
代际	-8863
仪式	-8864
余地	-8865
农地	-8866
减贫	-8867
几天	-8868
凯蒂	-8869
匿名	-8870
危及	-8871
参选	-8872
可比	-8873
名列	-8874
后面	-8875
坦桑	-8876
多项	-8877
安南	-8878
宽带	-8879
富翁	-8880
对华	-8881
将以	-8882
崇拜	-8883
年所	-8884
并被	-8885
幽灵	-8886
德克	-8887
志愿	-8888
悠久	-8889
悲惨	-8890
投向	-8891
振奋	-8892
捐赠	-8893
捕获	-8894
普尔	-8895
服用	-8896
根于	-8897
残暴	-8898
法特	-8899
深思	-8900
清单	-8901
渔业	-8902
福音	-8903
称的	-8904
纳瓦	-8905
缔造	-8906
耗资	-8907
胡锦	-8908
自行	-8909
莱坞	-8910
薄熙	-8911
观众	-8912
视频	-8913
触及	-8914
讲述	-8915
询问	-8916
输送	-8917
过热	-8918
近来	-8919
这份	-8920
造就	-8921
重演	-8922
闻名	-8923
防范	-8924
集权	-8925
0.3	-8926
Ben	-8927
▁出于	-8928
▁尤其	-8929
▁很难	-8930
▁而是	-8931
为中国	-8932
为导向	-8933
为我们	-8934
主权的	-8935
之上的	-8936
也非常	-8937
了一次	-8938
体制的	-8939
债务人	-8940
公务员	-8941
创造力	-8942
制造了	-8943
处不在	-8944
妇女和	-8945
它必须	-8946
对英国	-8947
将达到	-8948
希拉克	-8949
并要求	-8950
强硬派	-8951
我认为	-8952
战略的	-8953
手中的	-8954
执政党	-8955
持有人	-8956
日本人	-8957
最基本	-8958
月以来	-8959
欧盟在	-8960
激进的	-8961
热衷于	-8962
环境和	-8963
甚至连	-8964
的人数	-8965
的优势	-8966
的出现	-8967
的援助	-8968
的时刻	-8969
的根源	-8970
的模式	-8971
的法国	-8972
示威者	-8973
科尔宾	-8974
罗姆尼	-8975
而且还	-8976
而欧洲	-8977
胡锦涛	-8978
讲话中	-8979
贫困线	-8980
赤裸裸	-8981
还不够	-8982
还是在	-8983
那些在	-8984
金正恩	-8985
预算的	-8986
高加索	-8987
1993	-8988
▁但即便	-8989
▁我们在	-8990
▁投资者	-8991
▁相当于	-8992
▁这表明	-8993
▁阿拉伯	-8994
一切代价	-8995
与欧盟的	-8996
从来没有	-8997
他们认为	-8998
似乎正在	-8999
保守主义	-9000
变得日益	-9001
可预见的	-9002
合法性的	-9003
喀拉拉邦	-9004
固定汇率	-9005
坦桑尼亚	-9006
多样化的	-9007
多边主义	-9008
大幅提高	-9009
必须得到	-9010
想象一下	-9011
我们能够	-9012
才有可能	-9013
拒绝接受	-9014
支付系统	-9015
政府已经	-9016
政治动荡	-9017
更加严重	-9018
每个国家	-9019
民意调查	-9020
的成员国	-9021
的经济和	-9022
相关利益	-9023
美国人的	-9024
而不能倒	-9025
自然灾害	-9026
苏联解体	-9027
都有可能	-9028
阿拉法特	-9029
,2013	-9030
▁2000	-9031
▁特别是在	-9032
▁这些问题	-9033
中央银行的	-9034
亿美元用于	-9035
劳动生产率	-9036
大部分地区	-9037
越来越大的	-9038
limate	-9039
▁Finan	-9040
▁埃塞俄比亚	-9041
▁欧盟委员会	-9042
国民生产总值	-9043
经合组织国家	-9044
联邦基金利率	-9045
非洲开发银行	-9046
意大利和西班牙	-9047
美国总统特朗普	-9048
大规模杀伤性武器	-9049
中国国家主席习近平	-9050
31	-9051
AC	-9052
FT	-9053
HI	-9054
if	-9055
ip	-9056
ra	-9057
▁三	-9058
一批	-9059
一笔	-9060
上而	-9061
下令	-9062
与否	-9063
中立	-9064
临界	-9065
为零	-9066
了近	-9067
人选	-9068
代孕	-9069
以内	-9070
倒塌	-9071
公里	-9072
军官	-9073
冷漠	-9074
几位	-9075
几百	-9076
剔除	-9077
动议	-9078
卢拉	-9079
又在	-9080
反常	-9081
反馈	-9082
右派	-9083
向来	-9084
听取	-9085
和我	-9086
四倍	-9087
坚信	-9088
坚实	-9089
学位	-9090
宏伟	-9091
宣告	-9092
封锁	-9093
小农	-9094
市政	-9095
布斯	-9096
年均	-9097
开罗	-9098
强人	-9099
征服	-9100
挖掘	-9101
掣肘	-9102
有核	-9103
木材	-9104
本位	-9105
杀人	-9106
权势	-9107
极高	-9108
某一	-9109
沉迷	-9110
流出	-9111
源头	-9112
申根	-9113
男人	-9114
略微	-9115
的自	-9116
穿越	-9117
笔者	-9118
肉类	-9119
致使	-9120
节能	-9121
萨拉	-9122
视野	-9123
解雇	-9124
走势	-9125
跟踪	-9126
轴心	-9127
这部	-9128
迷你	-9129
遍布	-9130
酝酿	-9131
里程	-9132
金属	-9133
闹剧	-9134
降到	-9135
降雨	-9136
隐瞒	-9137
预先	-9138
900	-9139
Jos	-9140
are	-9141
ins	-9142
unc	-9143
▁他还	-9144
▁令人	-9145
▁危机	-9146
▁另一	-9147
▁最新	-9148
▁此前	-9149
▁没人	-9150
▁这在	-9151
下一步	-9152
不同于	-9153
不符合	-9154
与发展	-9155
中之重	-9156
争议的	-9157
五年前	-9158
以及与	-9159
以避免	-9160
债权国	-9161
健康和	-9162
军政府	-9163
创始人	-9164
加勒比	-9165
却依然	-9166
发展出	-9167
发现了	-9168
发表了	-9169
可信度	-9170
可能将	-9171
地使用	-9172
将中国	-9173
小部分	-9174
差不多	-9175
平等的	-9176
德国和	-9177
所产生	-9178
所说的	-9179
拥有了	-9180
支持了	-9181
曾经是	-9182
机制的	-9183
来维持	-9184
清算所	-9185
生活中	-9186
的声音	-9187
的大型	-9188
的联系	-9189
的还有	-9190
皮凯蒂	-9191
看不到	-9192
看到的	-9193
研究院	-9194
管理和	-9195
肺结核	-9196
舞台上	-9197
被允许	-9198
被证明	-9199
观点的	-9200
这是个	-9201
进程的	-9202
通常会	-9203
阿卜杜	-9204
▁-2.	-9205
▁一开始	-9206
▁人民币	-9207
▁但事实	-9208
▁共和党	-9209
▁爱尔兰	-9210
▁说到底	-9211
▁这不仅	-9212
▁这需要	-9213
主要来自	-9214
产业政策	-9215
众所周知	-9216
全球增长	-9217
军事实力	-9218
军备竞赛	-9219
包括美国	-9220
卡尔扎伊	-9221
发现自己	-9222
发生改变	-9223
可能已经	-9224
坚持认为	-9225
基尼系数	-9226
对俄罗斯	-9227
弹道导弹	-9228
必须通过	-9229
我们无法	-9230
执政联盟	-9231
整个欧洲	-9232
无法实现	-9233
朝鲜半岛	-9234
未来几年	-9235
种族隔离	-9236
约束力的	-9237
美国家庭	-9238
贸易壁垒	-9239
贸易顺差	-9240
这个数字	-9241
这些挑战	-9242
这些目标	-9243
退出欧盟	-9244
银行贷款	-9245
陷入困境	-9246
集体行动	-9247
领土主张	-9248
▁全球经济	-9249
不平等状况	-9250
以失败告终	-9251
工业化国家	-9252
已经超过了	-9253
总统候选人	-9254
房地产市场	-9255
的经济复苏	-9256
这样的国家	-9257
金融危机的	-9258
遏制气候变化	-9259
38	-9260
44	-9261
58	-9262
ET	-9263
ib	-9264
▁2	-9265
▁四	-9266
▁能	-9267
两家	-9268
为之	-9269
也很	-9270
书籍	-9271
亚历	-9272
亿万	-9273
仇外	-9274
分支	-9275
利差	-9276
包围	-9277
卡因	-9278
厄瓜	-9279
压抑	-9280
哈迈	-9281
因果	-9282
处境	-9283
夫人	-9284
头脑	-9285
她在	-9286
孕育	-9287
存量	-9288
学的	-9289
审计	-9290
已故	-9291
并论	-9292
广大	-9293
归属	-9294
微软	-9295
想的	-9296
抵挡	-9297
据此	-9298
方济	-9299
旱灾	-9300
杀虫	-9301
束手	-9302
森堡	-9303
步入	-9304
残忍	-9305
派别	-9306
滑向	-9307
演变	-9308
潜能	-9309
澄清	-9310
激动	-9311
激活	-9312
火箭	-9313
犯下	-9314
瑟夫	-9315
甚于	-9316
界线	-9317
相去	-9318
相提	-9319
相符	-9320
离婚	-9321
空袭	-9322
第五	-9323
终身	-9324
罪恶	-9325
翻番	-9326
肮脏	-9327
能给	-9328
般的	-9329
色彩	-9330
营利	-9331
蔑视	-9332
要走	-9333
规律	-9334
言辞	-9335
调和	-9336
贝利	-9337
赌博	-9338
转让	-9339
零和	-9340
首尔	-9341
0.1	-9342
1.6	-9343
FDI	-9344
▁仅仅	-9345
▁冷战	-9346
▁成功	-9347
▁放眼	-9348
▁眼下	-9349
▁该国	-9350
▁近期	-9351
为一个	-9352
为全球	-9353
了我们	-9354
会不会	-9355
低通胀	-9356
供给侧	-9357
兰克林	-9358
出口的	-9359
利率的	-9360
削减了	-9361
加强对	-9362
告诉我	-9363
和宗教	-9364
和未来	-9365
国家庭	-9366
在所有	-9367
地方的	-9368
学术界	-9369
它们所	-9370
就是在	-9371
已经对	-9372
开始时	-9373
开放的	-9374
很长的	-9375
心脏病	-9376
成年人	-9377
或许会	-9378
控制了	-9379
改革和	-9380
教科书	-9381
斯坦福	-9382
方济各	-9383
方面都	-9384
暴露出	-9385
更重要	-9386
最多的	-9387
来推动	-9388
理由是	-9389
的人的	-9390
的可能	-9391
的合理	-9392
的平均	-9393
的灾难	-9394
的独立	-9395
的真实	-9396
的石油	-9397
的言论	-9398
竞争者	-9399
第三方	-9400
管理层	-9401
而后者	-9402
艾哈迈	-9403
英国在	-9404
规定的	-9405
这个词	-9406
这件事	-9407
预防性	-9408
1930	-9409
Mich	-9410
ance	-9411
avid	-9412
eter	-9413
orge	-9414
▁对中国	-9415
▁无论是	-9416
▁看起来	-9417
中国需要	-9418
也就是说	-9419
储备货币	-9420
决策者的	-9421
反恐战争	-9422
可以实现	-9423
和他们的	-9424
和阿富汗	-9425
国际组织	-9426
国际能源	-9427
在伊拉克	-9428
外部需求	-9429
实现这一	-9430
将在今年	-9431
就是如此	-9432
已经证明	-9433
平均而言	-9434
并不总是	-9435
引人注目	-9436
强烈反对	-9437
我们不能	-9438
承担责任	-9439
拥有一个	-9440
收入分配	-9441
数字货币	-9442
是否真的	-9443
更加难以	-9444
更有效地	-9445
正在进行	-9446
物价指数	-9447
物价稳定	-9448
相提并论	-9449
联合政府	-9450
能源价格	-9451
贸易协议	-9452
达成共识	-9453
这一方针	-9454
这个世界	-9455
退休基金	-9456
金融动荡	-9457
针锋相对	-9458
齐心协力	-9459
▁即便如此	-9460
▁如果欧洲	-9461
▁这些政策	-9462
主要经济体	-9463
劳动密集型	-9464
印度尼西亚	-9465
可以追溯到	-9466
梅德韦杰夫	-9467
的经济衰退	-9468
美国和中国	-9469
而不仅仅是	-9470
不惜一切代价	-9471
劳动力市场的	-9472
是显而易见的	-9473
Twitter	-9474
▁果真如此的话	-9475
▁Institute	-9476
亚洲基础设施投资银行	-9477
ky	-9478
▁6	-9479
▁c	-9480
▁同	-9481
▁拜	-9482
一只	-9483
一是	-9484
万个	-9485
中印	-9486
五倍	-9487
他说	-9488
任由	-9489
会是	-9490
位列	-9491
便已	-9492
修补	-9493
倾斜	-9494
偶尔	-9495
先决	-9496
克罗	-9497
党内	-9498
入境	-9499
几次	-9500
出去	-9501
刑讯	-9502
制品	-9503
制的	-9504
刻意	-9505
前例	-9506
前瞻	-9507
剩下	-9508
劣势	-9509
勉强	-9510
化了	-9511
化解	-9512
却不	-9513
名誉	-9514
君主	-9515
告知	-9516
善意	-9517
国旗	-9518
图书	-9519
外包	-9520
多于	-9521
大笔	-9522
天堂	-9523
天安	-9524
奖金	-9525
女儿	-9526
它对	-9527
宝座	-9528
审议	-9529
尴尬	-9530
尽力	-9531
巨型	-9532
常见	-9533
平常	-9534
年会	-9535
年被	-9536
应急	-9537
很久	-9538
悲哀	-9539
惨重	-9540
打败	-9541
找出	-9542
承包	-9543
指南	-9544
掩饰	-9545
摇摇	-9546
无不	-9547
明了	-9548
曲线	-9549
来临	-9550
极具	-9551
欧亚	-9552
欲坠	-9553
比喻	-9554
气氛	-9555
治下	-9556
沿着	-9557
测算	-9558
特性	-9559
率的	-9560
真是	-9561
离岸	-9562
第十	-9563
糖尿	-9564
绝不	-9565
罗塞	-9566
而有	-9567
耻辱	-9568
脱钩	-9569
行之	-9570
遗留	-9571
金斯	-9572
阈值	-9573
黯淡	-9574
1.8	-9575
1.9	-9576
ald	-9577
ect	-9578
eth	-9579
▁到了	-9580
▁剑桥	-9581
▁无法	-9582
▁正是	-9583
▁贸易	-9584
一半的	-9585
一小撮	-9586
不足的	-9587
不足道	-9588
中指出	-9589
为核心	-9590
也十分	-9591
债务国	-9592
停留在	-9593
兰克福	-9594
关键的	-9595
决策的	-9596
出口商	-9597
却无法	-9598
压倒性	-9599
又一个	-9600
发电厂	-9601
变革的	-9602
各自为	-9603
同时还	-9604
呈现出	-9605
和国内	-9606
和工作	-9607
和腐败	-9608
在中东	-9609
在法国	-9610
将美国	-9611
就像是	-9612
崛起的	-9613
平衡的	-9614
年之前	-9615
并将其	-9616
应该为	-9617
开始了	-9618
形成的	-9619
怎么做	-9620
慢性病	-9621
成本和	-9622
战略性	-9623
才能够	-9624
推出了	-9625
措施来	-9626
提供商	-9627
无前例	-9628
最需要	-9629
有些人	-9630
有时候	-9631
有用的	-9632
杀虫剂	-9633
正面临	-9634
每一次	-9635
现实中	-9636
的一篇	-9637
的事件	-9638
的机制	-9639
的迹象	-9640
相关性	-9641
第一位	-9642
第三大	-9643
简单地	-9644
蛋白质	-9645
表明了	-9646
表达了	-9647
观察到	-9648
该协议	-9649
说服力	-9650
资金的	-9651
金本位	-9652
驱动的	-9653
高技能	-9654
ners	-9655
▁Cor	-9656
▁但正如	-9657
▁在某些	-9658
▁所谓的	-9659
一个世纪	-9660
世卫组织	-9661
他们可以	-9662
信息技术	-9663
做出贡献	-9664
先决条件	-9665
农业政策	-9666
决定因素	-9667
利益相关	-9668
医疗体系	-9669
只有通过	-9670
可以作为	-9671
合作组织	-9672
在叙利亚	-9673
塞内加尔	-9674
存款保险	-9675
实质性的	-9676
将取决于	-9677
将注意力	-9678
尤其重要	-9679
微不足道	-9680
成立一个	-9681
提供融资	-9682
摇摇欲坠	-9683
政治家们	-9684
无所作为	-9685
无论如何	-9686
昂山素季	-9687
更多的钱	-9688
有利可图	-9689
民营企业	-9690
法兰克福	-9691
消费支出	-9692
现代化的	-9693
的最重要	-9694
社会福利	-9695
种族主义	-9696
移民问题	-9697
粮食安全	-9698
联邦储备	-9699
脱离欧盟	-9700
议会选举	-9701
金融改革	-9702
▁2004	-9703
▁2006	-9704
▁Bank	-9705
▁中国经济	-9706
▁总而言之	-9707
▁恰恰相反	-9708
产品和服务	-9709
令人瞩目的	-9710
已经达到了	-9711
欧盟和美国	-9712
的经济政策	-9713
的问题在于	-9714
社会安全网	-9715
美国和英国	-9716
太阳能电池板	-9717
政策制定者们	-9718
解决这一问题	-9719
第二次世界大战	-9720
▁在这样的背景下	-9721
▁美国总统奥巴马	-9722
47	-9723
48	-9724
IS	-9725
IT	-9726
iz	-9727
万名	-9728
下属	-9729
不公	-9730
为由	-9731
主办	-9732
之年	-9733
也与	-9734
也正	-9735
书记	-9736
亚尔	-9737
亚贝	-9738
优化	-9739
会把	-9740
伴侣	-9741
克莱	-9742
共存	-9743
关乎	-9744
典范	-9745
内伊	-9746
冠军	-9747
减小	-9748
减支	-9749
分水	-9750
初期	-9751
反击	-9752
同僚	-9753
同比	-9754
名言	-9755
名词	-9756
哈梅	-9757
唯有	-9758
它与	-9759
它也	-9760
对他	-9761
将要	-9762
局长	-9763
巨资	-9764
平静	-9765
年就	-9766
并把	-9767
并让	-9768
广受	-9769
废水	-9770
归结	-9771
戈登	-9772
我和	-9773
战线	-9774
戴维	-9775
担当	-9776
掀起	-9777
景象	-9778
月在	-9779
有待	-9780
权宜	-9781
权重	-9782
枢纽	-9783
枪支	-9784
格达	-9785
格雷	-9786
欠缺	-9787
点燃	-9788
特的	-9789
环节	-9790
现存	-9791
瓦拉	-9792
甘地	-9793
的后	-9794
的马	-9795
监测	-9796
盯住	-9797
祸首	-9798
管齐	-9799
纲领	-9800
维系	-9801
被动	-9802
装备	-9803
论据	-9804
说话	-9805
贫富	-9806
跻身	-9807
车臣	-9808
这三	-9809
连锁	-9810
钻石	-9811
高峰	-9812
0.2	-9813
1/3	-9814
Jam	-9815
▁12	-9816
▁不断	-9817
▁安倍	-9818
▁建立	-9819
▁拥有	-9820
▁而当	-9821
▁超过	-9822
一定会	-9823
下半年	-9824
不对称	-9825
不相信	-9826
严厉的	-9827
中间派	-9828
乳腺癌	-9829
了一半	-9830
亚的斯	-9831
亚贝巴	-9832
从美国	-9833
代表团	-9834
以实现	-9835
众多的	-9836
会增加	-9837
但现在	-9838
低下的	-9839
假新闻	-9840
做出的	-9841
先进的	-9842
公正的	-9843
准确地	-9844
凸显了	-9845
分析家	-9846
剥夺了	-9847
加强了	-9848
原则上	-9849
古老的	-9850
可能比	-9851
合作和	-9852
和地方	-9853
和治疗	-9854
在国家	-9855
在当前	-9856
威胁的	-9857
它已经	-9858
将不会	-9859
层面上	-9860
常见的	-9861
必须将	-9862
执行的	-9863
扩张性	-9864
投票率	-9865
持不同	-9866
损害了	-9867
描述为	-9868
政党的	-9869
时间和	-9870
更有效	-9871
有大量	-9872
柏林墙	-9873
标志性	-9874
正在向	-9875
每年的	-9876
生产国	-9877
电视台	-9878
的不断	-9879
的公众	-9880
的内容	-9881
的农业	-9882
的美元	-9883
的表现	-9884
的选票	-9885
的重点	-9886
社会党	-9887
精英们	-9888
约瑟夫	-9889
经验的	-9890
绝不会	-9891
缅甸的	-9892
而感到	-9893
而这一	-9894
肯定的	-9895
能得到	-9896
西方人	-9897
计划和	-9898
认为的	-9899
过渡期	-9900
通过的	-9901
里程碑	-9902
金融和	-9903
银行在	-9904
降低到	-9905
1996	-9906
▁其中的	-9907
▁欧洲人	-9908
▁没有人	-9909
▁而如今	-9910
与土耳其	-9911
全民医疗	-9912
公共资金	-9913
共同努力	-9914
厄瓜多尔	-9915
变得更为	-9916
可能不会	-9917
史无前例	-9918
名义利率	-9919
和平协议	-9920
哈梅内伊	-9921
商业领袖	-9922
商界领袖	-9923
固定资产	-9924
实际上是	-9925
富兰克林	-9926
市场准入	-9927
我们现在	-9928
技术创新	-9929
政治上的	-9930
是世界上	-9931
智能手机	-9932
欧盟机构	-9933
正在发生	-9934
的全球化	-9935
纳瓦尔尼	-9936
经济利益	-9937
能够通过	-9938
裔美国人	-9939
货币市场	-9940
资本要求	-9941
重新定义	-9942
陷入停滞	-9943
随处可见	-9944
高等教育	-9945
—2008	-9946
▁圣地亚哥	-9947
▁巴勒斯坦	-9948
▁讽刺的是	-9949
▁这一方针	-9950
世界领导人	-9951
之间的冲突	-9952
华盛顿特区	-9953
叙利亚难民	-9954
常任理事国	-9955
特朗普总统	-9956
的一个关键	-9957
George	-9958
亚的斯亚贝巴	-9959
的经济和政治	-9960
阿拉伯世界的	-9961
政府间气候变化	-9962
新兴市场经济体	-9963
▁Commission	-9964
,6	-9965
ld	-9966
▁m	-9967
▁v	-9968
▁卡	-9969
▁按	-9970
一同	-9971
上来	-9972
不通	-9973
不错	-9974
与他	-9975
乌斯	-9976
也已	-9977
亏损	-9978
付款	-9979
任职	-9980
优点	-9981
但从	-9982
位居	-9983
侵害	-9984
借入	-9985
公然	-9986
冒犯	-9987
南北	-9988
占总	-9989
卫队	-9990
又能	-9991
双轨	-9992
取向	-9993
取缔	-9994
变动	-9995
同期	-9996
和中	-9997
回国	-9998
地面	-9999
外长	-10000
多哈	-10001
大为	-10002
大门	-10003
天才	-10004
好转	-10005
室内	-10006
尖端	-10007
年份	-10008
开来	-10009
弗朗	-10010
忧心	-10011
愉快	-10012
抗菌	-10013
抽象	-10014
拖入	-10015
拥抱	-10016
挑选	-10017
擅长	-10018
救命	-10019
无一	-10020
无知	-10021
无穷	-10022
普斯	-10023
月中	-10024
末日	-10025
次贷	-10026
殆尽	-10027
深受	-10028
添加	-10029
潜艇	-10030
激起	-10031
用了	-10032
的纳	-10033
益处	-10034
直至	-10035
看成	-10036
科夫	-10037
纯属	-10038
罗毕	-10039
老板	-10040
自从	-10041
节节	-10042
落入	-10043
装置	-10044
要高	-10045
观看	-10046
视作	-10047
解散	-10048
警示	-10049
许诺	-10050
设在	-10051
诊所	-10052
谈话	-10053
赞美	-10054
走了	-10055
轻微	-10056
辅助	-10057
输入	-10058
运气	-10059
还未	-10060
迷失	-10061
追加	-10062
道歉	-10063
重的	-10064
重获	-10065
野生	-10066
霸主	-10067
领衔	-10068
饭店	-10069
鸿沟	-10070
75%	-10071
ant	-10072
hip	-10073
ina	-10074
ism	-10075
one	-10076
▁一项	-10077
▁公共	-10078
▁具有	-10079
▁唯一	-10080
▁当局	-10081
▁有了	-10082
▁真正	-10083
▁风险	-10084
一个新	-10085
下降至	-10086
不亚于	-10087
不喜欢	-10088
两位数	-10089
主席国	-10090
也不太	-10091
也能够	-10092
亿人口	-10093
从中国	-10094
信用卡	-10095
催化剂	-10096
儿童的	-10097
公司将	-10098
关系到	-10099
农作物	-10100
分水岭	-10101
切尔诺	-10102
卢森堡	-10103
历史性	-10104
和收入	-10105
和机构	-10106
和民主	-10107
国内外	-10108
国政府	-10109
在危机	-10110
在应对	-10111
地球上	-10112
天安门	-10113
失去的	-10114
孩子的	-10115
它可以	-10116
寄希望	-10117
将最终	-10118
将超过	-10119
层面的	-10120
年时间	-10121
愤怒的	-10122
承担了	-10123
拥有的	-10124
提供者	-10125
援助的	-10126
是一次	-10127
是不会	-10128
核设施	-10129
激起了	-10130
然而然	-10131
理查德	-10132
的中心	-10133
的假设	-10134
的外部	-10135
的大学	-10136
的对话	-10137
的潜力	-10138
的理解	-10139
硬实力	-10140
社会中	-10141
竞争的	-10142
答案是	-10143
糖尿病	-10144
能力和	-10145
至少是	-10146
至少有	-10147
融资的	-10148
计划中	-10149
设计的	-10150
转向了	-10151
达尔文	-10152
还存在	-10153
还有待	-10154
这两种	-10155
进行过	-10156
错误地	-10157
问题时	-10158
预见到	-10159
▁GDP	-10160
▁换言之	-10161
▁而随着	-10162
▁问题是	-10163
不仅限于	-10164
严重依赖	-10165
中国必须	-10166
之处在于	-10167
也越来越	-10168
他们自己	-10169
任何国家	-10170
做出选择	-10171
全球气温	-10172
减少贫困	-10173
几十年的	-10174
制造业和	-10175
十分困难	-10176
和联合国	-10177
国际刑事	-10178
在全世界	-10179
基本收入	-10180
外围国家	-10181
它们可以	-10182
居高不下	-10183
市场力量	-10184
应该采取	-10185
技术官僚	-10186
按揭贷款	-10187
无处不在	-10188
更加复杂	-10189
更有效的	-10190
欧元债券	-10191
治理结构	-10192
激励机制	-10193
的劳动力	-10194
的投资者	-10195
研究成果	-10196
罪魁祸首	-10197
自然而然	-10198
认为这是	-10199
认识到了	-10200
贫困国家	-10201
资本重组	-10202
这场战争	-10203
通货紧缩	-10204
采取任何	-10205
长期停滞	-10206
需要的是	-10207
高速公路	-10208
高速增长	-10209
▁其结果是	-10210
▁发达国家	-10211
不断增长的	-10212
从一开始就	-10213
切尔诺贝利	-10214
基础设施的	-10215
扮演的角色	-10216
所指出的那样	-10217
所面临的问题	-10218
经通胀调整的	-10219
▁从某种程度上	-10220
跨太平洋合作伙伴关系	-10221
68	-10222
sh	-10223
ud	-10224
。”	-10225
一贯	-10226
不佳	-10227
不时	-10228
不禁	-10229
个性	-10230
中被	-10231
于事	-10232
于衷	-10233
人是	-10234
亿吨	-10235
伪善	-10236
偶然	-10237
免遭	-10238
关门	-10239
其后	-10240
养活	-10241
内亚	-10242
军力	-10243
分五	-10244
划分	-10245
则会	-10246
初始	-10247
北极	-10248
医药	-10249
十个	-10250
原先	-10251
反美	-10252
叛军	-10253
合并	-10254
含量	-10255
和他	-10256
和在	-10257
处方	-10258
奉献	-10259
契合	-10260
奥塞	-10261
好了	-10262
威廉	-10263
家里	-10264
家长	-10265
年末	-10266
开设	-10267
引向	-10268
弗拉	-10269
强奸	-10270
强度	-10271
或多	-10272
或少	-10273
战士	-10274
扎克	-10275
扣除	-10276
振兴	-10277
撤退	-10278
改良	-10279
无动	-10280
无序	-10281
既是	-10282
是与	-10283
是很	-10284
暗中	-10285
更难	-10286
曾被	-10287
本已	-10288
杀手	-10289
根基	-10290
格拉	-10291
比作	-10292
注资	-10293
消化	-10294
激怒	-10295
灵丹	-10296
热烈	-10297
独自	-10298
看护	-10299
确信	-10300
立足	-10301
绕过	-10302
而未	-10303
而来	-10304
而生	-10305
被判	-10306
裁定	-10307
要对	-10308
词汇	-10309
读者	-10310
费舍	-10311
跟上	-10312
轮值	-10313
避开	-10314
酒精	-10315
采伐	-10316
里约	-10317
金额	-10318
非盟	-10319
颇有	-10320
鼓动	-10321
1.2	-10322
ass	-10323
ath	-10324
our	-10325
row	-10326
uel	-10327
▁不难	-10328
▁两国	-10329
▁也有	-10330
▁利用	-10331
▁发展	-10332
▁她们	-10333
▁导致	-10334
▁瑞典	-10335
▁移民	-10336
▁美元	-10337
▁这份	-10338
一个人	-10339
与社会	-10340
为非洲	-10341
为首的	-10342
也因为	-10343
享受到	-10344
低增长	-10345
低工资	-10346
俄关系	-10347
信息的	-10348
出资者	-10349
十年期	-10350
占世界	-10351
取消了	-10352
另一项	-10353
可行性	-10354
后者的	-10355
和组织	-10356
商品的	-10357
国外的	-10358
图书馆	-10359
多大的	-10360
如此之	-10361
实践中	-10362
对其他	-10363
将会在	-10364
尼古丁	-10365
届政府	-10366
工程和	-10367
已经是	-10368
年中国	-10369
应用于	-10370
开启了	-10371
必要性	-10372
总体上	-10373
扮演着	-10374
指出的	-10375
斯拉夫	-10376
方面也	-10377
核电站	-10378
植根于	-10379
欧盟和	-10380
此前的	-10381
民主化	-10382
深远的	-10383
的口号	-10384
的大选	-10385
的对手	-10386
的就业	-10387
的方针	-10388
的空间	-10389
的网络	-10390
的调查	-10391
的革命	-10392
类型的	-10393
紧迫性	-10394
罗姆人	-10395
而易举	-10396
自上而	-10397
自己在	-10398
被忽视	-10399
该政策	-10400
路要走	-10401
过程的	-10402
遇到了	-10403
都存在	-10404
韩国的	-10405
3000	-10406
ency	-10407
▁-3.	-10408
▁今年的	-10409
▁但是在	-10410
▁但这个	-10411
▁在最近	-10412
▁据估计	-10413
中期选举	-10414
他们应该	-10415
令人印象	-10416
令人鼓舞	-10417
依然存在	-10418
出口增长	-10419
包括中国	-10420
十分重要	-10421
可能会在	-10422
各种各样	-10423
和其他人	-10424
商业投资	-10425
商业模式	-10426
国内储蓄	-10427
增长速度	-10428
外国投资	-10429
寄希望于	-10430
对他们的	-10431
对以色列	-10432
导弹防御	-10433
弱势群体	-10434
影子银行	-10435
很长时间	-10436
所发生的	-10437
抗议活动	-10438
收入差距	-10439
政治领袖	-10440
数据表明	-10441
无动于衷	-10442
是全世界	-10443
更加糟糕	-10444
最低工资	-10445
某些国家	-10446
欧洲各国	-10447
欧盟内部	-10448
欧盟必须	-10449
正面临着	-10450
毋庸置疑	-10451
溢出效应	-10452
特朗普在	-10453
独裁政权	-10454
现实主义	-10455
的受害者	-10456
精英阶层	-10457
经济繁荣	-10458
美国政治	-10459
联邦调查	-10460
货币宽松	-10461
购买计划	-10462
轻而易举	-10463
边境调节	-10464
这些风险	-10465
进行合作	-10466
都面临着	-10467
阿里巴巴	-10468
领导地位	-10469
David	-10470
▁Fund	-10471
▁他们认为	-10472
▁几十年来	-10473
▁如果美国	-10474
▁总体而言	-10475
▁我们已经	-10476
▁我们知道	-10477
▁正因如此	-10478
付出的代价	-10479
几乎不可能	-10480
出口导向型	-10481
埃博拉病毒	-10482
富裕国家的	-10483
所说的那样	-10484
提出了一个	-10485
欧洲和美国	-10486
的经济表现	-10487
许多国家的	-10488
世界其他地方	-10489
在发展中国家	-10490
非传染性疾病	-10491
麻省理工学院	-10492
▁但这并不意味着	-10493
39	-10494
49	-10495
▁则	-10496
一心	-10497
不休	-10498
不去	-10499
不啻	-10500
不快	-10501
不敢	-10502
中断	-10503
举债	-10504
也最	-10505
互惠	-10506
仍旧	-10507
仿佛	-10508
低廉	-10509
余额	-10510
佛罗	-10511
侯赛	-10512
僵尸	-10513
先发	-10514
写照	-10515
冰岛	-10516
凌驾	-10517
几千	-10518
利卡	-10519
利的	-10520
加德	-10521
加息	-10522
勾结	-10523
区间	-10524
卓越	-10525
原料	-10526
变量	-10527
合格	-10528
听闻	-10529
回了	-10530
国大	-10531
在这	-10532
基点	-10533
外币	-10534
外科	-10535
天赋	-10536
夭折	-10537
子里	-10538
宣战	-10539
尔摩	-10540
常识	-10541
幸存	-10542
延迟	-10543
异于	-10544
弹劾	-10545
当权	-10546
恶意	-10547
想让	-10548
抑郁	-10549
拿马	-10550
挥霍	-10551
损伤	-10552
推理	-10553
推荐	-10554
提炼	-10555
提起	-10556
政见	-10557
救济	-10558
教会	-10559
时就	-10560
是他	-10561
暴政	-10562
曙光	-10563
更小	-10564
更迭	-10565
有三	-10566
有损	-10567
权限	-10568
来了	-10569
正逢	-10570
每周	-10571
民用	-10572
沿岸	-10573
法外	-10574
波及	-10575
深感	-10576
渺茫	-10577
照片	-10578
理智	-10579
真心	-10580
祖先	-10581
秋天	-10582
联网	-10583
脱贫	-10584
荣誉	-10585
螺旋	-10586
诺斯	-10587
赔偿	-10588
赖以	-10589
赚钱	-10590
赫特	-10591
走私	-10592
超额	-10593
足迹	-10594
路上	-10595
这就	-10596
远超	-10597
逍遥	-10598
陌生	-10599
除外	-10600
面包	-10601
革新	-10602
180	-10603
Con	-10604
DNA	-10605
NCD	-10606
OMC	-10607
ack	-10608
ann	-10609
eph	-10610
ris	-10611
unt	-10612
▁东京	-10613
▁仍然	-10614
▁保护	-10615
▁农业	-10616
▁多数	-10617
▁女性	-10618
▁曾经	-10619
▁网络	-10620
不具有	-10621
不要说	-10622
与政府	-10623
与过去	-10624
丧失了	-10625
中国与	-10626
为那些	-10627
了超过	-10628
了那些	-10629
以一种	-10630
以换取	-10631
但中国	-10632
依然在	-10633
做好了	-10634
公司税	-10635
内罗毕	-10636
几年前	-10637
出生的	-10638
分五裂	-10639
去监管	-10640
参与到	-10641
发生后	-10642
向世界	-10643
和东欧	-10644
和埃及	-10645
和平奖	-10646
因此而	-10647
基辛格	-10648
增长到	-10649
夜之间	-10650
大革命	-10651
媒体和	-10652
对政府	-10653
对银行	-10654
将军们	-10655
将自己	-10656
将需要	-10657
小企业	-10658
已久的	-10659
已经将	-10660
巴西的	-10661
年轻的	-10662
并导致	-10663
并试图	-10664
德意志	-10665
怎么办	-10666
战争和	-10667
把这一	-10668
投入到	-10669
抵押品	-10670
数十万	-10671
斯特恩	-10672
施罗德	-10673
无条件	-10674
无限期	-10675
是人类	-10676
最初的	-10677
有没有	-10678
有组织	-10679
有责任	-10680
服务和	-10681
束手无	-10682
比现在	-10683
治下的	-10684
百万计	-10685
的人士	-10686
的人才	-10687
的农民	-10688
的情绪	-10689
的打击	-10690
的政客	-10691
的最好	-10692
的话题	-10693
的转变	-10694
绝不能	-10695
罗塞夫	-10696
而应该	-10697
而那些	-10698
解决的	-10699
让自己	-10700
货币化	-10701
资本和	-10702
超出了	-10703
轻易地	-10704
道理的	-10705
都是在	-10706
非国家	-10707
1982	-10708
Gavi	-10709
rans	-10710
▁Sum	-10711
▁另一种	-10712
▁在整个	-10713
▁对美国	-10714
▁当前的	-10715
▁慕尼黑	-10716
▁最新的	-10717
▁而这种	-10718
▁这使得	-10719
万美元的	-10720
不断扩大	-10721
不难理解	-10722
也面临着	-10723
事实证明	-10724
令人瞩目	-10725
令人难以	-10726
八十年代	-10727
几个国家	-10728
几乎肯定	-10729
刺激经济	-10730
各自为政	-10731
四分五裂	-10732
因为美国	-10733
国会议员	-10734
在最近的	-10735
大大增加	-10736
如果他们	-10737
完全可以	-10738
容易受到	-10739
并不足以	-10740
强劲增长	-10741
所采取的	-10742
投资基金	-10743
拒绝承认	-10744
提供帮助	-10745
提供更多	-10746
无法通过	-10747
有所增加	-10748
未来十年	-10749
某种形式	-10750
欧元危机	-10751
正在改变	-10752
波罗的海	-10753
消极影响	-10754
特朗普和	-10755
相去甚远	-10756
破坏性的	-10757
科学家们	-10758
税收制度	-10759
空气质量	-10760
能够实现	-10761
英国选民	-10762
还有可能	-10763
这一决定	-10764
这一点上	-10765
这些公司	-10766
这是因为	-10767
重新考虑	-10768
银行监管	-10769
非洲联盟	-10770
鲜明对比	-10771
,2010	-10772
▁迄今为止	-10773
不确定性的	-10774
中国的经济	-10775
发生了变化	-10776
大部分国家	-10777
法国和德国	-10778
的一个重要	-10779
经济增长和	-10780
自由贸易区	-10781
这个问题的	-10782
Joseph	-10783
宏观经济政策	-10784
官方发展援助	-10785
核不扩散条约	-10786
欧洲央行行长	-10787
的资产负债表	-10788
诺贝尔和平奖	-10789
▁这就是为什么	-10790
国内生产总值的	-10791
非常规货币政策	-10792
▁Climate	-10793
▁Partners	-10794
跨大西洋贸易和投资	-10795
2/	-10796
62	-10797
EP	-10798
HP	-10799
KP	-10800
▁二	-10801
▁给	-10802
一党	-10803
一面	-10804
上面	-10805
不一	-10806
不无	-10807
与日	-10808
两难	-10809
中去	-10810
主意	-10811
亲眼	-10812
仅靠	-10813
仍能	-10814
作俑	-10815
保住	-10816
克格	-10817
入主	-10818
公立	-10819
公顷	-10820
兴旺	-10821
列宁	-10822
创设	-10823
初步	-10824
别处	-10825
半叶	-10826
协同	-10827
博物	-10828
压缩	-10829
受制	-10830
受灾	-10831
叫做	-10832
叫停	-10833
和最	-10834
商店	-10835
图景	-10836
地与	-10837
增大	-10838
壮大	-10839
多黎	-10840
失效	-10841
定罪	-10842
对我	-10843
小于	-10844
尔特	-10845
就算	-10846
巴乔	-10847
废止	-10848
引力	-10849
引渡	-10850
弗雷	-10851
恰好	-10852
憧憬	-10853
护士	-10854
拉特	-10855
拘留	-10856
摩根	-10857
收取	-10858
收费	-10859
放心	-10860
整顿	-10861
斯堪	-10862
斯库	-10863
斯托	-10864
无效	-10865
旷日	-10866
最优	-10867
死去	-10868
每月	-10869
民兵	-10870
泄漏	-10871
熟虑	-10872
牢固	-10873
瓶颈	-10874
用作	-10875
碳氢	-10876
磋商	-10877
稀土	-10878
筹资	-10879
简称	-10880
算盘	-10881
聆听	-10882
能对	-10883
脱节	-10884
良多	-10885
苦苦	-10886
莫拉	-10887
蔬菜	-10888
虚弱	-10889
行径	-10890
表演	-10891
裁量	-10892
西尔	-10893
要做	-10894
见解	-10895
试点	-10896
诗人	-10897
贩卖	-10898
赞赏	-10899
赶上	-10900
起初	-10901
越是	-10902
转化	-10903
近邻	-10904
这套	-10905
连贯	-10906
通道	-10907
那就	-10908
量子	-10909
防治	-10910
隐性	-10911
面目	-10912
骚扰	-10913
默多	-10914
0.0	-10915
AMR	-10916
ett	-10917
ice	-10918
ork	-10919
ren	-10920
▁10	-10921
▁似乎	-10922
▁假设	-10923
▁北约	-10924
▁家庭	-10925
▁改变	-10926
▁数字	-10927
▁科学	-10928
▁能够	-10929
一个由	-10930
一定的	-10931
三角洲	-10932
不仅要	-10933
不可及	-10934
与其说	-10935
中东欧	-10936
为中心	-10937
之又少	-10938
也不再	-10939
也应当	-10940
也随之	-10941
了一切	-10942
了一套	-10943
交易的	-10944
产出的	-10945
仍处于	-10946
仍有待	-10947
以防止	-10948
伙伴国	-10949
作为其	-10950
信任的	-10951
克格勃	-10952
全欧洲	-10953
凌驾于	-10954
参与率	-10955
友好的	-10956
各自的	-10957
后不久	-10958
和其它	-10959
和台湾	-10960
和城市	-10961
和移民	-10962
因素的	-10963
国际化	-10964
在伊朗	-10965
始作俑	-10966
安全感	-10967
将通过	-10968
岁以下	-10969
年之后	-10970
年以后	-10971
年后的	-10972
应该由	-10973
思想的	-10974
情报局	-10975
想起了	-10976
我们都	-10977
或者是	-10978
才开始	-10979
批准了	-10980
技能和	-10981
把他们	-10982
拉动型	-10983
掩盖了	-10984
方案的	-10985
是多么	-10986
有一半	-10987
有一点	-10988
有多大	-10989
有足够	-10990
朝鲜的	-10991
没有在	-10992
波多黎	-10993
注定要	-10994
演变成	-10995
牵涉到	-10996
独特的	-10997
生物学	-10998
留下了	-10999
的一体	-11000
的分析	-11001
的命运	-11002
的总体	-11003
的意义	-11004
的攻击	-11005
的普及	-11006
的高度	-11007
相似的	-11008
眼中的	-11009
研究和	-11010
签署的	-11011
经济区	-11012
腐败和	-11013
自由地	-11014
蔓延到	-11015
讨论的	-11016
让世界	-11017
让所有	-11018
让经济	-11019
贷款的	-11020
过时的	-11021
这两大	-11022
这只是	-11023
风险和	-11024
100%	-11025
berg	-11026
orld	-11027
ound	-11028
▁也许是	-11029
▁在全球	-11030
▁年轻人	-11031
▁很多人	-11032
▁民主党	-11033
▁类似的	-11034
▁而美国	-11035
▁肯尼亚	-11036
▁这正是	-11037
▁非洲的	-11038
与其说是	-11039
专业知识	-11040
两极分化	-11041
中国企业	-11042
中国官员	-11043
中的作用	-11044
人类活动	-11045
亿万富翁	-11046
仍然需要	-11047
低碳能源	-11048
使用武力	-11049
信用评级	-11050
债务上限	-11051
公开市场	-11052
关于如何	-11053
制药公司	-11054
刺激增长	-11055
劳动收入	-11056
单边主义	-11057
卫生设施	-11058
只有不到	-11059
可以用来	-11060
可能发生	-11061
在中国的	-11062
大幅降低	-11063
孤立主义	-11064
将是一个	-11065
少之又少	-11066
年轻一代	-11067
意义上的	-11068
或多或少	-11069
投资组合	-11070
报告显示	-11071
排除在外	-11072
政府可以	-11073
最大限度	-11074
束手无策	-11075
构建一个	-11076
核心利益	-11077
欧洲政治	-11078
深思熟虑	-11079
物理学家	-11080
生机勃勃	-11081
直到最近	-11082
私人消费	-11083
美元汇率	-11084
能够带来	-11085
解决之道	-11086
贫穷国家	-11087
过剩产能	-11088
这一局面	-11089
这种说法	-11090
进行谈判	-11091
采取更加	-11092
重中之重	-11093
长久以来	-11094
▁如果他们	-11095
▁我们现在	-11096
▁这一观点	-11097
▁这一过程	-11098
不可或缺的	-11099
发生了什么	-11100
巴勒斯坦国	-11101
最大经济体	-11102
的政策制定	-11103
的新兴市场	-11104
的经济危机	-11105
经济和金融	-11106
经济学家的	-11107
边境调节税	-11108
退出欧元区	-11109
里斯本条约	-11110
10,000	-11111
中低收入国家	-11112
吞并克里米亚	-11113
哥伦比亚革命	-11114
欧洲货币联盟	-11115
解释了为什么	-11116
100,000	-11117
二氧化碳排放量	-11118
随着时间的推移	-11119
OP	-11120
Sh	-11121
ai	-11122
ef	-11123
gl	-11124
pp	-11125
▁3	-11126
▁’	-11127
一书	-11128
一张	-11129
一波	-11130
一股	-11131
三次	-11132
下注	-11133
下调	-11134
不入	-11135
不懈	-11136
不计	-11137
中叶	-11138
为主	-11139
之力	-11140
之手	-11141
了他	-11142
了在	-11143
仲裁	-11144
俱增	-11145
假装	-11146
假说	-11147
免税	-11148
共有	-11149
兼并	-11150
写入	-11151
分销	-11152
到位	-11153
十倍	-11154
半球	-11155
发病	-11156
只需	-11157
向下	-11158
吸纳	-11159
周的	-11160
呼吸	-11161
和前	-11162
因其	-11163
处决	-11164
处置	-11165
外流	-11166
多达	-11167
够了	-11168
大小	-11169
大错	-11170
天鹅	-11171
如是	-11172
将与	-11173
尔邦	-11174
巴罗	-11175
带头	-11176
度过	-11177
得太	-11178
快于	-11179
思路	-11180
总数	-11181
感情	-11182
战火	-11183
捐款	-11184
显露	-11185
暴涨	-11186
更糟	-11187
替罪	-11188
栖息	-11189
样板	-11190
沙龙	-11191
没完	-11192
没错	-11193
演员	-11194
球队	-11195
甚微	-11196
申科	-11197
男女	-11198
登盛	-11199
禁毒	-11200
突发	-11201
竟然	-11202
等级	-11203
紧随	-11204
累累	-11205
纸币	-11206
结成	-11207
老化	-11208
自相	-11209
菲尔	-11210
菲永	-11211
西非	-11212
警报	-11213
评判	-11214
财阀	-11215
跌幅	-11216
蹂躏	-11217
身边	-11218
辉煌	-11219
辐射	-11220
过上	-11221
长足	-11222
防空	-11223
须知	-11224
风力	-11225
首个	-11226
马丁	-11227
高额	-11228
0.8	-11229
12%	-11230
CDS	-11231
Jer	-11232
ail	-11233
ary	-11234
com	-11235
icy	-11236
lan	-11237
olf	-11238
▁An	-11239
▁al	-11240
▁上周	-11241
▁不但	-11242
▁国会	-11243
▁在其	-11244
▁地球	-11245
▁增加	-11246
▁外国	-11247
▁就算	-11248
▁约翰	-11249
▁这与	-11250
万事达	-11251
不会有	-11252
不关心	-11253
不可靠	-11254
不同意	-11255
中左翼	-11256
中的一	-11257
也不愿	-11258
也只是	-11259
了一倍	-11260
事务上	-11261
人们所	-11262
什么是	-11263
以支持	-11264
以每年	-11265
以美国	-11266
会如何	-11267
但对于	-11268
但是在	-11269
作出了	-11270
你可以	-11271
侯赛因	-11272
几内亚	-11273
十年后	-11274
发言权	-11275
只关注	-11276
只能在	-11277
可以使	-11278
听上去	-11279
和人权	-11280
和瑞典	-11281
和银行	-11282
在一些	-11283
在今天	-11284
大城市	-11285
失败了	-11286
奠定了	-11287
奥斯本	-11288
婴儿潮	-11289
对人类	-11290
将它们	-11291
少数派	-11292
年危机	-11293
很显然	-11294
必须由	-11295
必须要	-11296
怀疑派	-11297
怎样的	-11298
我们会	-11299
我们就	-11300
或者说	-11301
所创造	-11302
所表明	-11303
手段来	-11304
承担起	-11305
持续了	-11306
控制和	-11307
政客和	-11308
数据库	-11309
斯诺登	-11310
新经济	-11311
无助于	-11312
是基于	-11313
是确保	-11314
暴露了	-11315
最紧迫	-11316
来决定	-11317
核扩散	-11318
案例中	-11319
正在为	-11320
法律的	-11321
消费量	-11322
游击队	-11323
爆发了	-11324
状况的	-11325
的一场	-11326
的人都	-11327
的商品	-11328
的年度	-11329
的早期	-11330
的时机	-11331
的活动	-11332
的消息	-11333
的直接	-11334
的身份	-11335
相应的	-11336
看作是	-11337
竞选中	-11338
约旦河	-11339
经济上	-11340
结论是	-11341
给自己	-11342
美好的	-11343
而不会	-11344
而他们	-11345
负利率	-11346
贫困的	-11347
超国家	-11348
迅速地	-11349
这导致	-11350
采用了	-11351
预测的	-11352
1967	-11353
ital	-11354
▁再加上	-11355
▁最近的	-11356
▁有鉴于	-11357
▁第三个	-11358
▁而这些	-11359
严重问题	-11360
中国股市	-11361
人们认为	-11362
关税联盟	-11363
关键领域	-11364
利益集团	-11365
前工业化	-11366
南斯拉夫	-11367
和投资者	-11368
困难重重	-11369
国民债务	-11370
国际关系	-11371
国际发展	-11372
在欧元区	-11373
在这样的	-11374
增长潜力	-11375
将人民币	-11376
市场份额	-11377
并不十分	-11378
应该得到	-11379
应该通过	-11380
必须成为	-11381
总统任期	-11382
恐怖组织	-11383
戈尔巴乔	-11384
执政期间	-11385
提供支持	-11386
支持这一	-11387
数据显示	-11388
最主要的	-11389
最佳实践	-11390
构成威胁	-11391
核武器的	-11392
气候政策	-11393
永远无法	-11394
泡沫破裂	-11395
波多黎各	-11396
浮动汇率	-11397
环境问题	-11398
的候选人	-11399
的前提下	-11400
的受访者	-11401
的国家的	-11402
的环境中	-11403
相互依存	-11404
积极影响	-11405
经济体系	-11406
经济制裁	-11407
结构转型	-11408
统计数字	-11409
美元升值	-11410
萎靡不振	-11411
这一情况	-11412
这种方法	-11413
透明度和	-11414
遗憾的是	-11415
重新分配	-11416
重新谈判	-11417
重要角色	-11418
野生动物	-11419
金融企业	-11420
金融监管	-11421
阿拉伯人	-11422
需要进行	-11423
,2016	-11424
,2017	-11425
ealth	-11426
meric	-11427
▁埃尔多安	-11428
▁布什政府	-11429
世界各国的	-11430
充分的理由	-11431
充满活力的	-11432
完成的任务	-11433
建立了一个	-11434
所做的那样	-11435
数以百万计	-11436
日益严重的	-11437
某种形式的	-11438
根本不可能	-11439
欧元区危机	-11440
民主国家的	-11441
联邦调查局	-11442
越来越多地	-11443
这一问题的	-11444
▁所有这些都	-11445
值得注意的是	-11446
太大而不能倒	-11447
的政治和经济	-11448
ability	-11449
▁Global	-11450
▁从这个角度讲	-11451
National	-11452
42	-11453
55	-11454
af	-11455
ez	-11456
lo	-11457
▁先	-11458
▁时	-11459
下限	-11460
不成	-11461
不见	-11462
不该	-11463
严酷	-11464
主任	-11465
之行	-11466
乌里	-11467
乎其	-11468
也曾	-11469
也都	-11470
了两	-11471
产值	-11472
仿效	-11473
但不	-11474
但又	-11475
保卫	-11476
倒是	-11477
借债	-11478
充其	-11479
光荣	-11480
光诚	-11481
全方	-11482
军费	-11483
冰川	-11484
出任	-11485
出租	-11486
利他	-11487
力更	-11488
力求	-11489
匹马	-11490
卓著	-11491
单个	-11492
单枪	-11493
卖出	-11494
印钞	-11495
发酵	-11496
可归	-11497
向其	-11498
含糊	-11499
咖啡	-11500
备忘	-11501
多了	-11502
多米	-11503
嫌疑	-11504
子和	-11505
子的	-11506
孱弱	-11507
定律	-11508
审核	-11509
家的	-11510
对应	-11511
对该	-11512
希尔	-11513
强权	-11514
德哥	-11515
总和	-11516
患有	-11517
抑或	-11518
拉低	-11519
拥护	-11520
推断	-11521
推测	-11522
提倡	-11523
摄氏	-11524
放射	-11525
昔日	-11526
是被	-11527
景气	-11528
曾说	-11529
构筑	-11530
柯齐	-11531
欢呼	-11532
此时	-11533
水域	-11534
法定	-11535
涅拉	-11536
热门	-11537
瓦纳	-11538
的代	-11539
的国	-11540
监视	-11541
眼里	-11542
神秘	-11543
穆沙	-11544
突变	-11545
素质	-11546
细分	-11547
美孚	-11548
美德	-11549
考试	-11550
肥料	-11551
自满	-11552
自给	-11553
良性	-11554
获利	-11555
菲利	-11556
裂痕	-11557
要点	-11558
计入	-11559
订立	-11560
认清	-11561
调动	-11562
贯彻	-11563
趋向	-11564
辩解	-11565
迁往	-11566
迅猛	-11567
返回	-11568
这家	-11569
迟迟	-11570
选区	-11571
那摩	-11572
酒店	-11573
重现	-11574
重负	-11575
错配	-11576
雨林	-11577
顺序	-11578
4.5	-11579
And	-11580
FAR	-11581
ear	-11582
ial	-11583
ond	-11584
per	-11585
ure	-11586
▁一份	-11587
▁不要	-11588
▁允许	-11589
▁公众	-11590
▁可是	-11591
▁增长	-11592
▁大量	-11593
▁更加	-11594
▁有关	-11595
▁波兰	-11596
▁部分	-11597
一次性	-11598
不属于	-11599
中只有	-11600
乌里韦	-11601
人听闻	-11602
以保护	-11603
以应对	-11604
伊朗和	-11605
但只有	-11606
充其量	-11607
全方位	-11608
公司在	-11609
制度和	-11610
博物馆	-11611
印度人	-11612
危机和	-11613
反周期	-11614
反移民	-11615
受制于	-11616
和个人	-11617
和家庭	-11618
和维持	-11619
国有化	-11620
国防部	-11621
在任何	-11622
基米尔	-11623
增加值	-11624
备忘录	-11625
大面积	-11626
女性在	-11627
孩子们	-11628
它们对	-11629
对政治	-11630
对非洲	-11631
寻常的	-11632
就不能	-11633
尽一切	-11634
巴格达	-11635
希腊的	-11636
建制派	-11637
必需的	-11638
愿意为	-11639
成立于	-11640
所导致	-11641
所采取	-11642
承诺将	-11643
抑制了	-11644
抛弃了	-11645
报告的	-11646
排放的	-11647
推动的	-11648
描述的	-11649
政府都	-11650
新总统	-11651
显示了	-11652
更强的	-11653
有价值	-11654
有多么	-11655
有更多	-11656
本身的	-11657
来管理	-11658
来衡量	-11659
沉迷于	-11660
法律和	-11661
波动性	-11662
激烈的	-11663
物理学	-11664
的多数	-11665
的改变	-11666
的服务	-11667
的群体	-11668
的运动	-11669
皮涅拉	-11670
目标和	-11671
稳定与	-11672
繁荣和	-11673
综合性	-11674
美国与	-11675
而欧盟	-11676
聚焦于	-11677
能实现	-11678
艺术家	-11679
被用来	-11680
规模和	-11681
计划在	-11682
认为是	-11683
让英国	-11684
误导性	-11685
责任的	-11686
费舍尔	-11687
资本的	-11688
运行的	-11689
都拥有	-11690
附加值	-11691
陈光诚	-11692
驱动力	-11693
BRCA	-11694
FOMC	-11695
▁For	-11696
▁一些人	-11697
▁不久前	-11698
▁他认为	-11699
▁但许多	-11700
▁同样地	-11701
▁唐纳德	-11702
不稳定的	-11703
中的一个	-11704
仍然没有	-11705
从长期看	-11706
保持稳定	-11707
公私合作	-11708
关塔那摩	-11709
出口市场	-11710
刚刚开始	-11711
创造新的	-11712
单枪匹马	-11713
即将到来	-11714
叙利亚和	-11715
向全世界	-11716
商业周期	-11717
因为我们	-11718
国际秩序	-11719
在美国的	-11720
大多数人	-11721
始作俑者	-11722
尼古拉斯	-11723
工资增长	-11724
形成一致	-11725
德哥尔摩	-11726
成为可能	-11727
成百上千	-11728
我们应当	-11729
托克维尔	-11730
投资者和	-11731
接下来的	-11732
提供援助	-11733
援助资金	-11734
改革计划	-11735
政府机构	-11736
政治意愿	-11737
方面发挥	-11738
暴力冲突	-11739
没完没了	-11740
法治精神	-11741
特里赫特	-11742
的失业率	-11743
的新技术	-11744
移动电话	-11745
穆沙拉夫	-11746
经济体的	-11747
而是因为	-11748
莫拉莱斯	-11749
萨尔柯齐	-11750
蒙受损失	-11751
贸易盈余	-11752
资源配置	-11753
这种方式	-11754
这种状况	-11755
迷你电网	-11756
通胀压力	-11757
重新评估	-11758
领导下的	-11759
▁1997	-11760
▁Cent	-11761
▁Summ	-11762
▁他们必须	-11763
▁但是如果	-11764
▁在我看来	-11765
严重的问题	-11766
会发生什么	-11767
农业生产率	-11768
印度和中国	-11769
原教旨主义	-11770
可持续性的	-11771
和安全政策	-11772
国民收入的	-11773
埃克森美孚	-11774
巴基斯坦的	-11775
弗拉基米尔	-11776
总统巴沙尔	-11777
机构投资者	-11778
欧洲经济区	-11779
法西斯主义	-11780
的财政政策	-11781
自己的国家	-11782
进一步加剧	-11783
面临的挑战	-11784
▁这并不是说	-11785
全民医疗覆盖	-11786
发达经济体的	-11787
可预见的未来	-11788
固定资产投资	-11789
很长的路要走	-11790
马斯特里赫特	-11791
▁Partnership	-11792
43	-11793
Am	-11794
GI	-11795
ct	-11796
▁s	-11797
▁下	-11798
▁却	-11799
▁现	-11800
一句	-11801
一提	-11802
一看	-11803
不明	-11804
不被	-11805
丧命	-11806
中全	-11807
中华	-11808
中方	-11809
代之	-11810
仰仗	-11811
伊始	-11812
伎俩	-11813
会令	-11814
伦斯	-11815
偏执	-11816
僵化	-11817
元首	-11818
六个	-11819
六年	-11820
关切	-11821
内陆	-11822
军人	-11823
出不	-11824
列入	-11825
则被	-11826
前夕	-11827
剧变	-11828
加倍	-11829
加紧	-11830
勒颇	-11831
勘探	-11832
卓识	-11833
博客	-11834
博茨	-11835
卡车	-11836
原有	-11837
又有	-11838
取而	-11839
品种	-11840
四国	-11841
在为	-11842
在我	-11843
在该	-11844
堕落	-11845
壳牌	-11846
处罚	-11847
复仇	-11848
多家	-11849
大亨	-11850
大楼	-11851
天真	-11852
好比	-11853
它还	-11854
宪政	-11855
家中	-11856
对新	-11857
小麦	-11858
巧合	-11859
带动	-11860
幕后	-11861
平方	-11862
废物	-11863
思议	-11864
愈加	-11865
所言	-11866
才华	-11867
打着	-11868
投诉	-11869
敢于	-11870
斯拉	-11871
新高	-11872
无常	-11873
明日	-11874
易斯	-11875
松散	-11876
次要	-11877
殴打	-11878
法拉	-11879
流的	-11880
消退	-11881
漂亮	-11882
炮制	-11883
热点	-11884
热病	-11885
猖獗	-11886
由来	-11887
男孩	-11888
的阿	-11889
盲目	-11890
确诊	-11891
私下	-11892
税基	-11893
符号	-11894
笼罩	-11895
累进	-11896
红线	-11897
绩效	-11898
罹患	-11899
能将	-11900
脚步	-11901
萨诸	-11902
薪水	-11903
街道	-11904
见到	-11905
讨厌	-11906
论断	-11907
调停	-11908
谋求	-11909
躲避	-11910
达赖	-11911
过的	-11912
这块	-11913
那场	-11914
骗局	-11915
高盛	-11916
11%	-11917
160	-11918
2.8	-11919
HIV	-11920
ael	-11921
ive	-11922
ven	-11923
—20	-11924
▁Mc	-11925
▁后来	-11926
▁总之	-11927
▁扩大	-11928
▁这位	-11929
一致性	-11930
上半年	-11931
上发表	-11932
不动产	-11933
不完全	-11934
不断的	-11935
与会者	-11936
与国际	-11937
乎其微	-11938
习惯于	-11939
了道路	-11940
五规划	-11941
人心的	-11942
伊斯坦	-11943
会受到	-11944
但至少	-11945
作用的	-11946
使用了	-11947
先发制	-11948
其政治	-11949
减少对	-11950
出现过	-11951
利益和	-11952
力更生	-11953
加入到	-11954
十年内	-11955
原子能	-11956
原来的	-11957
发生时	-11958
发言人	-11959
只是在	-11960
可以是	-11961
各地的	-11962
合法的	-11963
向中国	-11964
和外部	-11965
和执行	-11966
和控制	-11967
和福利	-11968
国大党	-11969
国家中	-11970
在他的	-11971
坚定的	-11972
大体上	-11973
威尔逊	-11974
安德鲁	-11975
宣布的	-11976
对它们	-11977
对自身	-11978
将欧洲	-11979
就是要	-11980
巩固了	-11981
巴拿马	-11982
并开始	-11983
开发和	-11984
强化的	-11985
思想家	-11986
总额的	-11987
恢复了	-11988
想要的	-11989
我们为	-11990
支持下	-11991
支持和	-11992
无疑是	-11993
是没有	-11994
更长的	-11995
替罪羊	-11996
有问题	-11997
来确保	-11998
框架下	-11999
比以前	-12000
沃尔夫	-12001
流向了	-12002
消费品	-12003
爆发后	-12004
特征是	-12005
疾病和	-12006
癌细胞	-12007
的上升	-12008
的亚洲	-12009
的全部	-12010
的决心	-12011
的成员	-12012
的方向	-12013
的日子	-12014
的比率	-12015
的短期	-12016
的进展	-12017
破坏力	-12018
确实是	-12019
签订的	-12020
结构和	-12021
罗纳德	-12022
而且在	-12023
能提供	-12024
自主权	-12025
至今日	-12026
萨诸塞	-12027
要实现	-12028
要求在	-12029
试图将	-12030
该如何	-12031
该条约	-12032
迈出了	-12033
还为时	-12034
还远未	-12035
进口国	-12036
释放出	-12037
非银行	-12038
黄热病	-12039
Jean	-12040
able	-12041
ight	-12042
▁Act	-12043
▁但上述	-12044
▁但因为	-12045
▁失业率	-12046
▁或者说	-12047
一种新的	-12048
与日俱增	-12049
也意味着	-12050
仍然可以	-12051
价值观和	-12052
健康状况	-12053
克里斯蒂	-12054
公共利益	-12055
共同货币	-12056
关键问题	-12057
其中之一	-12058
其他任何	-12059
医疗卫生	-12060
博茨瓦纳	-12061
危机期间	-12062
及其盟友	-12063
取而代之	-12064
和平谈判	-12065
国内需求	-12066
大不相同	-12067
大部分人	-12068
太阳能和	-12069
宏观审慎	-12070
宪法条约	-12071
就业增长	-12072
就职演说	-12073
已经不再	-12074
巴黎协定	-12075
并不令人	-12076
并不容易	-12077
微乎其微	-12078
心理学家	-12079
怀疑态度	-12080
我们认为	-12081
我们这个	-12082
投资项目	-12083
教育体系	-12084
数十年的	-12085
整个世界	-12086
新的全球	-12087
暴力活动	-12088
最后一个	-12089
有更多的	-12090
权宜之计	-12091
来自中国	-12092
欧洲需要	-12093
正在迅速	-12094
民主体制	-12095
民主联盟	-12096
治理体系	-12097
游戏规则	-12098
特别是对	-12099
环境破坏	-12100
的全球性	-12101
的纳维亚	-12102
相对较小	-12103
社会保险	-12104
社会动荡	-12105
福利国家	-12106
种族灭绝	-12107
管理人员	-12108
纳米技术	-12109
结构调整	-12110
自力更生	-12111
解决这些	-12112
财政收入	-12113
财政调整	-12114
跨国企业	-12115
过程中的	-12116
远见卓识	-12117
远远没有	-12118
重新开始	-12119
除此之外	-12120
arles	-12121
▁人工智能	-12122
▁哥伦比亚	-12123
▁尤其是在	-12124
▁尼日利亚	-12125
▁显而易见	-12126
▁有鉴于此	-12127
▁直到最近	-12128
和其他地区	-12129
在发达国家	-12130
安倍经济学	-12131
必不可少的	-12132
总统奥巴马	-12133
收入和财富	-12134
某种意义上	-12135
的必要条件	-12136
的最佳方式	-12137
穆斯林世界	-12138
非洲年轻人	-12139
亚洲金融危机	-12140
加利福尼亚州	-12141
和发展中国家	-12142
是不可持续的	-12143
▁可以肯定的是	-12144
▁同样重要的是	-12145
,5	-12146
-7	-12147
CB	-12148
EM	-12149
UN	-12150
▁梅	-12151
▁水	-12152
▁还	-12153
上风	-12154
不均	-12155
不幸	-12156
东非	-12157
个中	-12158
为一	-12159
之于	-12160
二次	-12161
付费	-12162
价比	-12163
优越	-12164
会员	-12165
伪装	-12166
供水	-12167
侮辱	-12168
信托	-12169
公认	-12170
切特	-12171
创伤	-12172
前列	-12173
卢卡	-12174
却被	-12175
友谊	-12176
另有	-12177
史蒂	-12178
吉斯	-12179
启示	-12180
地为	-12181
地域	-12182
场景	-12183
坏事	-12184
增幅	-12185
多位	-12186
大事	-12187
大厦	-12188
大手	-12189
孤独	-12190
学到	-12191
安慰	-12192
将有	-12193
将此	-12194
尼泊	-12195
已成	-12196
布勒	-12197
度和	-12198
归还	-12199
往常	-12200
拉登	-12201
拥挤	-12202
挽回	-12203
捐献	-12204
效用	-12205
救世	-12206
斯克	-12207
斯顿	-12208
无遗	-12209
日报	-12210
时常	-12211
是从	-12212
是指	-12213
更像	-12214
更长	-12215
曾是	-12216
术语	-12217
杜绝	-12218
步履	-12219
水准	-12220
濒临	-12221
火灾	-12222
火车	-12223
父辈	-12224
牢记	-12225
生长	-12226
电气	-12227
病患	-12228
登记	-12229
皇家	-12230
直言	-12231
终止	-12232
给他	-12233
缺点	-12234
老人	-12235
胜过	-12236
苛刻	-12237
补救	-12238
警钟	-12239
走到	-12240
起源	-12241
运河	-12242
这在	-12243
退化	-12244
邮报	-12245
部的	-12246
都比	-12247
铁幕	-12248
阳性	-12249
阿什	-12250
降级	-12251
集合	-12252
雷斯	-12253
高中	-12254
高官	-12255
高调	-12256
140	-12257
95%	-12258
AKP	-12259
air	-12260
ark	-12261
ash	-12262
ver	-12263
▁to	-12264
▁不是	-12265
▁东盟	-12266
▁但其	-12267
▁加强	-12268
▁南非	-12269
▁想想	-12270
▁据说	-12271
▁整个	-12272
▁是否	-12273
▁牛津	-12274
一个更	-12275
一年的	-12276
不超过	-12277
与我们	-12278
与英国	-12279
两年的	-12280
中右翼	-12281
为实现	-12282
也知道	-12283
事件中	-12284
产量的	-12285
代人的	-12286
以前的	-12287
件好事	-12288
似乎也	-12289
但他的	-12290
但如今	-12291
促进了	-12292
保持了	-12293
储蓄者	-12294
全要素	-12295
再融资	-12296
冲突中	-12297
剩下的	-12298
南苏丹	-12299
卡尔德	-12300
可卡因	-12301
和中东	-12302
和繁荣	-12303
国家间	-12304
在西方	-12305
地指出	-12306
坚定地	-12307
基督徒	-12308
好莱坞	-12309
它们是	-12310
家可归	-12311
对环境	-12312
对金融	-12313
将因此	-12314
小规模	-12315
工人和	-12316
希望在	-12317
弗利卡	-12318
思想和	-12319
总人口	-12320
患者的	-12321
悬而未	-12322
意思是	-12323
承认了	-12324
把美国	-12325
抗菌素	-12326
拉姆斯	-12327
持有者	-12328
改革者	-12329
数十亿	-12330
新能源	-12331
无法再	-12332
无法让	-12333
明年的	-12334
明智地	-12335
是实现	-12336
是这一	-12337
暂时的	-12338
曼德拉	-12339
权利和	-12340
来取代	-12341
来完成	-12342
某些人	-12343
查尔斯	-12344
毁灭性	-12345
灾难的	-12346
现在就	-12347
甚至比	-12348
的则是	-12349
的外国	-12350
的大国	-12351
的愤怒	-12352
的排放	-12353
的来说	-12354
的爆发	-12355
的竞选	-12356
的管理	-12357
的联邦	-12358
的诱惑	-12359
的过去	-12360
的领袖	-12361
的高级	-12362
研究中	-12363
确保了	-12364
科学界	-12365
精神病	-12366
经常会	-12367
结构的	-12368
维持了	-12369
翻一番	-12370
而不必	-12371
而如果	-12372
而是在	-12373
薄熙来	-12374
行不通	-12375
该项目	-12376
较大的	-12377
这一步	-12378
都同意	-12379
集中的	-12380
面对的	-12381
领导下	-12382
1962	-12383
Mart	-12384
omas	-12385
ower	-12386
reat	-12387
▁Ind	-12388
▁他们在	-12389
▁他们还	-12390
▁凯恩斯	-12391
▁加拿大	-12392
▁委员会	-12393
▁当我们	-12394
▁而对于	-12395
▁该报告	-12396
一个问题	-12397
一点都不	-12398
一直处于	-12399
万亿欧元	-12400
下降趋势	-12401
不可逆转	-12402
不断变化	-12403
不是什么	-12404
不负责任	-12405
两国关系	-12406
之一就是	-12407
也适用于	-12408
他们就会	-12409
他们需要	-12410
价值观的	-12411
债务融资	-12412
公平竞争	-12413
公民自由	-12414
共同市场	-12415
军事冲突	-12416
决策者们	-12417
几个世纪	-12418
加工食品	-12419
北欧国家	-12420
反腐运动	-12421
反过来又	-12422
受欢迎的	-12423
和墨西哥	-12424
国际机构	-12425
增长率为	-12426
墨西哥和	-12427
外交手段	-12428
将不得不	-12429
工业发展	-12430
已不再是	-12431
已经导致	-12432
应该如何	-12433
开始实施	-12434
必要条件	-12435
必须找到	-12436
快速变化	-12437
悬而未决	-12438
意大利的	-12439
慈善机构	-12440
成为美国	-12441
接近于零	-12442
收支平衡	-12443
政治权力	-12444
斯洛伐克	-12445
施加压力	-12446
是巨大的	-12447
本国货币	-12448
欧盟应该	-12449
欧盟成员	-12450
正在快速	-12451
每一美元	-12452
的世界里	-12453
的人民币	-12454
监管措施	-12455
短期利率	-12456
科学家和	-12457
紧张关系	-12458
经验表明	-12459
结合起来	-12460
能够成为	-12461
能源安全	-12462
航空公司	-12463
营商环境	-12464
解释为何	-12465
资本外流	-12466
这一状况	-12467
重大挑战	-12468
重新获得	-12469
银行体系	-12470
预期寿命	-12471
风险管理	-12472
4,000	-12473
James	-12474
—2014	-12475
▁举例来讲	-12476
▁哥本哈根	-12477
▁在过去的	-12478
▁英国退欧	-12479
▁这一趋势	-12480
▁这个问题	-12481
▁随着中国	-12482
严峻的挑战	-12483
主要原因是	-12484
他们自己的	-12485
劳动力大军	-12486
取得了成功	-12487
叙利亚内战	-12488
和地方政府	-12489
成百上千万	-12490
是不可能的	-12491
深远的影响	-12492
的国家之一	-12493
碳氢化合物	-12494
远远超过了	-12495
预算办公室	-12496
50,000	-12497
▁Found	-12498
人道主义援助	-12499
全球金融市场	-12500
结核病和疟疾	-12501
▁Policy	-12502
▁在这样的情况下	-12503
北美自由贸易协定	-12504
▁Foundation	-12505
▁International	-12506
,4	-12507
,7	-12508
1—	-12509
ED	-12510
Ph	-12511
SC	-12512
ST	-12513
aj	-12514
ax	-12515
▁五	-12516
▁亲	-12517
▁十	-12518
▁后	-12519
▁科	-12520
▁莫	-12521
▁达	-12522
一本	-12523
不停	-12524
不决	-12525
不好	-12526
不对	-12527
与伦	-12528
中也	-12529
之和	-12530
乡村	-12531
争相	-12532
亚当	-12533
些许	-12534
代尔	-12535
低位	-12536
先行	-12537
兜售	-12538
公告	-12539
公斤	-12540
公职	-12541
其与	-12542
出国	-12543
列强	-12544
则为	-12545
创意	-12546
加斯	-12547
印刷	-12548
卸任	-12549
原来	-12550
名声	-12551
吞噬	-12552
地亚	-12553
坏账	-12554
堡垒	-12555
塞族	-12556
塞罗	-12557
复燃	-12558
大声	-12559
大获	-12560
天后	-12561
天皇	-12562
太高	-12563
失调	-12564
套利	-12565
季节	-12566
它能	-12567
山大	-12568
工薪	-12569
带到	-12570
平庸	-12571
平权	-12572
年才	-12573
并从	-12574
并向	-12575
延缓	-12576
异议	-12577
影片	-12578
忌惮	-12579
悄悄	-12580
意地	-12581
所犯	-12582
把钱	-12583
抗拒	-12584
挤压	-12585
挫败	-12586
推崇	-12587
收买	-12588
整套	-12589
无休	-12590
无非	-12591
既定	-12592
日期	-12593
更别	-12594
条例	-12595
板球	-12596
极化	-12597
构想	-12598
果实	-12599
格利	-12600
母国	-12601
求职	-12602
泄露	-12603
泛滥	-12604
洪森	-12605
流亡	-12606
淹没	-12607
灵感	-12608
熟练	-12609
牲畜	-12610
现场	-12611
珍视	-12612
用词	-12613
疏远	-12614
盛行	-12615
知情	-12616
研讨	-12617
禁运	-12618
禁酒	-12619
福岛	-12620
科斯	-12621
科特	-12622
空军	-12623
签字	-12624
精明	-12625
纳摩	-12626
线的	-12627
罗格	-12628
美丽	-12629
美的	-12630
而当	-12631
英法	-12632
融化	-12633
表决	-12634
被杀	-12635
要将	-12636
规格	-12637
讨好	-12638
话语	-12639
财长	-12640
贫民	-12641
转为	-12642
较大	-12643
这段	-12644
连串	-12645
通知	-12646
道义	-12647
错失	-12648
陈词	-12649
/11	-12650
35%	-12651
ARP	-12652
ECB	-12653
ICT	-12654
You	-12655
arm	-12656
igh	-12657
ith	-12658
lam	-12659
res	-12660
rug	-12661
▁11	-12662
▁En	-12663
▁Mo	-12664
▁de	-12665
▁与其	-12666
▁东亚	-12667
▁个人	-12668
▁二战	-12669
▁人口	-12670
▁但该	-12671
▁双方	-12672
▁官方	-12673
▁改善	-12674
▁旨在	-12675
▁缅甸	-12676
▁而非	-12677
▁这笔	-12678
▁这让	-12679
▁降低	-12680
一直被	-12681
上涨了	-12682
与伦比	-12683
与全球	-12684
东北亚	-12685
两年中	-12686
也确实	-12687
也认为	-12688
了一位	-12689
他们还	-12690
以适应	-12691
任命为	-12692
会引起	-12693
其国内	-12694
典型的	-12695
出不穷	-12696
创新者	-12697
利用了	-12698
制造的	-12699
前主席	-12700
北部的	-12701
占中国	-12702
危机时	-12703
却未能	-12704
参加了	-12705
可用于	-12706
和出口	-12707
哪怕是	-12708
圣诞节	-12709
在埃及	-12710
在这种	-12711
复苏的	-12712
大企业	-12713
大约有	-12714
奥斯曼	-12715
它应该	-12716
它能够	-12717
实行的	-12718
对世界	-12719
对某些	-12720
将很快	-12721
就变得	-12722
尼泊尔	-12723
工具和	-12724
已经为	-12725
常常是	-12726
年实现	-12727
年年中	-12728
很高的	-12729
必须为	-12730
必须的	-12731
性价比	-12732
所取代	-12733
所提出	-12734
投入了	-12735
支付的	-12736
改变其	-12737
无异于	-12738
是否是	-12739
更健康	-12740
更廉价	-12741
最糟糕	-12742
有害的	-12743
杠杆率	-12744
极高的	-12745
活动中	-12746
消费税	-12747
理想的	-12748
瓦拉伊	-12749
的一代	-12750
的一面	-12751
的举动	-12752
的义务	-12753
的传播	-12754
的利润	-12755
的复苏	-12756
的开始	-12757
的指控	-12758
的政权	-12759
的最终	-12760
的疾病	-12761
的痛苦	-12762
的社区	-12763
的范围	-12764
的融资	-12765
的访问	-12766
的进口	-12767
的逻辑	-12768
目睹了	-12769
矛盾的	-12770
究竟是	-12771
第二轮	-12772
简单化	-12773
结果的	-12774
缺陷的	-12775
而这种	-12776
艺术品	-12777
被要求	-12778
解释是	-12779
足以让	-12780
这三个	-12781
这不仅	-12782
这两者	-12783
这部分	-12784
进程中	-12785
通过将	-12786
道德的	-12787
需要对	-12788
风险是	-12789
马歇尔	-12790
驱逐出	-12791
1.5°	-12792
ange	-12793
ecur	-12794
roup	-12795
▁但现实	-12796
▁但目前	-12797
▁埃博拉	-12798
▁我相信	-12799
▁理论上	-12800
▁美国和	-12801
▁艾滋病	-12802
▁该地区	-12803
▁这导致	-12804
一个事实	-12805
一致同意	-12806
不会导致	-12807
不再需要	-12808
不可思议	-12809
不可预测	-12810
不断加剧	-12811
不是为了	-12812
中国可以	-12813
中国国内	-12814
中国崛起	-12815
中的地位	-12816
主权国家	-12817
也出现了	-12818
人们开始	-12819
人口比例	-12820
今年夏天	-12821
偿还债务	-12822
公司治理	-12823
公司税率	-12824
共和国的	-12825
关塔纳摩	-12826
再次发生	-12827
几乎完全	-12828
制度改革	-12829
包容性的	-12830
历史上看	-12831
可能引发	-12832
可能无法	-12833
在华盛顿	-12834
增长战略	-12835
外交关系	-12836
多元化的	-12837
大幅削减	-12838
层出不穷	-12839
已经变得	-12840
得出结论	-12841
恐怖活动	-12842
感到失望	-12843
我们自己	-12844
才能获得	-12845
拯救生命	-12846
提供一个	-12847
政府正在	-12848
整个地区	-12849
无家可归	-12850
有价值的	-12851
机器学习	-12852
民间团体	-12853
没有那么	-12854
电子商务	-12855
的价值观	-12856
的时候了	-12857
碳排放量	-12858
社会民主	-12859
离开欧盟	-12860
税收改革	-12861
继续保持	-12862
美国国债	-12863
自由化的	-12864
获得成功	-12865
让人感到	-12866
财政悬崖	-12867
财政规则	-12868
贸易逆差	-12869
这一进程	-12870
这么一个	-12871
这些数字	-12872
远远低于	-12873
退休年龄	-12874
都出现了	-12875
银行家们	-12876
首要任务	-12877
高质量的	-12878
,2011	-12879
8,000	-12880
ocial	-12881
▁2002	-12882
▁一些国家	-12883
▁其中包括	-12884
▁这种情况	-12885
世界各地的	-12886
中国的崛起	-12887
人民币贬值	-12888
从现在开始	-12889
伊斯坦布尔	-12890
各国领导人	-12891
和巴基斯坦	-12892
哈佛大学的	-12893
喜马拉雅山	-12894
在许多国家	-12895
巨大的经济	-12896
已经过去了	-12897
必须认识到	-12898
房地产价格	-12899
根深蒂固的	-12900
毫无疑问是	-12901
生活在一个	-12902
的一份报告	-12903
的人道主义	-12904
的意识形态	-12905
盖茨基金会	-12906
经济学家们	-12907
美国财政部	-12908
解释为什么	-12909
铺平了道路	-12910
长期存在的	-12911
非洲国家的	-12912
非洲领导人	-12913
▁欧洲领导人	-12914
世界上最大的	-12915
前工业化水平	-12916
民族主义情绪	-12917
的经济和社会	-12918
解决这个问题	-12919
认识到这一点	-12920
量化宽松政策	-12921
▁现在的问题是	-12922
至关重要的作用	-12923
减少温室气体排放	-12924
跨大西洋贸易和投资伙伴关系	-12925
Af	-12926
BA	-12927
BC	-12928
Ed	-12929
uk	-12930
▁f	-12931
▁且	-12932
一周	-12933
上诉	-12934
下定	-12935
不抵	-12936
不胜	-12937
主人	-12938
之战	-12939
之源	-12940
之苦	-12941
乌兹	-12942
人体	-12943
人大	-12944
从于	-12945
会为	-12946
伯利	-12947
但与	-12948
停顿	-12949
克什	-12950
克拉	-12951
党员	-12952
全都	-12953
八个	-12954
公寓	-12955
共鸣	-12956
典礼	-12957
内心	-12958
减记	-12959
出身	-12960
劫持	-12961
千禧	-12962
卡尼	-12963
厄运	-12964
参照	-12965
又被	-12966
发声	-12967
受助	-12968
变异	-12969
口气	-12970
古代	-12971
可笑	-12972
合乎	-12973
周刊	-12974
善于	-12975
喇嘛	-12976
囚禁	-12977
四十	-12978
四处	-12979
四川	-12980
回升	-12981
囤积	-12982
国籍	-12983
在从	-12984
堆积	-12985
多国	-12986
大权	-12987
女人	-12988
妓女	-12989
存储	-12990
学费	-12991
实例	-12992
实时	-12993
宣誓	-12994
对准	-12995
屋顶	-12996
并由	-12997
库存	-12998
废墟	-12999
强行	-13000
怪异	-13001
患病	-13002
所要	-13003
手可	-13004
打下	-13005
抵扣	-13006
抹杀	-13007
拼命	-13008
拿破	-13009
据称	-13010
放贷	-13011
断层	-13012
旧金	-13013
时宜	-13014
时日	-13015
朔伊	-13016
树木	-13017
样本	-13018
核弹	-13019
桑比	-13020
款项	-13021
毁掉	-13022
比起	-13023
汇集	-13024
洛夫	-13025
流量	-13026
浓度	-13027
海滩	-13028
消亡	-13029
涨幅	-13030
温暖	-13031
演习	-13032
演进	-13033
热浪	-13034
版图	-13035
的书	-13036
的净	-13037
的多	-13038
的钱	-13039
相形	-13040
相悖	-13041
真诚	-13042
眼看	-13043
矛头	-13044
碰撞	-13045
离心	-13046
童工	-13047
粮农	-13048
纳恰	-13049
纵容	-13050
置信	-13051
置身	-13052
美分	-13053
耶夫	-13054
能比	-13055
自利	-13056
自称	-13057
自足	-13058
萨姆	-13059
袖手	-13060
议制	-13061
说出	-13062
贝鲁	-13063
赞誉	-13064
较弱	-13065
远非	-13066
透露	-13067
通向	-13068
遴选	-13069
重返	-13070
隔绝	-13071
雕像	-13072
震荡	-13073
预定	-13074
饮料	-13075
马杜	-13076
鬼城	-13077
默许	-13078
2.0	-13079
2.1	-13080
CCS	-13081
Ste	-13082
ali	-13083
anc	-13084
ast	-13085
aud	-13086
eet	-13087
eff	-13088
oll	-13089
ors	-13090
▁21	-13091
▁不可	-13092
▁军事	-13093
▁农民	-13094
▁反对	-13095
▁推动	-13096
▁明年	-13097
▁普通	-13098
▁更为	-13099
▁监管	-13100
▁第五	-13101
▁简单	-13102
▁经过	-13103
▁要么	-13104
▁谷歌	-13105
一年前	-13106
不仅在	-13107
不但要	-13108
不抵债	-13109
不错的	-13110
与政治	-13111
世界观	-13112
两个月	-13113
个基点	-13114
临时性	-13115
临界点	-13116
乌兹别	-13117
了他们	-13118
人们在	-13119
他人的	-13120
以保证	-13121
会影响	-13122
会破坏	-13123
低水平	-13124
使它们	-13125
假消息	-13126
关注点	-13127
其主要	-13128
其影响	-13129
出租车	-13130
则需要	-13131
副主席	-13132
占据着	-13133
却从未	-13134
厢情愿	-13135
反射率	-13136
发出了	-13137
另一些	-13138
可怜的	-13139
可能让	-13140
后果的	-13141
向欧洲	-13142
和波兰	-13143
和行为	-13144
和行动	-13145
哈里发	-13146
在当今	-13147
地区性	-13148
央行的	-13149
奢侈品	-13150
奥斯陆	-13151
姆斯特	-13152
子公司	-13153
官员的	-13154
容易被	-13155
就一直	-13156
尼日尔	-13157
峰会的	-13158
工资税	-13159
布拉格	-13160
年代和	-13161
年达到	-13162
并同时	-13163
并非是	-13164
应当是	-13165
应该对	-13166
延伸到	-13167
彰显出	-13168
必须对	-13169
恐惧和	-13170
感觉到	-13171
我们能	-13172
我们要	-13173
才能让	-13174
扮演了	-13175
承包商	-13176
把我们	-13177
拿破仑	-13178
推翻了	-13179
推行的	-13180
描述了	-13181
提供给	-13182
提到了	-13183
提升了	-13184
摧毁了	-13185
收到了	-13186
效率和	-13187
方设法	-13188
日本和	-13189
旧金山	-13190
更喜欢	-13191
更快地	-13192
最低的	-13193
最脆弱	-13194
月中旬	-13195
月份的	-13196
期间的	-13197
来承担	-13198
极低的	-13199
格利茨	-13200
治疗的	-13201
理论的	-13202
电动车	-13203
略高于	-13204
的人物	-13205
的伤害	-13206
的借口	-13207
的债券	-13208
的前任	-13209
的反腐	-13210
的名字	-13211
的复杂	-13212
的大陆	-13213
的对比	-13214
的对立	-13215
的对策	-13216
的情形	-13217
的成就	-13218
的政党	-13219
的极端	-13220
的治疗	-13221
的相对	-13222
的真相	-13223
的繁荣	-13224
的自我	-13225
的费用	-13226
确定的	-13227
科学和	-13228
简直是	-13229
管辖权	-13230
管齐下	-13231
篇文章	-13232
继续在	-13233
罗格夫	-13234
而如今	-13235
而德国	-13236
而无法	-13237
至少要	-13238
英国和	-13239
衰退的	-13240
解决了	-13241
让这些	-13242
设计和	-13243
谈判桌	-13244
软着陆	-13245
这样说	-13246
通过在	-13247
遭受了	-13248
部长们	-13249
都是由	-13250
面对着	-13251
饥饿和	-13252
高失业	-13253
高级别	-13254
鲁纳恰	-13255
默多克	-13256
1929	-13257
FARC	-13258
anke	-13259
vest	-13260
▁但今天	-13261
▁但这是	-13262
▁卡梅伦	-13263
▁只有当	-13264
▁在一些	-13265
▁我希望	-13266
▁接下来	-13267
▁经济学	-13268
▁而由于	-13269
▁而那些	-13270
▁这可能	-13271
▁这或许	-13272
▁那就是	-13273
一个更加	-13274
不会发生	-13275
不再能够	-13276
不必要的	-13277
严重不足	-13278
严重威胁	-13279
也采取了	-13280
以及一个	-13281
以及如何	-13282
任何人都	-13283
优先事项	-13284
但并没有	-13285
侵犯人权	-13286
克罗地亚	-13287
其它国家	-13288
其领导人	-13289
制定一个	-13290
加入其中	-13291
发动战争	-13292
发展模式	-13293
发展计划	-13294
受到影响	-13295
只有少数	-13296
可以带来	-13297
可以肯定	-13298
合作关系	-13299
和太阳能	-13300
因果关系	-13301
团结起来	-13302
国际象棋	-13303
大幅贬值	-13304
如此多的	-13305
官僚主义	-13306
实现目标	-13307
实际情况	-13308
对其进行	-13309
工作年龄	-13310
左翼联盟	-13311
并不那么	-13312
德克萨斯	-13313
总统普京	-13314
我们希望	-13315
才能确保	-13316
把注意力	-13317
支出削减	-13318
新闻报道	-13319
无与伦比	-13320
是否愿意	-13321
更强大的	-13322
更长时间	-13323
服务业的	-13324
朔伊布勒	-13325
本世纪末	-13326
正在增加	-13327
正在日益	-13328
段时间内	-13329
毫不犹豫	-13330
民主选举	-13331
活跃分子	-13332
流动性的	-13333
独立性的	-13334
理由认为	-13335
生物多样	-13336
的一体化	-13337
的不信任	-13338
的伊斯兰	-13339
的是一个	-13340
的欧洲人	-13341
的环境下	-13342
的进一步	-13343
相似之处	-13344
紧密合作	-13345
经济上的	-13346
网络攻击	-13347
美国已经	-13348
美国银行	-13349
能够得到	-13350
能够确保	-13351
袖手旁观	-13352
角度来看	-13353
认真考虑	-13354
评级机构	-13355
财政契约	-13356
货币升值	-13357
资不抵债	-13358
资产购买	-13359
转移到了	-13360
这些趋势	-13361
重大进步	-13362
银行账户	-13363
长期债券	-13364
长期投资	-13365
随之而来	-13366
非洲政府	-13367
,2000	-13368
,2012	-13369
▁1989	-13370
▁Bern	-13371
▁作为一个	-13372
▁在最近的	-13373
▁经合组织	-13374
不平等性的	-13375
不平等现象	-13376
专门委员会	-13377
世界银行的	-13378
中东和北非	-13379
主要是因为	-13380
伊斯兰教徒	-13381
几乎肯定会	-13382
发生了改变	-13383
国家领导人	-13384
国有企业的	-13385
工程和数学	-13386
引人注目的	-13387
很好的例子	-13388
捷克共和国	-13389
斯蒂格利茨	-13390
最贫困国家	-13391
欧盟国家的	-13392
海平面上升	-13393
灾难性后果	-13394
的军事行动	-13395
的政治意愿	-13396
的美国经济	-13397
相关利益方	-13398
社会民主党	-13399
系统性风险	-13400
经济的发展	-13401
美国和欧盟	-13402
臭名昭著的	-13403
艰巨的挑战	-13404
许多人认为	-13405
购买力平价	-13406
贸易自由化	-13407
马克思主义	-13408
Martin	-13409
Thomas	-13410
ichard	-13411
▁英格兰银行	-13412
▁麦肯锡全球	-13413
作为一个整体	-13414
国务卿希拉里	-13415
拉姆斯菲尔德	-13416
经常账户盈余	-13417
适应气候变化	-13418
▁Health	-13419
▁中国人民银行	-13420
▁Summers	-13421
▁发自华盛顿特区	-13422
,3	-13423
AA	-13424
BI	-13425
gy	-13426
ph	-13427
▁只	-13428
▁因	-13429
▁安	-13430
▁布	-13431
一向	-13432
丈夫	-13433
三方	-13434
上游	-13435
不为	-13436
专员	-13437
专属	-13438
中非	-13439
之初	-13440
之所	-13441
乱象	-13442
互信	-13443
令其	-13444
以免	-13445
以其	-13446
佛教	-13447
作风	-13448
借用	-13449
内斯	-13450
冰盖	-13451
切莱	-13452
十足	-13453
博科	-13454
反之	-13455
受限	-13456
变性	-13457
可危	-13458
合资	-13459
和海	-13460
回收	-13461
在最	-13462
地主	-13463
埃里	-13464
大谈	-13465
太久	-13466
头巾	-13467
奴役	-13468
安装	-13469
寥寥	-13470
将向	-13471
岌岌	-13472
已知	-13473
带入	-13474
带给	-13475
干脆	-13476
开辟	-13477
心目	-13478
快乐	-13479
怨恨	-13480
战役	-13481
打了	-13482
招聘	-13483
指示	-13484
捕捉	-13485
捕鱼	-13486
推销	-13487
搁置	-13488
支援	-13489
收容	-13490
效力	-13491
新任	-13492
新疆	-13493
施行	-13494
族群	-13495
暴君	-13496
更早	-13497
曼纽	-13498
最早	-13499
机动	-13500
杉矶	-13501
林肯	-13502
格莱	-13503
案的	-13504
正轨	-13505
残障	-13506
每人	-13507
水坝	-13508
水库	-13509
水面	-13510
法制	-13511
泰勒	-13512
流域	-13513
流氓	-13514
海牙	-13515
温床	-13516
滞后	-13517
狼藉	-13518
率先	-13519
现已	-13520
理顺	-13521
生死	-13522
的地	-13523
的有	-13524
的要	-13525
盈率	-13526
看见	-13527
移居	-13528
税务	-13529
窒息	-13530
窗口	-13531
管治	-13532
管用	-13533
给定	-13534
缺位	-13535
罢工	-13536
美金	-13537
联酋	-13538
聚会	-13539
肆意	-13540
肆无	-13541
胜于	-13542
自私	-13543
航天	-13544
船只	-13545
芯片	-13546
落到	-13547
虚构	-13548
血红	-13549
裕仁	-13550
诉诸	-13551
说他	-13552
谈到	-13553
谷物	-13554
路口	-13555
身后	-13556
辨别	-13557
追逐	-13558
退步	-13559
送到	-13560
邦的	-13561
铲除	-13562
长大	-13563
闲置	-13564
随意	-13565
韧性	-13566
领海	-13567
颜色	-13568
额的	-13569
风电	-13570
马琳	-13571
高位	-13572
高得	-13573
默认	-13574
1.1	-13575
2.4	-13576
2.7	-13577
2/3	-13578
7.5	-13579
ade	-13580
amm	-13581
ans	-13582
emy	-13583
ild	-13584
ink	-13585
ocr	-13586
rag	-13587
tic	-13588
▁30	-13589
▁Af	-13590
▁Br	-13591
▁Th	-13592
▁一般	-13593
▁但与	-13594
▁希望	-13595
▁所谓	-13596
▁此举	-13597
▁每天	-13598
▁研究	-13599
▁联邦	-13600
▁资本	-13601
一国的	-13602
一定要	-13603
上升的	-13604
不会再	-13605
丝毫不	-13606
两者的	-13607
中发挥	-13608
中得到	-13609
中汲取	-13610
之前就	-13611
也承认	-13612
也有所	-13613
了一番	-13614
争论的	-13615
产生于	-13616
代价的	-13617
以致于	-13618
以降低	-13619
似乎都	-13620
体现出	-13621
使用者	-13622
依赖的	-13623
全人类	-13624
公布的	-13625
共同点	-13626
准确的	-13627
切实际	-13628
制度性	-13629
前提是	-13630
前首相	-13631
医学院	-13632
南极洲	-13633
发动机	-13634
发表的	-13635
只能是	-13636
号决议	-13637
合理地	-13638
向公众	-13639
否决了	-13640
和使用	-13641
和共同	-13642
和增加	-13643
和巴西	-13644
在伦敦	-13645
在那些	-13646
增加对	-13647
处理好	-13648
外交和	-13649
外交部	-13650
大气中	-13651
学者和	-13652
它们将	-13653
安排的	-13654
宗教和	-13655
对自己	-13656
将大大	-13657
就显得	-13658
就越大	-13659
工业园	-13660
市场化	-13661
市场对	-13662
常常会	-13663
并不比	-13664
幸福感	-13665
很难说	-13666
心理学	-13667
总书记	-13668
或政治	-13669
所显示	-13670
打破了	-13671
抗氧化	-13672
拉加德	-13673
拉美和	-13674
捍卫者	-13675
推动下	-13676
政府所	-13677
救世主	-13678
数据和	-13679
新鲜事	-13680
方式来	-13681
方方面	-13682
是否在	-13683
是政治	-13684
普遍的	-13685
曼纽尔	-13686
核心国	-13687
根本就	-13688
洛杉矶	-13689
活力和	-13690
济于事	-13691
特里亚	-13692
百分比	-13693
的人力	-13694
的全面	-13695
的冲击	-13696
的区域	-13697
的各种	-13698
的对象	-13699
的就是	-13700
的榜样	-13701
的理想	-13702
的立法	-13703
的衰退	-13704
的辩论	-13705
目的地	-13706
相当长	-13707
相比较	-13708
社区的	-13709
组成了	-13710
统治下	-13711
维持着	-13712
而且是	-13713
而我们	-13714
而获得	-13715
联系的	-13716
英联邦	-13717
萨尔瓦	-13718
衡量的	-13719
让那些	-13720
证实了	-13721
资产和	-13722
这一幕	-13723
这对于	-13724
进入到	-13725
进出口	-13726
适当的	-13727
透明的	-13728
道德上	-13729
都具有	-13730
都可能	-13731
阶段的	-13732
陈词滥	-13733
限制的	-13734
随时间	-13735
难以为	-13736
食品和	-13737
首先是	-13738
黑天鹅	-13739
鼓吹者	-13740
齐奥塞	-13741
7000	-13742
Bern	-13743
IPCC	-13744
edic	-13745
illi	-13746
▁Man	-13747
▁在其他	-13748
▁对欧洲	-13749
▁突尼斯	-13750
▁而现在	-13751
▁这些人	-13752
不平等的	-13753
中国人民	-13754
习近平在	-13755
亚历山大	-13756
交易成本	-13757
仍然十分	-13758
以色列人	-13759
任何其他	-13760
债务问题	-13761
刺激政策	-13762
医疗补助	-13763
协调一致	-13764
历史性的	-13765
可以理解	-13766
吉尔吉斯	-13767
和乌克兰	-13768
在俄罗斯	-13769
基本权利	-13770
增长前景	-13771
大幅上升	-13772
它们必须	-13773
安全部队	-13774
实力平衡	-13775
密切关注	-13776
对冲基金	-13777
尚不清楚	-13778
就是为了	-13779
尽管美国	-13780
岌岌可危	-13781
工作机会	-13782
已经存在	-13783
已经有了	-13784
已经过去	-13785
并不需要	-13786
库尔德人	-13787
很可能是	-13788
想方设法	-13789
成本效益	-13790
我们知道	-13791
战争期间	-13792
所引起的	-13793
所指出的	-13794
扎克伯格	-13795
技术转让	-13796
抓住机会	-13797
改变现状	-13798
政治参与	-13799
整个国家	-13800
无可否认	-13801
无法得到	-13802
是这样的	-13803
显著低于	-13804
更倾向于	-13805
更加重要	-13806
最后一次	-13807
本身就是	-13808
柔性力量	-13809
标准普尔	-13810
欧洲安全	-13811
正常化的	-13812
民调显示	-13813
没有必要	-13814
流动性和	-13815
犹豫不决	-13816
的共和党	-13817
的情况是	-13818
的第二个	-13819
的领导者	-13820
真实利率	-13821
社会契约	-13822
移民政策	-13823
等方面的	-13824
经济中的	-13825
经济停滞	-13826
结构变化	-13827
网络空间	-13828
美国公司	-13829
美国应该	-13830
肆无忌惮	-13831
能源供应	-13832
能源政策	-13833
自动化的	-13834
菲尔普斯	-13835
融资平台	-13836
说服力的	-13837
财政大臣	-13838
货币交易	-13839
贸易失衡	-13840
这一切都	-13841
这些项目	-13842
这项任务	-13843
逍遥法外	-13844
通胀预期	-13845
重新统一	-13846
长远来看	-13847
需要采取	-13848
领先地位	-13849
食品价格	-13850
首脑会议	-13851
马萨诸塞	-13852
6,000	-13853
▁1990	-13854
▁但大部分	-13855
▁在此期间	-13856
▁如果这一	-13857
▁对于那些	-13858
▁结果导致	-13859
▁这些措施	-13860
▁这些都是	-13861
世界经济的	-13862
中央银行家	-13863
之间的差距	-13864
也同样如此	-13865
仍然是一个	-13866
出人意料地	-13867
加入欧盟的	-13868
单一市场的	-13869
并不是一个	-13870
并没有什么	-13871
开发银行的	-13872
总理温家宝	-13873
政治和社会	-13874
数万亿美元	-13875
更加可持续	-13876
最大限度地	-13877
的人均收入	-13878
的国际秩序	-13879
的外交政策	-13880
的民粹主义	-13881
私人投资者	-13882
经济发展的	-13883
这样的结果	-13884
进一步增加	-13885
金融和经济	-13886
齐奥塞斯库	-13887
▁但不幸的是	-13888
共同农业政策	-13889
刺激经济增长	-13890
参拜靖国神社	-13891
国际刑事法庭	-13892
基础设施支出	-13893
带来了巨大的	-13894
抗菌素耐药性	-13895
斯堪的纳维亚	-13896
欧洲议会选举	-13897
解决气候变化	-13898
解决这些问题	-13899
证明了这一点	-13900
Charles	-13901
▁这并不意味着	-13902
▁National	-13903
达沃斯世界经济论坛	-13904
哥伦比亚革命武装力量	-13905
,9	-13906
41	-13907
54	-13908
56	-13909
57	-13910
5—	-13911
73	-13912
99	-13913
BT	-13914
Cl	-13915
En	-13916
GP	-13917
ME	-13918
Me	-13919
St	-13920
ee	-13921
ok	-13922
▁8	-13923
▁八	-13924
▁去	-13925
▁好	-13926
▁曾	-13927
▁照	-13928
▁较	-13929
一根	-13930
一级	-13931
一线	-13932
三种	-13933
上浇	-13934
不经	-13935
两人	-13936
为负	-13937
人对	-13938
什图	-13939
以更	-13940
会以	-13941
住在	-13942
佩克	-13943
信徒	-13944
僧侣	-13945
光耀	-13946
克和	-13947
公式	-13948
公海	-13949
几家	-13950
几项	-13951
出访	-13952
创办	-13953
利得	-13954
力地	-13955
区内	-13956
午餐	-13957
华沙	-13958
卡利	-13959
即可	-13960
去世	-13961
受人	-13962
受众	-13963
可控	-13964
各式	-13965
含有	-13966
启蒙	-13967
哈尔	-13968
国库	-13969
土库	-13970
垮台	-13971
夫妇	-13972
学历	-13973
它会	-13974
安然	-13975
对美	-13976
将它	-13977
少量	-13978
尔克	-13979
尔森	-13980
就得	-13981
并与	-13982
开出	-13983
彩票	-13984
微型	-13985
忘了	-13986
忠实	-13987
总能	-13988
意欲	-13989
战时	-13990
拿到	-13991
撒钱	-13992
放开	-13993
救市	-13994
数年	-13995
斯密	-13996
无误	-13997
早教	-13998
时也	-13999
明的	-14000
晓波	-14001
暴动	-14002
有罪	-14003
村民	-14004
查理	-14005
死灰	-14006
每日	-14007
毛里	-14008
汇聚	-14009
注射	-14010
洪灾	-14011
深厚	-14012
深圳	-14013
炎热	-14014
点的	-14015
照护	-14016
爱沙	-14017
犯了	-14018
病菌	-14019
痴呆	-14020
登上	-14021
白白	-14022
百年	-14023
皮诺	-14024
相邻	-14025
看重	-14026
眼睛	-14027
着实	-14028
神奇	-14029
穆勒	-14030
穆特	-14031
空洞	-14032
第六	-14033
等价	-14034
筹码	-14035
绝佳	-14036
维奥	-14037
维艰	-14038
缔约	-14039
而该	-14040
育儿	-14041
至此	-14042
舒适	-14043
艾伦	-14044
英尺	-14045
落在	-14046
表象	-14047
警觉	-14048
认证	-14049
诅咒	-14050
识字	-14051
请求	-14052
负有	-14053
贪污	-14054
贯穿	-14055
足联	-14056
跟进	-14057
蹒跚	-14058
过滤	-14059
过着	-14060
近在	-14061
还债	-14062
违规	-14063
连通	-14064
迟缓	-14065
迷惑	-14066
选手	-14067
递交	-14068
部族	-14069
都与	-14070
都由	-14071
钞票	-14072
错综	-14073
问及	-14074
降息	-14075
随心	-14076
难怪	-14077
驾驭	-14078
,18	-14079
16%	-14080
230	-14081
FSB	-14082
ari	-14083
eas	-14084
ish	-14085
ley	-14086
lin	-14087
min	-14088
ock	-14089
off	-14090
ump	-14091
▁不同	-14092
▁其二	-14093
▁减少	-14094
▁反之	-14095
▁国内	-14096
▁它的	-14097
▁它还	-14098
▁就是	-14099
▁帮助	-14100
▁应对	-14101
▁建设	-14102
▁战争	-14103
▁截止	-14104
▁本周	-14105
▁表明	-14106
▁要求	-14107
▁迪拜	-14108
三个月	-14109
上升至	-14110
上浇油	-14111
下一场	-14112
下降的	-14113
不可行	-14114
中找到	-14115
也逐渐	-14116
了不起	-14117
了大约	-14118
人员和	-14119
亿英镑	-14120
他们都	-14121
代议制	-14122
以解决	-14123
会选择	-14124
但并未	-14125
但这种	-14126
保证金	-14127
像美国	-14128
共同化	-14129
其原因	-14130
减少到	-14131
出一个	-14132
到现在	-14133
包括在	-14134
占领了	-14135
卡斯特	-14136
压力下	-14137
又开始	-14138
发动了	-14139
发起了	-14140
发起的	-14141
句名言	-14142
可能给	-14143
否决权	-14144
和多边	-14145
和强化	-14146
和改善	-14147
和石油	-14148
和解决	-14149
四十年	-14150
土库曼	-14151
在一次	-14152
在日本	-14153
埃及人	-14154
大使馆	-14155
大自然	-14156
她们的	-14157
如今的	-14158
妇女的	-14159
威胁着	-14160
安全性	-14161
完全不	-14162
富人的	-14163
对一个	-14164
将被迫	-14165
将迫使	-14166
已经使	-14167
年收入	-14168
并增加	-14169
引出了	-14170
当下的	-14171
很清楚	-14172
必要时	-14173
恢复到	-14174
想不到	-14175
所要求	-14176
所遭受	-14177
扩张的	-14178
抗药性	-14179
持续性	-14180
掌握了	-14181
携带者	-14182
政府为	-14183
新西兰	-14184
既没有	-14185
明日黄	-14186
是否有	-14187
是欧盟	-14188
更紧密	-14189
朝一日	-14190
权力和	-14191
李光耀	-14192
来保护	-14193
来实施	-14194
来支撑	-14195
来解释	-14196
核协议	-14197
正逐渐	-14198
污染的	-14199
牺牲品	-14200
理论家	-14201
由中国	-14202
的不是	-14203
的举措	-14204
的代表	-14205
的信仰	-14206
的共识	-14207
的具体	-14208
的动机	-14209
的将来	-14210
的崩溃	-14211
的干预	-14212
的广泛	-14213
的意见	-14214
的报道	-14215
的收益	-14216
的最初	-14217
的欧元	-14218
的电力	-14219
的那些	-14220
相形见	-14221
碎片化	-14222
科学的	-14223
科学院	-14224
第三国	-14225
管理局	-14226
给中国	-14227
统计局	-14228
罗亚尔	-14229
而现在	-14230
而遭到	-14231
联合会	-14232
能够将	-14233
能源的	-14234
莫桑比	-14235
落后的	-14236
表现的	-14237
覆盖面	-14238
该区域	-14239
责任和	-14240
赋予了	-14241
超越了	-14242
达不到	-14243
过多的	-14244
过度的	-14245
还可能	-14246
这也许	-14247
这笔钱	-14248
进化论	-14249
选择是	-14250
那么多	-14251
都将是	-14252
采取更	-14253
重点是	-14254
需要与	-14255
非正规	-14256
非理性	-14257
预计到	-14258
马杜罗	-14259
1968	-14260
1978	-14261
ried	-14262
▁Pen	-14263
▁但人们	-14264
▁但只要	-14265
▁但欧盟	-14266
▁克林顿	-14267
▁其结果	-14268
▁十年前	-14269
▁哈马斯	-14270
▁在印度	-14271
▁如果要	-14272
▁我们还	-14273
▁有人说	-14274
▁第一种	-14275
▁至少在	-14276
▁这一回	-14277
一个重要	-14278
一小部分	-14279
上市公司	-14280
不仅包括	-14281
不仅需要	-14282
不合时宜	-14283
不断提高	-14284
中国国家	-14285
也不例外	-14286
也可以在	-14287
也是为了	-14288
习近平的	-14289
了美国的	-14290
人口红利	-14291
什么时候	-14292
仅仅因为	-14293
仍在继续	-14294
令人惊奇	-14295
令人振奋	-14296
以及美国	-14297
俄罗斯人	-14298
俄罗斯在	-14299
保持沉默	-14300
健康问题	-14301
偿债能力	-14302
克什米尔	-14303
全球教育	-14304
全面禁止	-14305
军事政变	-14306
出口产品	-14307
创纪录的	-14308
加沙地带	-14309
卫生体系	-14310
卫生保健	-14311
参与其中	-14312
参与者的	-14313
反犹主义	-14314
只是为了	-14315
可以利用	-14316
可能面临	-14317
国际收支	-14318
在我们的	-14319
地区安全	-14320
增长公约	-14321
多边机构	-14322
大有裨益	-14323
失业问题	-14324
如果美国	-14325
姆斯特丹	-14326
完全不同	-14327
官僚体系	-14328
官僚家族	-14329
官僚机构	-14330
实现这些	-14331
寿命预期	-14332
工业化的	-14333
希望看到	-14334
很难想象	-14335
必须确保	-14336
感到惊讶	-14337
成为欧洲	-14338
战略利益	-14339
指导原则	-14340
援助计划	-14341
政府收入	-14342
政治人物	-14343
政治支持	-14344
数十年来	-14345
无法接受	-14346
是另一个	-14347
更不要说	-14348
最有效的	-14349
有所帮助	-14350
来说都是	-14351
极低利率	-14352
欧盟宪法	-14353
死灰复燃	-14354
殖民主义	-14355
民间社会	-14356
汇率波动	-14357
消除贫困	-14358
潜在增长	-14359
火上浇油	-14360
爆发以来	-14361
爱沙尼亚	-14362
电子邮件	-14363
目前已经	-14364
科学技术	-14365
竞争优势	-14366
紧张局面	-14367
经济机会	-14368
美国正在	-14369
能够保持	-14370
葛兰运动	-14371
西尔维奥	-14372
要归因于	-14373
货币当局	-14374
货币战争	-14375
贸易平衡	-14376
起的作用	-14377
过去十年	-14378
过度依赖	-14379
这一地区	-14380
这一方向	-14381
这些数据	-14382
远远高于	-14383
都能获得	-14384
金融时报	-14385
陈词滥调	-14386
陷入衰退	-14387
随心所欲	-14388
需要我们	-14389
需要通过	-14390
非常相似	-14391
领土纠纷	-14392
领导者的	-14393
高失业率	-14394
高级代表	-14395
ction	-14396
▁Krug	-14397
▁二十世纪	-14398
▁但中国的	-14399
▁但特朗普	-14400
▁其中一个	-14401
▁几乎所有	-14402
▁尽管存在	-14403
▁我们不能	-14404
▁特朗普的	-14405
▁研究表明	-14406
▁这样一来	-14407
中央情报局	-14408
亚洲经济体	-14409
公共和私人	-14410
共产主义的	-14411
其中大部分	-14412
创造了一个	-14413
发布了一份	-14414
和其他许多	-14415
国际能源署	-14416
在未来几年	-14417
完全不同的	-14418
带来的好处	-14419
持不同政见	-14420
新兴国家的	-14421
有可能导致	-14422
极端主义的	-14423
正确的方向	-14424
潜在增长率	-14425
特别是如果	-14426
生活水平的	-14427
的唯一办法	-14428
的最重要的	-14429
的经济关系	-14430
自己的利益	-14431
英国独立党	-14432
资本市场的	-14433
近几十年来	-14434
还远远不够	-14435
▁阿尔及利亚	-14436
加入世贸组织	-14437
和其他国家的	-14438
在全球范围内	-14439
很长一段时间	-14440
收紧货币政策	-14441
特别是考虑到	-14442
艾滋病规划署	-14443
Michael	-14444
Richard	-14445
公开市场委员会	-14446
itiative	-14447
vestment	-14448
▁Krugman	-14449
▁在这样的环境下	-14450
叙利亚总统巴沙尔	-14451
马斯特里赫特条约	-14452
联合国秘书长潘基文	-14453
59	-14454
:“	-14455
Ab	-14456
CR	-14457
IA	-14458
IR	-14459
PR	-14460
hm	-14461
ji	-14462
ug	-14463
▁乍	-14464
▁会	-14465
▁哈	-14466
▁波	-14467
▁重	-14468
▁金	-14469
一人	-14470
一千	-14471
七年	-14472
三项	-14473
上空	-14474
不丹	-14475
不开	-14476
不然	-14477
不高	-14478
丢掉	-14479
两可	-14480
之事	-14481
之梦	-14482
事后	-14483
五国	-14484
五月	-14485
交叉	-14486
人文	-14487
从业	-14488
但要	-14489
保全	-14490
倘若	-14491
充裕	-14492
克文	-14493
入门	-14494
公元	-14495
公益	-14496
共处	-14497
内向	-14498
出乎	-14499
分娩	-14500
初选	-14501
利和	-14502
制衣	-14503
功劳	-14504
加贝	-14505
助力	-14506
助理	-14507
化疗	-14508
十三	-14509
危地	-14510
原谅	-14511
取暖	-14512
可知	-14513
可达	-14514
合力	-14515
名的	-14516
向上	-14517
向着	-14518
告别	-14519
和为	-14520
和阿	-14521
回头	-14522
固有	-14523
在意	-14524
地狱	-14525
坐在	-14526
埃德	-14527
基辅	-14528
塔吉	-14529
外人	-14530
多拉	-14531
大惊	-14532
大片	-14533
大跌	-14534
失利	-14535
失踪	-14536
夺取	-14537
奋力	-14538
奖学	-14539
姐妹	-14540
孟买	-14541
学前	-14542
定于	-14543
密度	-14544
少年	-14545
屈辱	-14546
届时	-14547
已将	-14548
年至	-14549
并于	-14550
弥漫	-14551
弹药	-14552
当我	-14553
恶魔	-14554
惟其	-14555
惨遭	-14556
惯例	-14557
感知	-14558
慢慢	-14559
成因	-14560
或在	-14561
户口	-14562
所占	-14563
所料	-14564
打折	-14565
抵触	-14566
措辞	-14567
摇身	-14568
收场	-14569
放慢	-14570
教益	-14571
文字	-14572
新来	-14573
无尽	-14574
无权	-14575
日在	-14576
更换	-14577
曼努	-14578
有余	-14579
服从	-14580
未被	-14581
条路	-14582
板上	-14583
构造	-14584
某位	-14585
案中	-14586
水源	-14587
法郎	-14588
活着	-14589
流产	-14590
涉嫌	-14591
渔民	-14592
滋生	-14593
灭亡	-14594
灵魂	-14595
牢牢	-14596
牵头	-14597
特兰	-14598
玉米	-14599
电站	-14600
监察	-14601
相差	-14602
石头	-14603
祖母	-14604
秉承	-14605
税法	-14606
穆兄	-14607
突显	-14608
立陶	-14609
等量	-14610
算计	-14611
类别	-14612
约合	-14613
线索	-14614
绝无	-14615
而无	-14616
联手	-14617
腾讯	-14618
自卫	-14619
自问	-14620
航班	-14621
苏里	-14622
菲特	-14623
虔诚	-14624
表述	-14625
裙带	-14626
西奥	-14627
要低	-14628
要多	-14629
课税	-14630
调低	-14631
资深	-14632
越长	-14633
趋于	-14634
追寻	-14635
适宜	-14636
遵从	-14637
邦联	-14638
都已	-14639
错过	-14640
雅图	-14641
风潮	-14642
驻军	-14643
,10	-14644
0.4	-14645
0.7	-14646
550	-14647
Moh	-14648
Nex	-14649
Pro	-14650
ace	-14651
iew	-14652
itz	-14653
ler	-14654
rew	-14655
▁Ad	-14656
▁Bo	-14657
▁Go	-14658
▁中共	-14659
▁但有	-14660
▁债务	-14661
▁加州	-14662
▁可见	-14663
▁并在	-14664
▁成为	-14665
▁截至	-14666
▁提供	-14667
▁更糟	-14668
▁朝鲜	-14669
▁环境	-14670
▁直接	-14671
▁私人	-14672
▁面临	-14673
一个月	-14674
下一任	-14675
不包括	-14676
与印度	-14677
世纪末	-14678
之一的	-14679
也不应	-14680
也变得	-14681
也处于	-14682
也未能	-14683
享受着	-14684
从一个	-14685
从而为	-14686
从而在	-14687
他本人	-14688
以何种	-14689
价值和	-14690
任期内	-14691
会引发	-14692
但是它	-14693
但许多	-14694
低技能	-14695
低效率	-14696
作斗争	-14697
使我们	-14698
保护的	-14699
倡导者	-14700
做准备	-14701
免不了	-14702
军队和	-14703
出一辙	-14704
出生于	-14705
刘晓波	-14706
制度化	-14707
制约了	-14708
动荡的	-14709
北约的	-14710
十亿人	-14711
协议中	-14712
占到了	-14713
卡梅隆	-14714
发电量	-14715
发病率	-14716
另一位	-14717
可预防	-14718
向外界	-14719
和利率	-14720
和媒体	-14721
和法律	-14722
和贫困	-14723
和贷款	-14724
和越南	-14725
和风险	-14726
国家对	-14727
圣保罗	-14728
在纽约	-14729
地下水	-14730
增强了	-14731
复杂化	-14732
大会上	-14733
大问题	-14734
失业者	-14735
奖学金	-14736
妨碍了	-14737
学生的	-14738
宣布将	-14739
富裕的	-14740
对整个	-14741
对日本	-14742
对许多	-14743
将变得	-14744
尼古拉	-14745
展示了	-14746
市盈率	-14747
并接受	-14748
当今的	-14749
当我们	-14750
当然是	-14751
徘徊在	-14752
必须从	-14753
必须有	-14754
总统和	-14755
总统在	-14756
所在地	-14757
所引发	-14758
所经历	-14759
执政者	-14760
扩展到	-14761
把它们	-14762
指出了	-14763
据估计	-14764
控制在	-14765
摇身一	-14766
攻击的	-14767
政府与	-14768
新古典	-14769
无休止	-14770
明确地	-14771
是所有	-14772
更强大	-14773
更高效	-14774
月开始	-14775
本人的	-14776
本可以	-14777
本身就	-14778
条道路	-14779
来处理	-14780
来支付	-14781
栖息地	-14782
正在被	-14783
死亡和	-14784
民众对	-14785
水平上	-14786
沉重的	-14787
泛欧洲	-14788
漫长而	-14789
狭隘的	-14790
现在是	-14791
百万人	-14792
的一点	-14793
的另一	-14794
的可靠	-14795
的困境	-14796
的大头	-14797
的姿态	-14798
的定义	-14799
的年轻	-14800
的知识	-14801
的精神	-14802
的群众	-14803
的警告	-14804
的评论	-14805
的部门	-14806
相适应	-14807
瞩目的	-14808
种族和	-14809
称得上	-14810
穆加贝	-14811
立陶宛	-14812
竞争和	-14813
第一批	-14814
第三次	-14815
第三种	-14816
系统和	-14817
约束力	-14818
纯粹的	-14819
缓慢的	-14820
罗德里	-14821
美国前	-14822
而其他	-14823
而导致	-14824
能说明	-14825
自由党	-14826
自视为	-14827
行动者	-14828
补贴和	-14829
让市场	-14830
记者的	-14831
证明其	-14832
识别区	-14833
试图在	-14834
诸如此	-14835
财富和	-14836
资本家	-14837
资本金	-14838
转型的	-14839
辩论中	-14840
这一次	-14841
这么多	-14842
进步的	-14843
适应性	-14844
选民的	-14845
都有所	-14846
陆克文	-14847
非金融	-14848
预料到	-14849
马里奥	-14850
高增长	-14851
高效的	-14852
鼓励了	-14853
1971	-14854
1984	-14855
2.5%	-14856
2040	-14857
Alan	-14858
▁Dem	-14859
▁Mon	-14860
▁New	-14861
▁主要是	-14862
▁伊斯兰	-14863
▁但日本	-14864
▁但虽然	-14865
▁卢旺达	-14866
▁在去年	-14867
▁在欧盟	-14868
▁尽管在	-14869
▁尽管有	-14870
▁很显然	-14871
▁真正的	-14872
▁英国的	-14873
▁这一切	-14874
不会因为	-14875
两个国家	-14876
为所有人	-14877
乌克兰人	-14878
也是一样	-14879
人口数量	-14880
人民币的	-14881
从而降低	-14882
以及欧洲	-14883
但却没有	-14884
借款人的	-14885
入主白宫	-14886
全民公投	-14887
全球失衡	-14888
公共健康	-14889
其中许多	-14890
其他问题	-14891
农业部门	-14892
制药企业	-14893
刺激措施	-14894
十分有限	-14895
十字路口	-14896
南欧国家	-14897
博科圣地	-14898
卡斯特罗	-14899
危地马拉	-14900
即使是在	-14901
历史记录	-14902
反对意见	-14903
变成现实	-14904
只能通过	-14905
可以避免	-14906
可能最终	-14907
和民主党	-14908
和菲律宾	-14909
因为没有	-14910
国防开支	-14911
国际储备	-14912
土耳其人	-14913
在该地区	-14914
基础上的	-14915
增加支出	-14916
增长引擎	-14917
外汇市场	-14918
外部冲击	-14919
女权主义	-14920
如出一辙	-14921
将会继续	-14922
就是这样	-14923
已经非常	-14924
市场失灵	-14925
希望通过	-14926
帮助他们	-14927
帮助我们	-14928
平均每年	-14929
平衡预算	-14930
并不存在	-14931
应该获得	-14932
思维方式	-14933
惟其如此	-14934
或许可以	-14935
抗氧化剂	-14936
政府政策	-14937
政治改革	-14938
政治精英	-14939
新闻媒体	-14940
方方面面	-14941
显著下降	-14942
更加困难	-14943
更加容易	-14944
更是如此	-14945
最近指出	-14946
月举行的	-14947
根本原因	-14948
正在考虑	-14949
正是如此	-14950
民主政体	-14951
消费增长	-14952
清算银行	-14953
漠不关心	-14954
生产力的	-14955
生产成本	-14956
由联合国	-14957
的合法性	-14958
的时间里	-14959
皮诺切特	-14960
监管者的	-14961
相形见绌	-14962
研发支出	-14963
确实如此	-14964
私营企业	-14965
纽约时报	-14966
经济合作	-14967
继续存在	-14968
网络安全	-14969
耐药性的	-14970
自由裁量	-14971
自相矛盾	-14972
自给自足	-14973
花旗集团	-14974
血红蛋白	-14975
表面上看	-14976
要求银行	-14977
证据显示	-14978
该委员会	-14979
货币供应	-14980
达赖喇嘛	-14981
这一转变	-14982
这些企业	-14983
这种做法	-14984
通信技术	-14985
那么我们	-14986
都集中在	-14987
重大变化	-14988
重大进展	-14989
重新设计	-14990
金砖四国	-14991
金融资产	-14992
难以为继	-14993
领导力的	-14994
Larry	-14995
andMe	-14996
—2007	-14997
—2010	-14998
—2012	-14999
▁中国已经	-15000
▁为了实现	-15001
▁为了确保	-15002
▁从长期看	-15003
▁但事实上	-15004
▁你也许会	-15005
▁发自北京	-15006
▁如果政府	-15007
▁尽管中国	-15008
▁尽管美国	-15009
▁新兴市场	-15010
▁根据这一	-15011
▁英国退出	-15012
▁这反过来	-15013
▁这种做法	-15014
▁金融危机	-15015
世界最大的	-15016
中国和南非	-15017
人民共和国	-15018
伊斯兰革命	-15019
低收入家庭	-15020
克里斯蒂娜	-15021
反映了一个	-15022
在巴基斯坦	-15023
多大程度上	-15024
婴儿潮一代	-15025
对经济增长	-15026
已经失去了	-15027
已经实现了	-15028
快速增长的	-15029
戈尔巴乔夫	-15030
拥有巨大的	-15031
来说是一个	-15032
的一小部分	-15033
的关键要素	-15034
的发展趋势	-15035
的国家利益	-15036
的工作岗位	-15037
的速度增长	-15038
私人和公共	-15039
这样的政策	-15040
金融机构的	-15041
长足的进步	-15042
阿萨德政权	-15043
鲁纳恰尔邦	-15044
▁对美国来说	-15045
中等收入陷阱	-15046
令人印象深刻	-15047
全球经济危机	-15048
全球经济增长	-15049
原教旨主义者	-15050
在过去十年中	-15051
数十亿美元的	-15052
经济增长放缓	-15053
美国外交政策	-15054
自由世界秩序	-15055
诺贝尔奖得主	-15056
长期以来一直	-15057
merican	-15058
宽松的货币政策	-15059
第一次世界大战	-15060
许多发展中国家	-15061
▁Bernanke	-15062
联合国可持续发展目标	-15063
46	-15064
85	-15065
88	-15066
BS	-15067
FA	-15068
Fr	-15069
Un	-15070
VI	-15071
ly	-15072
▁―	-15073
▁使	-15074
▁小	-15075
一丝	-15076
一去	-15077
一时	-15078
下而	-15079
不尽	-15080
不让	-15081
不讳	-15082
不远	-15083
专政	-15084
乌拉	-15085
乙醇	-15086
也没	-15087
争吵	-15088
互利	-15089
交接	-15090
亲信	-15091
以求	-15092
任意	-15093
伦齐	-15094
低点	-15095
何况	-15096
例证	-15097
侨民	-15098
侵袭	-15099
做过	-15100
先前	-15101
先生	-15102
全胜	-15103
全额	-15104
其时	-15105
冲销	-15106
刊登	-15107
创出	-15108
刹车	-15109
前线	-15110
割裂	-15111
加盟	-15112
加税	-15113
加重	-15114
厄立	-15115
厌倦	-15116
受审	-15117
可是	-15118
各级	-15119
同类	-15120
后悔	-15121
咄咄	-15122
回复	-15123
回调	-15124
回购	-15125
困局	-15126
国情	-15127
在各	-15128
地讲	-15129
坐等	-15130
坦白	-15131
塔伊	-15132
增添	-15133
外表	-15134
大到	-15135
大局	-15136
太低	-15137
好战	-15138
如下	-15139
婚礼	-15140
它就	-15141
安娜	-15142
定制	-15143
定性	-15144
就任	-15145
屏蔽	-15146
巴里	-15147
帕斯	-15148
干净	-15149
开会	-15150
开幕	-15151
开拓	-15152
引爆	-15153
弗吉	-15154
很强	-15155
德黑	-15156
息息	-15157
惊奇	-15158
惨痛	-15159
愤世	-15160
战事	-15161
所处	-15162
所致	-15163
手脚	-15164
执掌	-15165
扰乱	-15166
抉择	-15167
折合	-15168
抬高	-15169
拜登	-15170
挤出	-15171
接过	-15172
提取	-15173
援手	-15174
支箭	-15175
收成	-15176
政局	-15177
数月	-15178
文献	-15179
断然	-15180
断言	-15181
斯图	-15182
新近	-15183
无核	-15184
日后	-15185
时尚	-15186
是为	-15187
是的	-15188
暴乱	-15189
更不	-15190
最受	-15191
最少	-15192
最强	-15193
有何	-15194
来做	-15195
杰里	-15196
枪击	-15197
样子	-15198
核查	-15199
格林	-15200
梅尔	-15201
欣赏	-15202
欧派	-15203
正被	-15204
每位	-15205
民权	-15206
水的	-15207
汹涌	-15208
没收	-15209
洗钱	-15210
激情	-15211
热爱	-15212
牧师	-15213
物资	-15214
狂欢	-15215
玷污	-15216
瓦尔	-15217
生动	-15218
用在	-15219
畜牧	-15220
的电	-15221
硬件	-15222
示范	-15223
私利	-15224
私密	-15225
租金	-15226
积压	-15227
窃取	-15228
站稳	-15229
童婚	-15230
端的	-15231
精诚	-15232
素的	-15233
索契	-15234
给人	-15235
维度	-15236
罚金	-15237
美俄	-15238
美妙	-15239
翻译	-15240
者都	-15241
耶鲁	-15242
脚跟	-15243
脱颖	-15244
草根	-15245
蒸发	-15246
血管	-15247
行星	-15248
议案	-15249
诚信	-15250
赛尔	-15251
赤贫	-15252
走廊	-15253
起伏	-15254
越好	-15255
跟随	-15256
践踏	-15257
踌躇	-15258
辍学	-15259
还给	-15260
这股	-15261
都以	-15262
里达	-15263
钻井	-15264
销毁	-15265
防线	-15266
靠谱	-15267
面貌	-15268
顾及	-15269
颁发	-15270
领取	-15271
颓势	-15272
首当	-15273
马车	-15274
驳斥	-15275
高兴	-15276
魔鬼	-15277
鹰派	-15278
默默	-15279
,12	-15280
0.6	-15281
10.	-15282
12.	-15283
13%	-15284
2.2	-15285
ACA	-15286
amp	-15287
ats	-15288
eng	-15289
oci	-15290
red	-15291
ree	-15292
▁Di	-15293
▁两大	-15294
▁乔治	-15295
▁他是	-15296
▁使用	-15297
▁值得	-15298
▁决定	-15299
▁后者	-15300
▁在与	-15301
▁妇女	-15302
▁它是	-15303
▁实施	-15304
▁实际	-15305
▁影响	-15306
▁提高	-15307
▁政策	-15308
▁相对	-15309
▁石油	-15310
▁结束	-15311
▁继续	-15312
▁脱欧	-15313
▁自然	-15314
▁货币	-15315
▁遏制	-15316
▁难道	-15317
一季度	-15318
一直都	-15319
上升了	-15320
不会被	-15321
不完善	-15322
与日本	-15323
严峻的	-15324
中所占	-15325
之比从	-15326
也相当	-15327
了一条	-15328
了他的	-15329
了新的	-15330
仍没有	-15331
从目前	-15332
以时日	-15333
以满足	-15334
以维持	-15335
会得到	-15336
但仍然	-15337
但政府	-15338
保守的	-15339
保护和	-15340
光是在	-15341
全球的	-15342
其结果	-15343
再培训	-15344
军队的	-15345
决定要	-15346
准备着	-15347
几何时	-15348
出售给	-15349
出色的	-15350
制定出	-15351
动力的	-15352
医疗和	-15353
卫生和	-15354
历史中	-15355
又一场	-15356
双方的	-15357
另一次	-15358
可能要	-15359
可贸易	-15360
同事们	-15361
同意在	-15362
同样也	-15363
后两者	-15364
和一个	-15365
和改革	-15366
和西方	-15367
在一场	-15368
在上述	-15369
在解决	-15370
在议会	-15371
在选举	-15372
在面对	-15373
地宣称	-15374
地对待	-15375
城市和	-15376
大范围	-15377
学校和	-15378
它需要	-15379
实质上	-15380
密苏里	-15381
对上述	-15382
对国内	-15383
对所有	-15384
对民主	-15385
将不再	-15386
将得到	-15387
就业的	-15388
就足以	-15389
尽管它	-15390
尽管有	-15391
屈服于	-15392
岁以上	-15393
席之地	-15394
并减少	-15395
开支的	-15396
彻底的	-15397
德黑兰	-15398
必需品	-15399
恰当的	-15400
想象力	-15401
战后的	-15402
战略上	-15403
所处的	-15404
手段的	-15405
批准的	-15406
承受着	-15407
拖累了	-15408
拿不出	-15409
指挥官	-15410
排除了	-15411
政治局	-15412
斗争中	-15413
新时代	-15414
是一名	-15415
是政府	-15416
有三个	-15417
朋友和	-15418
机构中	-15419
条件的	-15420
来形容	-15421
来防止	-15422
来阻止	-15423
欧元和	-15424
欧洲将	-15425
正处在	-15426
永远是	-15427
治理的	-15428
波斯湾	-15429
消费和	-15430
消除了	-15431
爆发时	-15432
由政府	-15433
的不良	-15434
的双重	-15435
的困扰	-15436
的媒体	-15437
的孩子	-15438
的巨额	-15439
的巴西	-15440
的年均	-15441
的强大	-15442
的文章	-15443
的概率	-15444
的现代	-15445
的第二	-15446
的联合	-15447
的苦难	-15448
的迅速	-15449
的高速	-15450
相当大	-15451
着重于	-15452
米歇尔	-15453
给予了	-15454
给人们	-15455
背负着	-15456
能够从	-15457
至今仍	-15458
苏联的	-15459
被推翻	-15460
袭击了	-15461
观察员	-15462
让许多	-15463
该机构	-15464
该行业	-15465
贫困率	-15466
超导体	-15467
路易斯	-15468
较小的	-15469
过高的	-15470
还不是	-15471
远不止	-15472
远大于	-15473
遭遇了	-15474
都希望	-15475
采用的	-15476
陌生人	-15477
限度的	-15478
陷入到	-15479
需要为	-15480
需要有	-15481
高水平	-15482
1914	-15483
1986	-15484
8000	-15485
uman	-15486
work	-15487
▁他指出	-15488
▁但没有	-15489
▁反过来	-15490
▁因此当	-15491
▁意味着	-15492
▁最大的	-15493
▁美国对	-15494
一个拥有	-15495
三十年来	-15496
不公平的	-15497
不断恶化	-15498
世界正在	-15499
东乌克兰	-15500
两国政府	-15501
个体国家	-15502
中国应该	-15503
中国当局	-15504
主义者的	-15505
也得到了	-15506
二战以来	-15507
产生影响	-15508
人口增长	-15509
价格波动	-15510
任何地方	-15511
但他们的	-15512
但它们的	-15513
候选人的	-15514
做得更好	-15515
储蓄短缺	-15516
公众舆论	-15517
关系密切	-15518
关键时刻	-15519
冷战时期	-15520
刚果民主	-15521
创业企业	-15522
制造企业	-15523
劳动者的	-15524
危机中的	-15525
双管齐下	-15526
发展日程	-15527
受过良好	-15528
可以接受	-15529
可以选择	-15530
可能因为	-15531
可能引起	-15532
可能影响	-15533
吸取教训	-15534
和中国的	-15535
和共和党	-15536
和突尼斯	-15537
因为中国	-15538
土地使用	-15539
土耳其的	-15540
在历史上	-15541
在欧洲的	-15542
基本上是	-15543
增长目标	-15544
多哈回合	-15545
如果中国	-15546
宪法法院	-15547
对欧元区	-15548
对欧洲的	-15549
导致他们	-15550
将会导致	-15551
尽可能地	-15552
工作阶级	-15553
已经结束	-15554
市场上的	-15555
市场波动	-15556
干预措施	-15557
并非所有	-15558
应该包括	-15559
弗吉尼亚	-15560
很多国家	-15561
得以实现	-15562
总体经济	-15563
总收入的	-15564
悲哀的是	-15565
感到十分	-15566
成为一种	-15567
成为中国	-15568
我们如何	-15569
所有问题	-15570
持续增长	-15571
改革措施	-15572
政治学家	-15573
整个社会	-15574
整体经济	-15575
无法避免	-15576
日常生活	-15577
明日黄花	-15578
暂时性的	-15579
更严重的	-15580
更加紧密	-15581
最强大的	-15582
有核国家	-15583
欧洲必须	-15584
正在努力	-15585
正在寻求	-15586
正确方向	-15587
毁灭性的	-15588
每个人都	-15589
特别关注	-15590
现在开始	-15591
生产率和	-15592
的不平衡	-15593
的挑战是	-15594
的继任者	-15595
短时间内	-15596
积极参与	-15597
移民危机	-15598
税收优惠	-15599
管理不善	-15600
粮食生产	-15601
紧急状态	-15602
美国必须	-15603
翻了一番	-15604
苦苦挣扎	-15605
萨尔瓦多	-15606
虚假信息	-15607
融资成本	-15608
要求我们	-15609
认为他们	-15610
许多地方	-15611
诸如此类	-15612
调查结果	-15613
调查表明	-15614
贬值压力	-15615
资金支持	-15616
超过美国	-15617
边际税率	-15618
这一政策	-15619
这一现象	-15620
这样才能	-15621
这种现象	-15622
进口商品	-15623
进行评估	-15624
远远大于	-15625
金融包容	-15626
金融抑制	-15627
陷入瘫痪	-15628
陷入麻烦	-15629
集中精力	-15630
需要解决	-15631
非法移民	-15632
领土争端	-15633
食品安全	-15634
,2009	-15635
overn	-15636
uncil	-15637
ution	-15638
▁1998	-15639
▁他们指出	-15640
▁但美联储	-15641
▁如果不是	-15642
▁如果这些	-15643
▁拉丁美洲	-15644
▁既然如此	-15645
▁更糟的是	-15646
▁此外还有	-15647
▁美国国会	-15648
▁非洲国家	-15649
世界银行和	-15650
主要集中在	-15651
之间的差异	-15652
债券持有人	-15653
卫生工作者	-15654
厄立特里亚	-15655
发生的事情	-15656
周年纪念日	-15657
和金融稳定	-15658
实体经济的	-15659
总理李克强	-15660
成立了一个	-15661
所有国家都	-15662
提供足够的	-15663
改变反射率	-15664
日益增长的	-15665
欧洲委员会	-15666
气候变化和	-15667
的一个主要	-15668
的关键因素	-15669
的政治制度	-15670
的民主国家	-15671
的生活方式	-15672
的生活水平	-15673
的经济利益	-15674
的经济改革	-15675
的经济状况	-15676
真相委员会	-15677
约旦河西岸	-15678
经济基本面	-15679
结构性问题	-15680
这样的观点	-15681
▁Group	-15682
▁Progr	-15683
▁Secur	-15684
▁Union	-15685
中等收入国家	-15686
全要素生产率	-15687
凯恩斯主义者	-15688
太阳能和风能	-15689
恐怖主义威胁	-15690
所表明的那样	-15691
抗生素耐药性	-15692
法国和意大利	-15693
生产率的提高	-15694
说明了这一点	-15695
世界其他地区的	-15696
形成了鲜明对比	-15697
还有很长的路要走	-15698
诺贝尔经济学奖获得者	-15699
,2	-15700
2—	-15701
6,	-15702
67	-15703
JP	-15704
US	-15705
br	-15706
eg	-15707
ue	-15708
▁假	-15709
▁尼	-15710
▁德	-15711
▁老	-15712
▁跟	-15713
一堂	-15714
一月	-15715
一篇	-15716
一辆	-15717
上层	-15718
下达	-15719
两院	-15720
严苛	-15721
个新	-15722
中曾	-15723
乱局	-15724
亲自	-15725
人手	-15726
亿多	-15727
他和	-15728
会从	-15729
传说	-15730
传输	-15731
你会	-15732
供电	-15733
保密	-15734
偏爱	-15735
像我	-15736
儒家	-15737
克逊	-15738
公信	-15739
兴建	-15740
其次	-15741
写作	-15742
冬天	-15743
决赛	-15744
况愈	-15745
几种	-15746
分解	-15747
删除	-15748
判处	-15749
判定	-15750
剂量	-15751
助益	-15752
勒索	-15753
勾勒	-15754
卖淫	-15755
卖给	-15756
原产	-15757
反感	-15758
发育	-15759
古柯	-15760
合规	-15761
同道	-15762
听说	-15763
周末	-15764
和与	-15765
回落	-15766
国与	-15767
地铁	-15768
多余	-15769
大增	-15770
大火	-15771
天下	-15772
天生	-15773
太空	-15774
夺回	-15775
奋起	-15776
学界	-15777
审理	-15778
宫颈	-15779
宿命	-15780
寄生	-15781
富于	-15782
察觉	-15783
将能	-15784
尼拉	-15785
居然	-15786
工艺	-15787
左倾	-15788
巨人	-15789
已达	-15790
帕拉	-15791
年为	-15792
年占	-15793
年青	-15794
并用	-15795
幸免	-15796
幼稚	-15797
底线	-15798
延期	-15799
弱化	-15800
得一	-15801
德华	-15802
德罗	-15803
悄然	-15804
房地	-15805
所受	-15806
手让	-15807
扫地	-15808
投降	-15809
护照	-15810
担负	-15811
拉德	-15812
捉摸	-15813
捷径	-15814
排外	-15815
推论	-15816
摒弃	-15817
攸关	-15818
敌视	-15819
散播	-15820
数目	-15821
无几	-15822
早先	-15823
是谁	-15824
替换	-15825
末期	-15826
机的	-15827
极易	-15828
校长	-15829
格斯	-15830
格格	-15831
检讨	-15832
欲望	-15833
此事	-15834
毒贩	-15835
永恒	-15836
求助	-15837
洛克	-15838
洛舍	-15839
津贴	-15840
消防	-15841
深渊	-15842
湄公	-15843
热潮	-15844
版权	-15845
特质	-15846
狭窄	-15847
猛增	-15848
环球	-15849
由其	-15850
界的	-15851
番话	-15852
病态	-15853
痕迹	-15854
的本	-15855
直指	-15856
看齐	-15857
着力	-15858
破碎	-15859
碳税	-15860
禁忌	-15861
端倪	-15862
篇章	-15863
纠缠	-15864
纳斯	-15865
纳森	-15866
纵观	-15867
线路	-15868
维基	-15869
老师	-15870
老虎	-15871
而将	-15872
耕地	-15873
肩负	-15874
胃口	-15875
胜选	-15876
腰包	-15877
致歉	-15878
茶党	-15879
萨里	-15880
蒙古	-15881
蒙蒂	-15882
被控	-15883
要务	-15884
要把	-15885
要靠	-15886
诱人	-15887
诱使	-15888
诱导	-15889
诺言	-15890
调解	-15891
费尔	-15892
赫蒂	-15893
走强	-15894
足轻	-15895
跃进	-15896
车道	-15897
转嫁	-15898
载体	-15899
过大	-15900
过少	-15901
这点	-15902
迪尔	-15903
邻邦	-15904
里尼	-15905
防火	-15906
附带	-15907
非凡	-15908
马蒂	-15909
高压	-15910
高薪	-15911
黄豆	-15912
-90	-15913
1/4	-15914
10—	-15915
110	-15916
190	-15917
2.3	-15918
3.2	-15919
3.6	-15920
3.8	-15921
ESG	-15922
MGI	-15923
att	-15924
bor	-15925
ola	-15926
ous	-15927
ste	-15928
·11	-15929
▁Ar	-15930
▁IP	-15931
▁Kh	-15932
▁上海	-15933
▁主流	-15934
▁在他	-15935
▁接受	-15936
▁没错	-15937
▁法律	-15938
▁消费	-15939
▁看看	-15940
▁真相	-15941
▁美中	-15942
▁而后	-15943
▁腐败	-15944
▁试图	-15945
▁谈判	-15946
▁选举	-15947
▁选择	-15948
▁那时	-15949
▁阻止	-15950
▁须知	-15951
万亿元	-15952
下一轮	-15953
不会在	-15954
不会让	-15955
不但是	-15956
不如说	-15957
不完美	-15958
不容易	-15959
不至于	-15960
中国也	-15961
主导着	-15962
之不去	-15963
也受到	-15964
也只能	-15965
也成为	-15966
也更加	-15967
也没能	-15968
也缺乏	-15969
也难以	-15970
事务中	-15971
事实是	-15972
代表性	-15973
以中国	-15974
以使其	-15975
以促进	-15976
企业在	-15977
会因为	-15978
伯利恒	-15979
但最终	-15980
但欧洲	-15981
做生意	-15982
像过去	-15983
僵化的	-15984
入学率	-15985
公布了	-15986
关系中	-15987
兴奋剂	-15988
其全球	-15989
其本身	-15990
其长期	-15991
切莱特	-15992
利率和	-15993
副部长	-15994
区域内	-15995
十二月	-15996
原子弹	-15997
反映在	-15998
发现的	-15999
可信的	-16000
司法部	-16001
后一种	-16002
听证会	-16003
吸毒者	-16004
咄咄逼	-16005
和中亚	-16006
和信息	-16007
和失业	-16008
和平等	-16009
和暴力	-16010
和能力	-16011
和蔬菜	-16012
和许多	-16013
和非洲	-16014
商业化	-16015
回答说	-16016
团结的	-16017
国内部	-16018
土地和	-16019
在今后	-16020
在北京	-16021
在长期	-16022
地区内	-16023
地区和	-16024
培训和	-16025
塞罗那	-16026
多数人	-16027
大手笔	-16028
央行在	-16029
它们也	-16030
完整性	-16031
宜诺斯	-16032
实行了	-16033
宫颈癌	-16034
家庭和	-16035
寄生虫	-16036
对任何	-16037
对社会	-16038
对西方	-16039
导致其	-16040
将影响	-16041
小得多	-16042
就更加	-16043
尽管在	-16044
崭新的	-16045
州政府	-16046
工作组	-16047
工资和	-16048
左右的	-16049
左翼和	-16050
巩固其	-16051
已经让	-16052
市场中	-16053
年增长	-16054
年多德	-16055
并实施	-16056
并帮助	-16057
并推动	-16058
并提出	-16059
并支持	-16060
废除了	-16061
廉价的	-16062
开发商	-16063
开发的	-16064
开放和	-16065
归结为	-16066
志愿者	-16067
所受到	-16068
所拥有	-16069
打开了	-16070
承认的	-16071
抑制剂	-16072
投入品	-16073
指的是	-16074
接受过	-16075
提名人	-16076
摄氏度	-16077
支持其	-16078
收益的	-16079
放在了	-16080
放弃其	-16081
数量比	-16082
新生儿	-16083
是那些	-16084
最主要	-16085
最终被	-16086
有几个	-16087
有损于	-16088
有效性	-16089
有针对	-16090
来看待	-16091
框架内	-16092
此以后	-16093
残酷的	-16094
每况愈	-16095
汽车和	-16096
治疗和	-16097
泡沫的	-16098
海洋法	-16099
渐进式	-16100
爱德华	-16101
特拉维	-16102
生命的	-16103
的准备	-16104
的减少	-16105
的分裂	-16106
的大约	-16107
的官员	-16108
的快速	-16109
的改善	-16110
的普遍	-16111
的盟友	-16112
的职业	-16113
的评估	-16114
的通胀	-16115
的那个	-16116
盎格鲁	-16117
研究员	-16118
破产法	-16119
福克斯	-16120
种子和	-16121
突出的	-16122
等主要	-16123
等国的	-16124
签署国	-16125
米洛舍	-16126
粮食和	-16127
结合了	-16128
维生素	-16129
综合症	-16130
美国所	-16131
而且也	-16132
而遭受	-16133
艾利斯	-16134
被发现	-16135
计划将	-16136
认真地	-16137
让全球	-16138
设计出	-16139
证券化	-16140
诊断为	-16141
试图让	-16142
调查中	-16143
货币区	-16144
质量和	-16145
赞助者	-16146
身上的	-16147
近一半	-16148
进口品	-16149
选民对	-16150
逮捕令	-16151
道路上	-16152
那么就	-16153
部门和	-16154
金融城	-16155
销售额	-16156
问题在	-16157
需要以	-16158
青年军	-16159
预测到	-16160
驱动型	-16161
1900	-16162
1981	-16163
Cent	-16164
ited	-16165
reen	-16166
tive	-16167
▁Ass	-16168
▁世界上	-16169
▁互联网	-16170
▁但其实	-16171
▁其他人	-16172
▁历史上	-16173
▁在所有	-16174
▁奥朗德	-16175
▁它们是	-16176
▁斯坦福	-16177
▁李克强	-16178
▁波士顿	-16179
▁目前的	-16180
▁苏格兰	-16181
▁这也许	-16182
▁进一步	-16183
一个人的	-16184
一个关键	-16185
一直没有	-16186
下降到了	-16187
不仅没有	-16188
不可接受	-16189
世界最大	-16190
业务模式	-16191
严重损害	-16192
中国家庭	-16193
中美关系	-16194
为目标的	-16195
了他们的	-16196
了自己的	-16197
二战结束	-16198
五年计划	-16199
亚洲地区	-16200
人力资源	-16201
人类发展	-16202
仍有可能	-16203
他们是否	-16204
令人吃惊	-16205
伊曼纽尔	-16206
佛罗里达	-16207
保持不变	-16208
健康保险	-16209
公立学校	-16210
其他许多	-16211
养老基金	-16212
军事基地	-16213
决策者和	-16214
几个月中	-16215
几个月来	-16216
出于政治	-16217
创造性的	-16218
利用这一	-16219
动员起来	-16220
医疗费用	-16221
千禧一代	-16222
双边投资	-16223
发展政策	-16224
另外一种	-16225
可以确定	-16226
可以继续	-16227
可以降低	-16228
司法体系	-16229
各国之间	-16230
和伊斯兰	-16231
和决策者	-16232
和消费者	-16233
国内市场	-16234
在意大利	-16235
地方官员	-16236
城市居民	-16237
大获全胜	-16238
宗教信仰	-16239
实施制裁	-16240
容易得多	-16241
对欧盟的	-16242
工薪阶层	-16243
工资水平	-16244
已经达到	-16245
带来好处	-16246
年下半年	-16247
年代开始	-16248
并不只是	-16249
开放市场	-16250
必须包括	-16251
快速发展	-16252
性别差距	-16253
恐怖份子	-16254
意大利人	-16255
意想不到	-16256
我们发现	-16257
我们这些	-16258
所急需的	-16259
投资增长	-16260
挥之不去	-16261
改革方案	-16262
政府干预	-16263
效率低下	-16264
整个经济	-16265
方面起着	-16266
无一例外	-16267
无法容忍	-16268
日本首相	-16269
是欧元区	-16270
显著增加	-16271
更严格的	-16272
最著名的	-16273
最近一次	-16274
有所改善	-16275
有朝一日	-16276
有这样的	-16277
核反应堆	-16278
格格不入	-16279
正在崛起	-16280
此外还有	-16281
武装分子	-16282
武装部队	-16283
残障人士	-16284
气候变暖	-16285
汇率贬值	-16286
没人知道	-16287
油价下跌	-16288
法律框架	-16289
海湾国家	-16290
特别是当	-16291
独裁统治	-16292
现在正在	-16293
由来已久	-16294
的一点是	-16295
的事实是	-16296
的例子是	-16297
盈利能力	-16298
研究显示	-16299
科技公司	-16300
税收减免	-16301
空气和水	-16302
粮农组织	-16303
粮食产量	-16304
精诚合作	-16305
纳税人的	-16306
经济状况	-16307
维和部队	-16308
美国公民	-16309
美国国家	-16310
美国官员	-16311
美国宪法	-16312
而这正是	-16313
能够提供	-16314
脱欧公投	-16315
脱颖而出	-16316
至今仍在	-16317
要大得多	-16318
要求所有	-16319
观点认为	-16320
解决方法	-16321
证据证明	-16322
货币紧缩	-16323
贷款人的	-16324
资产管理	-16325
过度诊断	-16326
过早死亡	-16327
还有助于	-16328
这些东西	-16329
这些技术	-16330
这些机构	-16331
这项工作	-16332
进入市场	-16333
远远超出	-16334
连锁反应	-16335
道德风险	-16336
遥不可及	-16337
都不可能	-16338
金融风险	-16339
银行服务	-16340
阿卜杜拉	-16341
预算平衡	-16342
骇人听闻	-16343
,2004	-16344
Peter	-16345
onald	-16346
ordon	-16347
—2013	-16348
▁1979	-16349
▁2018	-16350
▁Sand	-16351
▁世界各国	-16352
▁如果欧盟	-16353
▁它们可以	-16354
▁想象一下	-16355
▁法国总统	-16356
▁目前为止	-16357
▁美国经济	-16358
世界范围内	-16359
东盟成员国	-16360
中国决策者	-16361
中国和其他	-16362
伊朗核计划	-16363
保护主义的	-16364
入侵伊拉克	-16365
其中一部分	-16366
前所未有地	-16367
原子能机构	-16368
取得了一些	-16369
受过教育的	-16370
可以也应该	-16371
可支配收入	-16372
在一夜之间	-16373
对中国来说	-16374
对全球经济	-16375
已经认识到	-16376
并不仅仅是	-16377
形成了一个	-16378
拥有核武器	-16379
持怀疑态度	-16380
提供更多的	-16381
是因为他们	-16382
欧元区内部	-16383
欧洲人民党	-16384
的国家安全	-16385
的地缘政治	-16386
的经济模式	-16387
的自由流动	-16388
米洛舍维奇	-16389
经济危机的	-16390
经济的增长	-16391
美国和日本	-16392
英国和欧盟	-16393
表现出来的	-16394
货币联盟的	-16395
越来越难以	-16396
这个问题上	-16397
这些问题的	-16398
部分原因是	-16399
防空识别区	-16400
马萨诸塞州	-16401
高加索地区	-16402
Marine	-16403
enneth	-16404
▁World	-16405
▁即将到来的	-16406
▁发自纽黑文	-16407
▁在许多国家	-16408
▁沙特阿拉伯	-16409
▁这就是为何	-16410
万事达基金会	-16411
乌兹别克斯坦	-16412
今年早些时候	-16413
以前所未有的	-16414
大部分时间里	-16415
宜诺斯艾利斯	-16416
德国和意大利	-16417
是至关重要的	-16418
欧盟成员国的	-16419
气候变化影响	-16420
经济学家认为	-16421
美国总统大选	-16422
美国财政部长	-16423
风能和太阳能	-16424
首席经济学家	-16425
外交和安全政策	-16426
金融稳定委员会	-16427
inancial	-16428
联合国教科文组织	-16429
撒哈拉以南非洲地区	-16430
▁Initiative	-16431
76	-16432
98	-16433
DB	-16434
DV	-16435
Is	-16436
PN	-16437
ki	-16438
tw	-16439
▁l	-16440
▁低	-16441
▁加	-16442
▁国	-16443
▁想	-16444
▁月	-16445
一刀	-16446
一生	-16447
上扬	-16448
上看	-16449
上都	-16450
下游	-16451
下面	-16452
世人	-16453
世的	-16454
两派	-16455
中对	-16456
丰裕	-16457
主角	-16458
之父	-16459
乌德	-16460
乘客	-16461
也令	-16462
争辩	-16463
互补	-16464
五十	-16465
交战	-16466
仍比	-16467
他国	-16468
代码	-16469
令我	-16470
以巴	-16471
伊尔	-16472
优于	-16473
传感	-16474
偏差	-16475
偏袒	-16476
克提	-16477
公关	-16478
公用	-16479
其为	-16480
其冲	-16481
兼顾	-16482
内幕	-16483
内涵	-16484
军国	-16485
决意	-16486
几率	-16487
分红	-16488
则将	-16489
利安	-16490
制订	-16491
前后	-16492
化身	-16493
单靠	-16494
博士	-16495
占有	-16496
却又	-16497
双赢	-16498
发掘	-16499
变幻	-16500
口头	-16501
叶刀	-16502
各斯	-16503
同声	-16504
后尘	-16505
告诫	-16506
和梅	-16507
回家	-16508
国和	-16509
国境	-16510
土著	-16511
圣经	-16512
在某	-16513
地向	-16514
地被	-16515
域内	-16516
外衣	-16517
大佬	-16518
失落	-16519
委任	-16520
媒介	-16521
存亡	-16522
家务	-16523
寄望	-16524
尖阁	-16525
尼奥	-16526
尾声	-16527
布兰	-16528
广为	-16529
庆典	-16530
康弘	-16531
得势	-16532
得票	-16533
心里	-16534
忏悔	-16535
忡忡	-16536
怀有	-16537
急迫	-16538
总会	-16539
总比	-16540
恰逢	-16541
截了	-16542
手下	-16543
扶持	-16544
抹黑	-16545
拟议	-16546
摊子	-16547
撤回	-16548
支点	-16549
收效	-16550
改写	-16551
改观	-16552
敏锐	-16553
施以	-16554
旗号	-16555
时点	-16556
是用	-16557
月和	-16558
期货	-16559
权和	-16560
杰出	-16561
构架	-16562
某项	-16563
欣喜	-16564
欣慰	-16565
死的	-16566
毁于	-16567
毁坏	-16568
每桶	-16569
水果	-16570
汉堡	-16571
沃夫	-16572
油气	-16573
洁净	-16574
流传	-16575
漫画	-16576
烟民	-16577
爱好	-16578
现成	-16579
珊瑚	-16580
甚少	-16581
用地	-16582
监会	-16583
知晓	-16584
种群	-16585
科菲	-16586
称作	-16587
空前	-16588
穿过	-16589
类比	-16590
紧紧	-16591
约占	-16592
细致	-16593
职员	-16594
肺炎	-16595
能与	-16596
脑后	-16597
腐蚀	-16598
自负	-16599
致裂	-16600
舞弊	-16601
英美	-16602
蓄水	-16603
蕴藏	-16604
虚伪	-16605
见效	-16606
观的	-16607
觉醒	-16608
计的	-16609
诠释	-16610
请愿	-16611
课以	-16612
谁能	-16613
谅解	-16614
谣言	-16615
貌似	-16616
贱民	-16617
贴上	-16618
走在	-16619
踏步	-16620
较之	-16621
迪瓦	-16622
通行	-16623
遗余	-16624
遗址	-16625
邻近	-16626
部件	-16627
都很	-16628
都曾	-16629
重叠	-16630
链条	-16631
锁定	-16632
长官	-16633
门垫	-16634
门户	-16635
阳光	-16636
随地	-16637
隐蔽	-16638
集会	-16639
雷克	-16640
非但	-16641
领地	-16642
飞速	-16643
高点	-16644
齐观	-16645
130	-16646
AAA	-16647
COP	-16648
ESM	-16649
act	-16650
cal	-16651
ide	-16652
lic	-16653
old	-16654
ory	-16655
pan	-16656
rey	-16657
ull	-16658
▁一次	-16659
▁不出	-16660
▁两个	-16661
▁什么	-16662
▁保持	-16663
▁只是	-16664
▁当年	-16665
▁更有	-16666
▁罗马	-16667
▁而其	-16668
▁这部	-16669
▁雅典	-16670
▁首尔	-16671
一个在	-16672
不公正	-16673
不只是	-16674
不必要	-16675
不论是	-16676
不透明	-16677
与合作	-16678
世界将	-16679
个月中	-16680
中国是	-16681
中国还	-16682
中美洲	-16683
为目的	-16684
也并非	-16685
也是最	-16686
也正是	-16687
也表明	-16688
了下来	-16689
了解到	-16690
五年的	-16691
亚洲人	-16692
人人都	-16693
人口和	-16694
他自己	-16695
以改善	-16696
价格和	-16697
会削弱	-16698
会如此	-16699
伦理学	-16700
但也有	-16701
例子是	-16702
做的事	-16703
儿童和	-16704
其国际	-16705
具备了	-16706
农民工	-16707
决定着	-16708
净出口	-16709
几乎不	-16710
出台了	-16711
出版的	-16712
分化的	-16713
包括对	-16714
区域性	-16715
十年里	-16716
即便在	-16717
反倾销	-16718
发达的	-16719
只能让	-16720
可以对	-16721
同时在	-16722
吸引着	-16723
和交易	-16724
和大量	-16725
和现实	-16726
和税收	-16727
和自我	-16728
在全国	-16729
在巴黎	-16730
在面临	-16731
地支持	-16732
基础是	-16733
多米诺	-16734
大爆发	-16735
如是说	-16736
它可能	-16737
对中东	-16738
对他的	-16739
对印度	-16740
将下降	-16741
将他们	-16742
将出现	-16743
将利率	-16744
将增长	-16745
将拥有	-16746
尤科斯	-16747
屈从于	-16748
已故的	-16749
平均为	-16750
平均值	-16751
年以前	-16752
年长者	-16753
并实现	-16754
并强化	-16755
并避免	-16756
应该从	-16757
延长了	-16758
建国的	-16759
强加给	-16760
当地的	-16761
形势下	-16762
得出的	-16763
怀疑论	-16764
性取向	-16765
性措施	-16766
惩罚性	-16767
慷慨的	-16768
成长的	-16769
我们正	-16770
我们还	-16771
战争罪	-16772
所追求	-16773
承担着	-16774
投机性	-16775
持续到	-16776
捷克斯	-16777
接触到	-16778
推出的	-16779
推迟了	-16780
推高了	-16781
揭示了	-16782
政治中	-16783
政策上	-16784
政策中	-16785
数不清	-16786
断层线	-16787
斯特拉	-16788
新德里	-16789
新欧洲	-16790
无国界	-16791
时期内	-16792
昆德拉	-16793
昔日的	-16794
是一件	-16795
是当今	-16796
最优秀	-16797
有兴趣	-16798
有缺陷	-16799
来增加	-16800
来抵消	-16801
来换取	-16802
柳叶刀	-16803
树立了	-16804
核威慑	-16805
核威胁	-16806
根康弘	-16807
格拉斯	-16808
欧佩克	-16809
民调中	-16810
汽车业	-16811
法拉奇	-16812
泰米尔	-16813
混乱的	-16814
潘多拉	-16815
烂摊子	-16816
爆发前	-16817
犯下了	-16818
犯下的	-16819
状态的	-16820
瓦尔斯	-16821
甚至将	-16822
生活和	-16823
电气化	-16824
男性的	-16825
疫苗的	-16826
的一党	-16827
的一样	-16828
的主题	-16829
的事业	-16830
的人工	-16831
的伙伴	-16832
的内部	-16833
的农村	-16834
的印象	-16835
的名义	-16836
的名言	-16837
的呼声	-16838
的平衡	-16839
的年代	-16840
的强力	-16841
的强硬	-16842
的成果	-16843
的机遇	-16844
的条款	-16845
的正式	-16846
的武器	-16847
的消费	-16848
的渴望	-16849
的精英	-16850
的股份	-16851
的许多	-16852
直截了	-16853
相匹配	-16854
相当的	-16855
真实的	-16856
短暂的	-16857
研究了	-16858
离不开	-16859
积累了	-16860
穆兄会	-16861
等因素	-16862
等机构	-16863
算得上	-16864
纪念日	-16865
纳入到	-16866
给欧洲	-16867
美国或	-16868
而变得	-16869
而这又	-16870
而随着	-16871
背后是	-16872
荷兰和	-16873
蒙代尔	-16874
被告知	-16875
被指控	-16876
解释说	-16877
让政府	-16878
训练有	-16879
设备和	-16880
评论员	-16881
该问题	-16882
说到底	-16883
谈不上	-16884
象征性	-16885
资金流	-16886
起源于	-16887
输出国	-16888
迎来了	-16889
还要高	-16890
这并非	-16891
进行着	-16892
遏制了	-16893
都不愿	-16894
都柏林	-16895
阵营的	-16896
难民的	-16897
非营利	-16898
革命性	-16899
韩国人	-16900
领域是	-16901
高估了	-16902
高昂的	-16903
1.25	-16904
1.5%	-16905
1987	-16906
6.5%	-16907
Jeff	-16908
ject	-16909
ture	-16910
▁Pan	-16911
▁他们是	-16912
▁传统上	-16913
▁但也有	-16914
▁但也许	-16915
▁但那些	-16916
▁但问题	-16917
▁但除非	-16918
▁匈牙利	-16919
▁即便是	-16920
▁在亚洲	-16921
▁在非洲	-16922
▁如果他	-16923
▁对许多	-16924
▁政府的	-16925
▁日内瓦	-16926
▁更好的	-16927
▁比如在	-16928
▁甚至连	-16929
▁这一新	-16930
▁这两种	-16931
上述目标	-16932
下定决心	-16933
不仅在于	-16934
不断下降	-16935
不断升级	-16936
不断膨胀	-16937
不无道理	-16938
与发展党	-16939
专家小组	-16940
中国人的	-16941
中美两国	-16942
主席国的	-16943
举行选举	-16944
也可能会	-16945
亚投行的	-16946
人民币兑	-16947
从中受益	-16948
从未如此	-16949
从而实现	-16950
他们来说	-16951
他的政府	-16952
令人不快	-16953
体制改革	-16954
作为一种	-16955
作为全球	-16956
保护措施	-16957
保持一致	-16958
做出重大	-16959
全球卫生	-16960
全球安全	-16961
全球挑战	-16962
全球能源	-16963
其他部分	-16964
创业精神	-16965
利益冲突	-16966
削减开支	-16967
削减赤字	-16968
劳动力和	-16969
南部地区	-16970
历史上的	-16971
去年夏天	-16972
发展论坛	-16973
发达世界	-16974
可以产生	-16975
可以提高	-16976
可以根据	-16977
司法系统	-16978
各式各样	-16979
和互联网	-16980
和全球化	-16981
因为人们	-16982
国内投资	-16983
国际援助	-16984
国际标准	-16985
土耳其和	-16986
在乌克兰	-16987
在联合国	-16988
在过去的	-16989
大学教授	-16990
奠定基础	-16991
如何实现	-16992
媒体报道	-16993
存在一个	-16994
密切合作	-16995
密切相关	-16996
对外投资	-16997
导致美国	-16998
将他们的	-16999
已经通过	-17000
巴切莱特	-17001
市场竞争	-17002
帮助中国	-17003
年上半年	-17004
年代早期	-17005
年轻人在	-17006
强制性的	-17007
很多方面	-17008
德国总理	-17009
必须承认	-17010
必须改变	-17011
忧心忡忡	-17012
急剧下降	-17013
总有一天	-17014
悲剧性的	-17015
意义重大	-17016
所作出的	-17017
所获得的	-17018
投资不足	-17019
投资者们	-17020
报告指出	-17021
提供安全	-17022
撒瓦拉伊	-17023
改革开放	-17024
政权更迭	-17025
政治压力	-17026
数据收集	-17027
方面起到	-17028
早期阶段	-17029
旷日持久	-17030
更为重要	-17031
更加透明	-17032
更广大的	-17033
最高领袖	-17034
有所放缓	-17035
核心国家	-17036
框架公约	-17037
欧元集团	-17038
欧洲人的	-17039
正在走向	-17040
气候行动	-17041
没有哪个	-17042
治疗方法	-17043
深远影响	-17044
特拉维夫	-17045
犯罪行为	-17046
生物医学	-17047
的乌克兰	-17048
的互联网	-17049
的人认为	-17050
的国家中	-17051
的大萧条	-17052
的情况看	-17053
的有效性	-17054
相互关联	-17055
相对较低	-17056
研究结果	-17057
科特迪瓦	-17058
等量齐观	-17059
等领域的	-17060
终于开始	-17061
经济制度	-17062
经济部门	-17063
经济领域	-17064
统治地位	-17065
而是为了	-17066
联合声明	-17067
脆弱国家	-17068
至少部分	-17069
要求他们	-17070
规模经济	-17071
负担得起	-17072
货币体系	-17073
资金来源	-17074
赢得选举	-17075
赤字削减	-17076
赤裸裸地	-17077
走上街头	-17078
软实力的	-17079
达成一个	-17080
这一做法	-17081
这一风险	-17082
这些银行	-17083
这座城市	-17084
这种观点	-17085
进行投资	-17086
都是为了	-17087
金融交易	-17088
金融产品	-17089
银行监督	-17090
长期存在	-17091
长期来看	-17092
随时随地	-17093
需求下降	-17094
需要依赖	-17095
革命性的	-17096
领土完整	-17097
领导世界	-17098
风险溢价	-17099
首当其冲	-17100
,2005	-17101
Claud	-17102
earch	-17103
▁Fron	-17104
▁世界经济	-17105
▁中央银行	-17106
▁从根本上	-17107
▁在大多数	-17108
▁惟其如此	-17109
▁有人认为	-17110
▁这一政策	-17111
▁这一结果	-17112
▁这有助于	-17113
中国一直在	-17114
中欧和东欧	-17115
也同样重要	-17116
保守主义者	-17117
全球范围内	-17118
其他地区的	-17119
利益相关方	-17120
加入欧元区	-17121
占主导地位	-17122
发生的事件	-17123
和欧洲央行	-17124
国有企业和	-17125
埃博拉疫情	-17126
增长和就业	-17127
宏观经济学	-17128
平均增长率	-17129
并不是因为	-17130
应该认识到	-17131
我们不应该	-17132
我们所有人	-17133
效率低下的	-17134
新自由主义	-17135
有吸引力的	-17136
来自中国的	-17137
欧元区外围	-17138
欧洲和日本	-17139
毫无意义的	-17140
波特弗利卡	-17141
独一无二的	-17142
生产率提高	-17143
由此产生的	-17144
的最后一个	-17145
的研究人员	-17146
的社会主义	-17147
的社会福利	-17148
的美国总统	-17149
真正的问题	-17150
私营部门的	-17151
美国经济的	-17152
而与此同时	-17153
联合国难民	-17154
联邦政府的	-17155
董事会成员	-17156
财政政策的	-17157
还有待观察	-17158
这些经济体	-17159
进一步扩大	-17160
迫切需要的	-17161
重要的角色	-17162
问题的根源	-17163
马歇尔计划	-17164
高质量教育	-17165
Bernie	-17166
Donald	-17167
▁但与此同时	-17168
▁发自伯克利	-17169
▁对中国来说	-17170
▁美国和欧洲	-17171
▁越来越多的	-17172
中国和俄罗斯	-17173
使用化学武器	-17174
俄罗斯和中国	-17175
吉尔吉斯斯坦	-17176
大学经济学家	-17177
尼日尔三角洲	-17178
所带来的好处	-17179
所造成的影响	-17180
是不可避免的	-17181
正义与发展党	-17182
民粹主义政党	-17183
英国石油公司	-17184
非洲裔美国人	-17185
▁Change	-17186
▁今年早些时候	-17187
▁在这一背景下	-17188
公共和私人部门	-17189
诺贝尔奖获得者	-17190
资本账户自由化	-17191
在很大程度上取决于	-17192
欧洲央行行长德拉吉	-17193
▁Investment	-17194
政府间气候变化专门委员会	-17195
,8	-17196
..	-17197
51	-17198
63	-17199
64	-17200
CS	-17201
II	-17202
NB	-17203
oz	-17204
pe	-17205
uf	-17206
▁博	-17207
▁既	-17208
▁艾	-17209
一想	-17210
一意	-17211
一类	-17212
一组	-17213
上所	-17214
上证	-17215
不放	-17216
专用	-17217
世袭	-17218
两场	-17219
两点	-17220
严密	-17221
中性	-17222
义的	-17223
之交	-17224
之大	-17225
之类	-17226
也好	-17227
事宜	-17228
五星	-17229
交出	-17230
亨萨	-17231
亲属	-17232
人皆	-17233
从不	-17234
休假	-17235
休眠	-17236
休闲	-17237
会比	-17238
传导	-17239
传闻	-17240
伸出	-17241
使他	-17242
倒向	-17243
债主	-17244
储藏	-17245
僵持	-17246
免除	-17247
八年	-17248
六大	-17249
兰经	-17250
其道	-17251
内尔	-17252
冗余	-17253
凯南	-17254
分工	-17255
分开	-17256
分成	-17257
列举	-17258
初创	-17259
利尔	-17260
利弊	-17261
利钦	-17262
到访	-17263
劝说	-17264
动向	-17265
助澜	-17266
升至	-17267
卡路	-17268
即时	-17269
却有	-17270
去除	-17271
又不	-17272
友邦	-17273
双向	-17274
发端	-17275
发送	-17276
受难	-17277
受雇	-17278
另类	-17279
只得	-17280
可悲	-17281
各界	-17282
合情	-17283
合成	-17284
同位	-17285
后才	-17286
向往	-17287
咋舌	-17288
和西	-17289
和黑	-17290
唤醒	-17291
唯恐	-17292
嘲笑	-17293
器官	-17294
囊中	-17295
在有	-17296
坚称	-17297
坦克	-17298
塔克	-17299
大半	-17300
大受	-17301
大行	-17302
天空	-17303
夫妻	-17304
头的	-17305
奈尔	-17306
好好	-17307
委会	-17308
嫉俗	-17309
安纳	-17310
室外	-17311
害的	-17312
对俄	-17313
导师	-17314
少女	-17315
尔班	-17316
尚早	-17317
就不	-17318
就曾	-17319
就行	-17320
尽了	-17321
岁月	-17322
巡逻	-17323
巴兰	-17324
干部	-17325
年起	-17326
幼儿	-17327
广东	-17328
广袤	-17329
应得	-17330
开花	-17331
异口	-17332
式微	-17333
引进	-17334
当做	-17335
得越	-17336
微笑	-17337
怀抱	-17338
怒火	-17339
思索	-17340
急性	-17341
悲伤	-17342
想在	-17343
成人	-17344
我对	-17345
战败	-17346
房利	-17347
所属	-17348
手握	-17349
扎比	-17350
打压	-17351
扪心	-17352
扫清	-17353
扯皮	-17354
扶贫	-17355
投身	-17356
抗争	-17357
抗衡	-17358
抛售	-17359
拉大	-17360
拍卖	-17361
拍摄	-17362
拖欠	-17363
招致	-17364
拷打	-17365
推波	-17366
摆在	-17367
摧残	-17368
敞口	-17369
文盲	-17370
斯登	-17371
时光	-17372
明晰	-17373
易于	-17374
易受	-17375
易得	-17376
智力	-17377
暗杀	-17378
更替	-17379
有之	-17380
机密	-17381
极不	-17382
极富	-17383
次数	-17384
此人	-17385
民事	-17386
法令	-17387
泥淖	-17388
流感	-17389
浓厚	-17390
浪漫	-17391
浮出	-17392
涌向	-17393
液压	-17394
深层	-17395
渡过	-17396
满了	-17397
满怀	-17398
煤电	-17399
牵扯	-17400
特使	-17401
特雷	-17402
狐疑	-17403
独生	-17404
甩卖	-17405
由我	-17406
畅销	-17407
症候	-17408
的两	-17409
皇帝	-17410
盗窃	-17411
瞄准	-17412
礼貌	-17413
移交	-17414
稀少	-17415
竞相	-17416
章程	-17417
第七	-17418
筹措	-17419
组装	-17420
终点	-17421
美欧	-17422
而知	-17423
耕种	-17424
胚胎	-17425
能从	-17426
能像	-17427
臃肿	-17428
节制	-17429
莱因	-17430
莱恩	-17431
营业	-17432
行贿	-17433
西里	-17434
誓言	-17435
论述	-17436
访华	-17437
试想	-17438
该州	-17439
说了	-17440
调控	-17441
谬误	-17442
财力	-17443
责怪	-17444
贴近	-17445
赌局	-17446
起步	-17447
身陷	-17448
转到	-17449
输掉	-17450
还多	-17451
还款	-17452
还没	-17453
逼近	-17454
酷刑	-17455
重任	-17456
金氏	-17457
队员	-17458
阵痛	-17459
阿德	-17460
青睐	-17461
顺从	-17462
预想	-17463
领事	-17464
领军	-17465
领头	-17466
饭碗	-17467
首任	-17468
高产	-17469
高原	-17470
魔法	-17471
鲁棒	-17472
鲨鱼	-17473
黎明	-17474
11.	-17475
14%	-17476
3.3	-17477
4.4	-17478
45%	-17479
5.5	-17480
EDD	-17481
FTA	-17482
LAC	-17483
Sam	-17484
arb	-17485
ech	-17486
eld	-17487
esa	-17488
fer	-17489
ign	-17490
lex	-17491
ons	-17492
org	-17493
oth	-17494
▁Ed	-17495
▁一场	-17496
▁一直	-17497
▁他将	-17498
▁共同	-17499
▁医生	-17500
▁即将	-17501
▁应当	-17502
▁技术	-17503
▁此时	-17504
▁每个	-17505
▁短期	-17506
▁管理	-17507
▁而对	-17508
▁贫困	-17509
▁这套	-17510
▁颇具	-17511
一年中	-17512
一边倒	-17513
万灵丹	-17514
三中全	-17515
三季度	-17516
三年的	-17517
三百万	-17518
下个月	-17519
下议院	-17520
不一致	-17521
不仅对	-17522
不及待	-17523
不承认	-17524
个人和	-17525
个季度	-17526
中占据	-17527
中国梦	-17528
为一谈	-17529
为未来	-17530
为这一	-17531
为非法	-17532
之以鼻	-17533
也一样	-17534
也常常	-17535
了一批	-17536
了世界	-17537
了英国	-17538
事务的	-17539
亨萨林	-17540
享有的	-17541
人权的	-17542
今后的	-17543
从而将	-17544
他们为	-17545
他们被	-17546
他没有	-17547
以下的	-17548
以及为	-17549
以增加	-17550
以市场	-17551
以提振	-17552
以提高	-17553
会降低	-17554
伤害了	-17555
但其他	-17556
低油价	-17557
值一提	-17558
克里斯	-17559
党派的	-17560
公信力	-17561
公开的	-17562
公民们	-17563
关闭了	-17564
其地区	-17565
内斯堡	-17566
出生率	-17567
出资国	-17568
分配给	-17569
则可以	-17570
制造者	-17571
加大了	-17572
加拉瓜	-17573
加沙的	-17574
包括我	-17575
北京的	-17576
升高的	-17577
协议将	-17578
南部的	-17579
却不能	-17580
却并未	-17581
厄尔尼	-17582
压低了	-17583
参与的	-17584
及以上	-17585
反垄断	-17586
发出的	-17587
发动的	-17588
可以把	-17589
可问责	-17590
叶利钦	-17591
合作社	-17592
合理性	-17593
后危机	-17594
员工的	-17595
周期的	-17596
和平和	-17597
和提高	-17598
和泰国	-17599
和破坏	-17600
商主义	-17601
因此也	-17602
围绕着	-17603
国内和	-17604
国家队	-17605
圣彼得	-17606
在希腊	-17607
地进行	-17608
坎帕拉	-17609
处方药	-17610
外部性	-17611
多一点	-17612
大学和	-17613
大气层	-17614
如果他	-17615
如果它	-17616
它们都	-17617
完全由	-17618
完成的	-17619
对国际	-17620
将减少	-17621
就成了	-17622
工程的	-17623
年年底	-17624
年爆发	-17625
并扩大	-17626
并据此	-17627
并采取	-17628
并降低	-17629
并鼓励	-17630
弄清楚	-17631
当权者	-17632
很明显	-17633
很高兴	-17634
微生物	-17635
愤怒和	-17636
戏剧性	-17637
我相信	-17638
或美国	-17639
所抵消	-17640
打击了	-17641
报告说	-17642
拉低了	-17643
拱手让	-17644
挑战了	-17645
捐助国	-17646
掌权的	-17647
新政策	-17648
新方法	-17649
无法从	-17650
是关于	-17651
是由于	-17652
是这样	-17653
普通人	-17654
暂时性	-17655
更像是	-17656
更清洁	-17657
最有效	-17658
有一定	-17659
有大约	-17660
有益的	-17661
来加以	-17662
来提高	-17663
来的钱	-17664
来获得	-17665
杰里米	-17666
正式的	-17667
正确性	-17668
民众和	-17669
求助于	-17670
汇率的	-17671
没那么	-17672
法尼亚	-17673
波兰和	-17674
物联网	-17675
特点是	-17676
特里谢	-17677
现成的	-17678
的一方	-17679
的人员	-17680
的储蓄	-17681
的关税	-17682
的典型	-17683
的发现	-17684
的大门	-17685
的患者	-17686
的所谓	-17687
的投票	-17688
的来源	-17689
的汽车	-17690
的治理	-17691
的破坏	-17692
的约束	-17693
的裁决	-17694
的规定	-17695
的记录	-17696
的难度	-17697
皮克提	-17698
相一致	-17699
研讨会	-17700
突破性	-17701
第四次	-17702
米尔顿	-17703
索罗斯	-17704
紧缩和	-17705
纺织品	-17706
经理人	-17707
缓解了	-17708
美国有	-17709
而印度	-17710
而只是	-17711
而增加	-17712
联邦制	-17713
股票和	-17714
胎政策	-17715
能够与	-17716
行为和	-17717
补贴的	-17718
被授予	-17719
覆盖了	-17720
观点是	-17721
规定了	-17722
认为他	-17723
话语权	-17724
诱惑力	-17725
走上了	-17726
走到了	-17727
身份的	-17728
转换为	-17729
还要大	-17730
还要求	-17731
这些新	-17732
这将是	-17733
这并不	-17734
道德和	-17735
重工业	-17736
铀浓缩	-17737
银行间	-17738
防火墙	-17739
阿什顿	-17740
降到了	-17741
集中到	-17742
项目上	-17743
项目中	-17744
领域中	-17745
驾马车	-17746
高负债	-17747
鲍里斯	-17748
0.5%	-17749
1974	-17750
2500	-17751
CTBT	-17752
Dani	-17753
STEM	-17754
Uber	-17755
ific	-17756
rica	-17757
▁Mod	-17758
▁Rev	-17759
▁中国还	-17760
▁但一些	-17761
▁但不管	-17762
▁但是这	-17763
▁但最近	-17764
▁例如在	-17765
▁同样的	-17766
▁在今年	-17767
▁坏消息	-17768
▁有时候	-17769
▁法国的	-17770
▁第二种	-17771
▁维也纳	-17772
▁而欧洲	-17773
▁芝加哥	-17774
▁达沃斯	-17775
▁这是个	-17776
一直认为	-17777
不可分割	-17778
不满情绪	-17779
世界人口	-17780
世界需要	-17781
严重程度	-17782
为中心的	-17783
为什么要	-17784
主权债券	-17785
主要央行	-17786
主要通过	-17787
主要问题	-17788
也导致了	-17789
也很重要	-17790
二战后的	-17791
产出增长	-17792
人类健康	-17793
他们正在	-17794
他们没有	-17795
他们能够	-17796
他自己的	-17797
令人咋舌	-17798
令人感到	-17799
以及中国	-17800
以此作为	-17801
价格下跌	-17802
传统智慧	-17803
似乎并不	-17804
作为美国	-17805
使用这些	-17806
保护自己	-17807
保持谨慎	-17808
修正主义	-17809
值得欢迎	-17810
做的事情	-17811
共享经济	-17812
共同目标	-17813
关税壁垒	-17814
军事手段	-17815
农业生产	-17816
决定是否	-17817
冷战期间	-17818
减税政策	-17819
出了问题	-17820
创造力和	-17821
创造更多	-17822
动用武力	-17823
包括来自	-17824
卫生服务	-17825
厄尔尼诺	-17826
去监管化	-17827
参与进来	-17828
受害者的	-17829
叛乱分子	-17830
可以用于	-17831
可以自由	-17832
可以起到	-17833
可以采取	-17834
可能因此	-17835
可能很快	-17836
可能破坏	-17837
可能认为	-17838
可能非常	-17839
同样也是	-17840
同样重要	-17841
和特朗普	-17842
嗤之以鼻	-17843
国内政策	-17844
国家主权	-17845
国有银行	-17846
国民议会	-17847
国际法庭	-17848
国际足联	-17849
在大多数	-17850
在过去三	-17851
基准利率	-17852
增加储蓄	-17853
失去工作	-17854
如何处理	-17855
如何影响	-17856
实现一个	-17857
实际收入	-17858
密苏里州	-17859
对于那些	-17860
对经济的	-17861
寻找新的	-17862
小额信贷	-17863
尤为重要	-17864
局面改变	-17865
已经宣布	-17866
已经超过	-17867
巴西央行	-17868
帮助非洲	-17869
并且没有	-17870
并进一步	-17871
开放社会	-17872
异口同声	-17873
当前危机	-17874
影响深远	-17875
彼此之间	-17876
往常一样	-17877
必须接受	-17878
必须进行	-17879
怀疑论者	-17880
息息相关	-17881
愤世嫉俗	-17882
我们就能	-17883
我们才能	-17884
我们看到	-17885
所必须的	-17886
所要求的	-17887
扪心自问	-17888
技能培训	-17889
投票支持	-17890
换句话说	-17891
推波助澜	-17892
提振增长	-17893
摇身一变	-17894
教育机会	-17895
整个欧盟	-17896
无济于事	-17897
更加关注	-17898
更多资金	-17899
曼努埃尔	-17900
最伟大的	-17901
最终可能	-17902
最终导致	-17903
最近几年	-17904
有效应对	-17905
权力机构	-17906
某种程度	-17907
棘手问题	-17908
森林采伐	-17909
次贷危机	-17910
欧盟条约	-17911
正在下降	-17912
正常运转	-17913
深度衰退	-17914
混为一谈	-17915
混乱局面	-17916
爆炸事件	-17917
特殊利益	-17918
环境恶化	-17919
甚至没有	-17920
生存威胁	-17921
的例子中	-17922
的政策和	-17923
的新时代	-17924
的时间内	-17925
直接影响	-17926
真实世界	-17927
确实存在	-17928
示威游行	-17929
第三季度	-17930
纳粹德国	-17931
经济决策	-17932
经济实力	-17933
经济萧条	-17934
经济进步	-17935
维持下去	-17936
美国人都	-17937
美国国内	-17938
考虑因素	-17939
而产生的	-17940
而导致的	-17941
能够产生	-17942
能够继续	-17943
腐败丑闻	-17944
自我毁灭	-17945
艾哈迈迪	-17946
节节攀升	-17947
莱因哈特	-17948
融资渠道	-17949
被任命为	-17950
被排除在	-17951
西方世界	-17952
要归功于	-17953
覆盖范围	-17954
视为一种	-17955
计划中的	-17956
计划生育	-17957
许多人都	-17958
象征性的	-17959
贝尔斯登	-17960
负债累累	-17961
财政扩张	-17962
资本利得	-17963
资本支出	-17964
资金用于	-17965
这一事件	-17966
这一概念	-17967
这一要求	-17968
这也许是	-17969
这些指标	-17970
这有助于	-17971
这样的人	-17972
这项计划	-17973
迫不及待	-17974
通胀因素	-17975
通讯技术	-17976
重要因素	-17977
重要影响	-17978
重要问题	-17979
银行危机	-17980
银行存款	-17981
长的时间	-17982
问题重重	-17983
需要加强	-17984
需要新的	-17985
领土要求	-17986
风险共担	-17987
1,500	-17988
Nexus	-17989
ivers	-17990
tweet	-17991
—2016	-17992
—2017	-17993
▁1999	-17994
▁Cons	-17995
▁Rein	-17996
▁Serv	-17997
▁为了避免	-17998
▁委内瑞拉	-17999
▁恐怖主义	-18000
▁悲哀的是	-18001
▁绝大多数	-18002
▁这是一项	-18003
▁随着美国	-18004
不可接受的	-18005
严重的错误	-18006
中国领导层	-18007
也不太可能	-18008
二十国集团	-18009
他们的国家	-18010
众所周知的	-18011
伦敦金融城	-18012
全球变暖的	-18013
其他成员国	-18014
决策者应该	-18015
北约成员国	-18016
发达国家中	-18017
和其他地方	-18018
和尼日利亚	-18019
和经济增长	-18020
四分之一的	-18021
国家和地区	-18022
国民储蓄率	-18023
在未来十年	-18024
基于市场的	-18025
塔吉克斯坦	-18026
奥巴马医保	-18027
委员会成员	-18028
巨大的成功	-18029
巴尔干半岛	-18030
巴尔干地区	-18031
布什政府的	-18032
德意志银行	-18033
总统选举中	-18034
成功的关键	-18035
房地产投资	-18036
所有国家的	-18037
更多的国家	-18038
有可能成为	-18039
有理由相信	-18040
根本性问题	-18041
的原因之一	-18042
的反腐运动	-18043
的国家来说	-18044
的国际合作	-18045
的最佳办法	-18046
的民族主义	-18047
的组成部分	-18048
的经验表明	-18049
的金融体系	-18050
的金融机构	-18051
相当长的一	-18052
石油天然气	-18053
穆斯林国家	-18054
美国和其他	-18055
脱离欧盟的	-18056
自上而下的	-18057
葛兰主义者	-18058
认为的那样	-18059
运转良好的	-18060
这就意味着	-18061
造成的损失	-18062
首相卡梅伦	-18063
Jeremy	-18064
ations	-18065
mental	-18066
▁但我们必须	-18067
人们普遍认为	-18068
低收入国家的	-18069
全国代表大会	-18070
创造就业岗位	-18071
劳动力参与率	-18072
国家安全顾问	-18073
对抗气候变化	-18074
捷克斯洛伐克	-18075
更重要的角色	-18076
民意调查显示	-18077
的新兴经济体	-18078
面临着巨大的	-18079
▁Democr	-18080
▁发自布鲁塞尔	-18081
刚果民主共和国	-18082
国民生产总值的	-18083
布雷顿森林体系	-18084
▁Sanders	-18085
▁从某种程度上说	-18086
以色列和巴勒斯坦	-18087
▁Security	-18088
▁Financial	-18089
53	-18090
61	-18091
77	-18092
AP	-18093
Em	-18094
GA	-18095
LC	-18096
Ne	-18097
WT	-18098
ft	-18099
▁h	-18100
▁占	-18101
▁打	-18102
一地	-18103
万能	-18104
三百	-18105
上次	-18106
上调	-18107
不移	-18108
丑陋	-18109
专栏	-18110
业已	-18111
丢失	-18112
两周	-18113
个州	-18114
为他	-18115
丽莎	-18116
之声	-18117
之情	-18118
乐意	-18119
也使	-18120
也应	-18121
也给	-18122
买房	-18123
事例	-18124
互通	-18125
五项	-18126
亦即	-18127
产妇	-18128
亲戚	-18129
人性	-18130
亿元	-18131
从其	-18132
他也	-18133
住所	-18134
体重	-18135
何塞	-18136
作业	-18137
佩斯	-18138
保存	-18139
全局	-18140
全盘	-18141
全职	-18142
公园	-18143
兴盛	-18144
兼职	-18145
军火	-18146
冰山	-18147
净值	-18148
凭空	-18149
分校	-18150
前行	-18151
办事	-18152
加权	-18153
加里	-18154
务农	-18155
包裹	-18156
匆忙	-18157
卡拉	-18158
印证	-18159
却对	-18160
取悦	-18161
口风	-18162
各有	-18163
合众	-18164
吉利	-18165
吉拉	-18166
同仁	-18167
名称	-18168
后期	-18169
吾尔	-18170
和巴	-18171
和自	-18172
哈德	-18173
响亮	-18174
商讨	-18175
四名	-18176
四海	-18177
在任	-18178
地质	-18179
场上	-18180
坦率	-18181
基层	-18182
声望	-18183
复原	-18184
复发	-18185
大步	-18186
天花	-18187
好坏	-18188
妄想	-18189
姗姗	-18190
威斯	-18191
威权	-18192
媲美	-18193
它来	-18194
安心	-18195
宾夕	-18196
密歇	-18197
小怪	-18198
屏幕	-18199
山区	-18200
山车	-18201
帐户	-18202
帕特	-18203
度假	-18204
康复	-18205
弃权	-18206
弗莱	-18207
强健	-18208
形同	-18209
徒刑	-18210
得了	-18211
得过	-18212
德和	-18213
心存	-18214
快要	-18215
急速	-18216
性格	-18217
悉尼	-18218
所持	-18219
扫描	-18220
承载	-18221
拆分	-18222
拉脱	-18223
拓宽	-18224
拖拉	-18225
探底	-18226
接待	-18227
撼动	-18228
效忠	-18229
敲响	-18230
斯洛	-18231
新书	-18232
施展	-18233
旅客	-18234
旗帜	-18235
旗鼓	-18236
既往	-18237
明朗	-18238
是受	-18239
是它	-18240
是新	-18241
晚上	-18242
普查	-18243
暗淡	-18244
更佳	-18245
最穷	-18246
月度	-18247
有机	-18248
服刑	-18249
望而	-18250
朝向	-18251
期权	-18252
本文	-18253
本该	-18254
来对	-18255
极力	-18256
横行	-18257
横跨	-18258
橄榄	-18259
歪曲	-18260
污点	-18261
沙文	-18262
油田	-18263
法兰	-18264
波澜	-18265
泥潭	-18266
洛因	-18267
流言	-18268
湾区	-18269
照旧	-18270
王国	-18271
球员	-18272
用处	-18273
病原	-18274
的了	-18275
的假	-18276
的头	-18277
的每	-18278
的税	-18279
的被	-18280
的长	-18281
看不	-18282
看得	-18283
矿业	-18284
矿物	-18285
碰巧	-18286
碳化	-18287
离任	-18288
离职	-18289
私隐	-18290
稍微	-18291
空想	-18292
空谈	-18293
等的	-18294
粗暴	-18295
约定	-18296
罗默	-18297
老挝	-18298
耶克	-18299
联动	-18300
聘用	-18301
背离	-18302
能以	-18303
自生	-18304
节日	-18305
蒙上	-18306
薪资	-18307
蛋糕	-18308
规管	-18309
触目	-18310
警官	-18311
计量	-18312
证词	-18313
该市	-18314
误判	-18315
说得	-18316
诺华	-18317
豪华	-18318
账单	-18319
贵族	-18320
赫鲁	-18321
超凡	-18322
距今	-18323
过活	-18324
还想	-18325
这片	-18326
适度	-18327
适龄	-18328
逐出	-18329
造福	-18330
遏止	-18331
遗漏	-18332
遣返	-18333
避险	-18334
都应	-18335
酋长	-18336
配备	-18337
酒吧	-18338
铁腕	-18339
问卷	-18340
队的	-18341
阴暗	-18342
陆上	-18343
陆地	-18344
陈述	-18345
降幅	-18346
难堪	-18347
雄厚	-18348
雅克	-18349
集结	-18350
震撼	-18351
饲料	-18352
首选	-18353
驻扎	-18354
麻疹	-18355
0.9	-18356
170	-18357
6.5	-18358
65%	-18359
AIG	-18360
Abd	-18361
ICA	-18362
Tim	-18363
Tub	-18364
acy	-18365
int	-18366
ore	-18367
uis	-18368
▁Ab	-18369
▁re	-18370
▁一切	-18371
▁两者	-18372
▁出口	-18373
▁加上	-18374
▁和平	-18375
▁哪怕	-18376
▁外部	-18377
▁大概	-18378
▁大选	-18379
▁她的	-18380
▁工党	-18381
▁年的	-18382
▁打击	-18383
▁持续	-18384
▁数据	-18385
▁早期	-18386
▁最初	-18387
▁税收	-18388
▁穷人	-18389
▁缺少	-18390
▁荷兰	-18391
▁采取	-18392
▁重新	-18393
▁限制	-18394
▁难民	-18395
▁预测	-18396
▁麻烦	-18397
一点点	-18398
上半叶	-18399
不匹配	-18400
不协调	-18401
不支持	-18402
不相容	-18403
不能让	-18404
与市场	-18405
与繁荣	-18406
世界级	-18407
严肃的	-18408
中国从	-18409
中进行	-18410
为人知	-18411
之下的	-18412
之中的	-18413
乌拉圭	-18414
也不要	-18415
也希望	-18416
也并不	-18417
也日益	-18418
了一定	-18419
了一致	-18420
五年内	-18421
人丧生	-18422
人员的	-18423
仅有的	-18424
从出口	-18425
从政治	-18426
他指出	-18427
令中国	-18428
以后的	-18429
以此为	-18430
任务是	-18431
任命的	-18432
伊朗人	-18433
伐利亚	-18434
传播的	-18435
但同时	-18436
但显然	-18437
作出的	-18438
使人们	-18439
供给端	-18440
保证了	-18441
保险商	-18442
停止了	-18443
克服了	-18444
其政策	-18445
内容的	-18446
军事化	-18447
军事和	-18448
准备的	-18449
分别为	-18450
创业者	-18451
创造者	-18452
别人的	-18453
制度下	-18454
前提下	-18455
前美国	-18456
劳伦斯	-18457
区域的	-18458
医院的	-18459
十八大	-18460
却可以	-18461
原有的	-18462
双性恋	-18463
取代了	-18464
另一方	-18465
只剩下	-18466
召开了	-18467
可兑换	-18468
可见的	-18469
同时为	-18470
后来的	-18471
后果是	-18472
和一些	-18473
和公众	-18474
和公民	-18475
和分析	-18476
和南海	-18477
和合作	-18478
和尊重	-18479
和我们	-18480
和持续	-18481
和欧元	-18482
和现在	-18483
和网络	-18484
和股市	-18485
和责任	-18486
和需求	-18487
商学院	-18488
在其中	-18489
在政府	-18490
在财政	-18491
地位和	-18492
地看到	-18493
埃及的	-18494
城市中	-18495
增加的	-18496
大约在	-18497
大胆的	-18498
奥尔班	-18499
如果要	-18500
如此多	-18501
妇女在	-18502
完整的	-18503
宪法的	-18504
密歇根	-18505
对外国	-18506
对德国	-18507
对移民	-18508
将再次	-18509
将提高	-18510
将来自	-18511
将随着	-18512
已经把	-18513
年水平	-18514
年龄段	-18515
并利用	-18516
并成为	-18517
并承诺	-18518
应当在	-18519
开放性	-18520
弊大于	-18521
强国的	-18522
强有力	-18523
当选的	-18524
得更快	-18525
怎么样	-18526
怎样做	-18527
恶化了	-18528
意见的	-18529
感染者	-18530
我希望	-18531
或以上	-18532
所在的	-18533
所提供	-18534
所欲为	-18535
承受了	-18536
把中国	-18537
把目标	-18538
抗议者	-18539
报道说	-18540
指责为	-18541
掌握着	-18542
提出要	-18543
政府还	-18544
敌人的	-18545
敏感性	-18546
新世界	-18547
旅行者	-18548
日本在	-18549
是唯一	-18550
是现代	-18551
是这些	-18552
普通的	-18553
更准确	-18554
更可能	-18555
更安全	-18556
更有利	-18557
更深入	-18558
更稳定	-18559
更糟糕	-18560
曾经的	-18561
最亲密	-18562
来到了	-18563
来看看	-18564
极端的	-18565
核力量	-18566
核武库	-18567
框架的	-18568
棱两可	-18569
正准备	-18570
正常的	-18571
每年要	-18572
比过去	-18573
民族党	-18574
水管理	-18575
汽车的	-18576
沃尔克	-18577
浪费了	-18578
满足于	-18579
独立于	-18580
现在正	-18581
生存的	-18582
百分之	-18583
的两个	-18584
的两倍	-18585
的人选	-18586
的关于	-18587
的决议	-18588
的前沿	-18589
的动作	-18590
的含义	-18591
的基因	-18592
的声明	-18593
的对外	-18594
的席位	-18595
的建设	-18596
的情景	-18597
的愿景	-18598
的新书	-18599
的更加	-18600
的梦想	-18601
的福利	-18602
的稳定	-18603
的经历	-18604
的药物	-18605
的著作	-18606
的诸多	-18607
的进程	-18608
盟友的	-18609
目前已	-18610
知识的	-18611
确认了	-18612
禁酒令	-18613
种类的	-18614
穷人和	-18615
穷国的	-18616
第一轮	-18617
繁荣期	-18618
纳赛尔	-18619
经验和	-18620
维吾尔	-18621
维尔的	-18622
维持其	-18623
美国从	-18624
老欧洲	-18625
而政府	-18626
而英国	-18627
而言是	-18628
能通过	-18629
自豪感	-18630
艰难的	-18631
表现在	-18632
认为它	-18633
许可证	-18634
访问了	-18635
购买了	-18636
贷款和	-18637
贷款给	-18638
转基因	-18639
过任何	-18640
过山车	-18641
这一代	-18642
这代人	-18643
这或许	-18644
退出了	-18645
通过其	-18646
通过向	-18647
逮捕了	-18648
都十分	-18649
都支持	-18650
都非常	-18651
问责制	-18652
间接地	-18653
需要将	-18654
霍尔丹	-18655
面对面	-18656
领土上	-18657
领袖的	-18658
颠覆了	-18659
1933	-18660
1940	-18661
1964	-18662
1975	-18663
1977	-18664
1985	-18665
3.5%	-18666
6000	-18667
ISPR	-18668
PISA	-18669
Tube	-18670
ates	-18671
bert	-18672
ense	-18673
form	-18674
hart	-18675
ical	-18676
olas	-18677
ward	-18678
▁Mac	-18679
▁Rep	-18680
▁Rom	-18681
▁Stu	-18682
▁中国人	-18683
▁事实是	-18684
▁人们对	-18685
▁他们说	-18686
▁但至少	-18687
▁但要想	-18688
▁低利率	-18689
▁其一是	-18690
▁内罗毕	-18691
▁在世界	-18692
▁在德国	-18693
▁在我们	-18694
▁在短期	-18695
▁当人们	-18696
▁当时的	-18697
▁投资于	-18698
▁数百万	-18699
▁泽纳维	-18700
▁第一步	-18701
▁而欧盟	-18702
▁这将是	-18703
▁通过将	-18704
▁马克龙	-18705
▁麦肯锡	-18706
一直保持	-18707
万人死亡	-18708
三驾马车	-18709
不会受到	-18710
不如说是	-18711
不是因为	-18712
不稳定性	-18713
世界上的	-18714
严重影响	-18715
为了避免	-18716
主导作用	-18717
主权违约	-18718
也受到了	-18719
也将继续	-18720
也经历了	-18721
也许已经	-18722
二十年中	-18723
人类命运	-18724
他们希望	-18725
他们应当	-18726
他们无法	-18727
他的政策	-18728
令人满意	-18729
以及它们	-18730
以及欧盟	-18731
价格指数	-18732
任期限制	-18733
企业提供	-18734
优先考虑	-18735
但同时也	-18736
但大多数	-18737
债务抵押	-18738
值得关注	-18739
做出决定	-18740
偿付能力	-18741
儿童提供	-18742
充分实现	-18743
全球合作	-18744
全球治理	-18745
关键性的	-18746
其他所有	-18747
其余部分	-18748
其成员国	-18749
内幕交易	-18750
决策过程	-18751
几个月后	-18752
出手干预	-18753
利他主义	-18754
制裁措施	-18755
努力工作	-18756
包括那些	-18757
区别对待	-18758
十年前的	-18759
升温幅度	-18760
卢卡申科	-18761
危机前的	-18762
危机后的	-18763
即所谓的	-18764
压倒性的	-18765
又回到了	-18766
发展融资	-18767
叙利亚的	-18768
只有区区	-18769
可以得到	-18770
可以预期	-18771
可能会对	-18772
合约网络	-18773
呼吁建立	-18774
和可持续	-18775
和大规模	-18776
和新加坡	-18777
和黎巴嫩	-18778
商业利益	-18779
团结一致	-18780
圣彼得堡	-18781
在本世纪	-18782
在西班牙	-18783
坚定不移	-18784
基础之上	-18785
处于危险	-18786
大幅减少	-18787
大惊小怪	-18788
大经济体	-18789
大行其道	-18790
大部分是	-18791
如何使用	-18792
安全利益	-18793
实现和平	-18794
实用主义	-18795
对乌克兰	-18796
对我们的	-18797
对此表示	-18798
将会产生	-18799
就会产生	-18800
尼加拉瓜	-18801
布鲁金斯	-18802
并不完全	-18803
怀疑主义	-18804
急剧上升	-18805
性别歧视	-18806
总人口的	-18807
总理莫迪	-18808
意料之外	-18809
我们可能	-18810
所持有的	-18811
才能解决	-18812
打下基础	-18813
找到一个	-18814
投资机会	-18815
担心的是	-18816
拉脱维亚	-18817
持续不断	-18818
接受教育	-18819
改革进程	-18820
政府需要	-18821
政府首脑	-18822
政界人士	-18823
数字时代	-18824
文化遗产	-18825
无可避免	-18826
无法找到	-18827
无法承受	-18828
日益增长	-18829
是明确的	-18830
是最好的	-18831
更美好的	-18832
最危险的	-18833
最新研究	-18834
最糟糕的	-18835
最近宣布	-18836
服务业和	-18837
服务部门	-18838
机器人和	-18839
查理周刊	-18840
欧元区内	-18841
欧洲应该	-18842
欧盟需要	-18843
正在导致	-18844
正在采取	-18845
每一个人	-18846
民主社会	-18847
气候相关	-18848
注意力从	-18849
浮出水面	-18850
海洋生物	-18851
液压致裂	-18852
犯罪分子	-18853
独生子女	-18854
独立国家	-18855
环境中的	-18856
现代经济	-18857
现在必须	-18858
生物技术	-18859
电力供应	-18860
病人照护	-18861
的叙利亚	-18862
的所有权	-18863
的最大的	-18864
的观点是	-18865
监管当局	-18866
监管框架	-18867
破产程序	-18868
社会稳定	-18869
禁毒战争	-18870
科索沃的	-18871
紧急措施	-18872
紧随其后	-18873
经济减速	-18874
经济崩溃	-18875
继续支持	-18876
绿色革命	-18877
美国企业	-18878
老龄化的	-18879
股票价格	-18880
能否成功	-18881
能够改善	-18882
能源转型	-18883
自然选择	-18884
艾哈迈德	-18885
莫桑比克	-18886
获益良多	-18887
蒙特利尔	-18888
衡量标准	-18889
要高得多	-18890
解决机制	-18891
该怎么办	-18892
象征意义	-18893
财政纪律	-18894
贫富差距	-18895
贷款利率	-18896
贸易政策	-18897
贸易谈判	-18898
达成任何	-18899
还不足以	-18900
还是一个	-18901
还有一些	-18902
这一计划	-18903
这是一种	-18904
这次危机	-18905
这种疾病	-18906
进展缓慢	-18907
违法行为	-18908
采取果断	-18909
重新启动	-18910
重蹈覆辙	-18911
银行破产	-18912
阿根廷的	-18913
难以获得	-18914
需要大量	-18915
非常清楚	-18916
非洲需要	-18917
风力发电	-18918
驾驶汽车	-18919
鼓舞人心	-18920
1,700	-18921
7,000	-18922
Mario	-18923
Trans	-18924
epend	-18925
unity	-18926
▁Corp	-18927
▁与此相反	-18928
▁他们需要	-18929
▁众所周知	-18930
▁各国政府	-18931
▁塞尔维亚	-18932
▁如果伊朗	-18933
▁日本银行	-18934
▁澳大利亚	-18935
▁自由民主	-18936
▁这一数字	-18937
▁这一计划	-18938
▁这一问题	-18939
▁这听起来	-18940
▁这场危机	-18941
▁遗憾的是	-18942
▁马来西亚	-18943
一个重要的	-18944
严重的经济	-18945
之间的竞争	-18946
之间的贸易	-18947
也没有什么	-18948
人民币升值	-18949
从而进一步	-18950
他们的工作	-18951
令人震惊的	-18952
伊斯兰教的	-18953
全球经济中	-18954
化石燃料的	-18955
医疗和教育	-18956
华盛顿邮报	-18957
危机爆发后	-18958
发布的一份	-18959
发达国家和	-18960
另一方面又	-18961
可持续增长	-18962
同样重要的	-18963
和不确定性	-18964
和气候变化	-18965
国会共和党	-18966
国内和国际	-18967
土库曼斯坦	-18968
在此过程中	-18969
坚实的基础	-18970
奥斯曼帝国	-18971
存在巨大的	-18972
实际上已经	-18973
家庭和企业	-18974
宾夕法尼亚	-18975
居高不下的	-18976
巨大的政治	-18977
已经产生了	-18978
已经开始了	-18979
已经成为了	-18980
微不足道的	-18981
德国和法国	-18982
摆脱了贫困	-18983
教皇方济各	-18984
整个地区的	-18985
方面的投资	-18986
日本和韩国	-18987
明白这一点	-18988
更大的作用	-18989
最贫困人口	-18990
欧洲国家的	-18991
正确地指出	-18992
海洋法公约	-18993
的主要障碍	-18994
的军事力量	-18995
的唯一途径	-18996
的平均水平	-18997
的欧洲国家	-18998
的经济实力	-18999
的金融部门	-19000
直升机撒钱	-19001
研究和开发	-19002
站不住脚的	-19003
经济政策的	-19004
美联储官员	-19005
致力于改善	-19006
议会选举中	-19007
这两个国家	-19008
这样的情况	-19009
金融部门的	-19010
问题的答案	-19011
雄心勃勃的	-19012
领导人应该	-19013
高昂的代价	-19014
ustain	-19015
▁中国和印度	-19016
▁从历史上看	-19017
▁发达经济体	-19018
▁新兴经济体	-19019
两次世界大战	-19020
亚洲开发银行	-19021
产生重大影响	-19022
人员自由流动	-19023
全球气候变暖	-19024
变得更加困难	-19025
同样重要的是	-19026
回答这个问题	-19027
基督教民主党	-19028
宏观经济稳定	-19029
平均年增长率	-19030
应对全球变暖	-19031
所扮演的角色	-19032
没有理由认为	-19033
海上丝绸之路	-19034
的发展中国家	-19035
的社会和政治	-19036
造成了巨大的	-19037
阿鲁纳恰尔邦	-19038
olution	-19039
▁Center	-19040
▁从这个意义上	-19041
▁从这个角度看	-19042
▁值得注意的是	-19043
▁本月早些时候	-19044
主要新兴经济体	-19045
新兴市场国家的	-19046
欧盟成员国资格	-19047
▁Council	-19048
日本首相安倍晋三	-19049
跨太平洋伙伴关系	-19050
Financial	-19051
▁具有讽刺意味的是	-19052
诺贝尔经济学奖得主	-19053
71	-19054
Ad	-19055
CM	-19056
CP	-19057
ER	-19058
Jo	-19059
OS	-19060
nb	-19061
rg	-19062
ya	-19063
za	-19064
▁[	-19065
▁万	-19066
▁亚	-19067
▁别	-19068
▁又	-19069
▁圣	-19070
▁日	-19071
一举	-19072
一击	-19073
一刻	-19074
一己	-19075
一手	-19076
一窥	-19077
不加	-19078
不耐	-19079
与前	-19080
东帝	-19081
东流	-19082
两制	-19083
之列	-19084
之家	-19085
之高	-19086
乏力	-19087
九个	-19088
书的	-19089
了约	-19090
争执	-19091
二世	-19092
二等	-19093
云南	-19094
交谈	-19095
人将	-19096
仇视	-19097
仓促	-19098
他会	-19099
以期	-19100
任性	-19101
伯尼	-19102
但有	-19103
低速	-19104
佩戴	-19105
供需	-19106
依照	-19107
保有	-19108
兆瓦	-19109
先是	-19110
先驱	-19111
党的	-19112
全权	-19113
六方	-19114
兴未	-19115
其顿	-19116
兹事	-19117
兼容	-19118
再也	-19119
冷却	-19120
凯撒	-19121
刑罚	-19122
划算	-19123
则有	-19124
利基	-19125
刺杀	-19126
前来	-19127
力气	-19128
功利	-19129
动能	-19130
助手	-19131
医师	-19132
卡多	-19133
卡斯	-19134
卡门	-19135
历经	-19136
厘清	-19137
去做	-19138
口袋	-19139
古怪	-19140
可耻	-19141
司令	-19142
吃一	-19143
各异	-19144
合伙	-19145
合谋	-19146
名副	-19147
听从	-19148
周小	-19149
和被	-19150
喜剧	-19151
喜爱	-19152
囊括	-19153
四次	-19154
国土	-19155
在前	-19156
在向	-19157
城乡	-19158
墨尔	-19159
声势	-19160
复合	-19161
夏季	-19162
多地	-19163
大举	-19164
大加	-19165
大同	-19166
夺去	-19167
好于	-19168
孵化	-19169
实地	-19170
寻租	-19171
少于	-19172
尘埃	-19173
屈一	-19174
属性	-19175
岛国	-19176
崇高	-19177
差额	-19178
平板	-19179
年对	-19180
年有	-19181
并购	-19182
庆贺	-19183
开了	-19184
开脱	-19185
引诱	-19186
弗格	-19187
张胆	-19188
归于	-19189
当初	-19190
形形	-19191
影像	-19192
得住	-19193
得分	-19194
得当	-19195
心怀	-19196
惩戒	-19197
想必	-19198
憎恶	-19199
懂得	-19200
或被	-19201
所未	-19202
扎尔	-19203
批发	-19204
抛出	-19205
损坏	-19206
排挤	-19207
接到	-19208
接壤	-19209
提法	-19210
握有	-19211
收割	-19212
教士	-19213
教派	-19214
教练	-19215
敬仰	-19216
斯麦	-19217
新药	-19218
旅程	-19219
旗下	-19220
无烟	-19221
既能	-19222
旦旦	-19223
明博	-19224
明目	-19225
是向	-19226
是我	-19227
最深	-19228
本科	-19229
杜克	-19230
来迟	-19231
柴油	-19232
树林	-19233
格言	-19234
梳理	-19235
植树	-19236
此项	-19237
歧途	-19238
残局	-19239
毁了	-19240
母婴	-19241
水道	-19242
求斯	-19243
泄密	-19244
波尔	-19245
派出	-19246
测验	-19247
湿地	-19248
灌输	-19249
火炬	-19250
灯塔	-19251
照看	-19252
燃油	-19253
牵制	-19254
特种	-19255
特纳	-19256
独力	-19257
独家	-19258
率领	-19259
玻璃	-19260
珍珠	-19261
用量	-19262
画面	-19263
疲于	-19264
病情	-19265
病的	-19266
登陆	-19267
的家	-19268
的手	-19269
皮尤	-19270
盟军	-19271
相处	-19272
相连	-19273
看清	-19274
眼的	-19275
祈祷	-19276
福特	-19277
称赞	-19278
移植	-19279
税负	-19280
空缺	-19281
竞技	-19282
算是	-19283
粗略	-19284
纵向	-19285
纽带	-19286
线性	-19287
终将	-19288
统领	-19289
维埃	-19290
罗夫	-19291
罢了	-19292
美以	-19293
美方	-19294
耳熟	-19295
职权	-19296
联赛	-19297
肌肉	-19298
胡佛	-19299
胡同	-19300
脱身	-19301
自发	-19302
至上	-19303
舒服	-19304
色色	-19305
芬森	-19306
萌芽	-19307
蒙蔽	-19308
藐视	-19309
蚊帐	-19310
蜡烛	-19311
言人	-19312
诺德	-19313
货运	-19314
资质	-19315
赎回	-19316
赦免	-19317
起因	-19318
轻型	-19319
轻率	-19320
输电	-19321
辖区	-19322
过低	-19323
过关	-19324
这给	-19325
远东	-19326
连动	-19327
连同	-19328
通吃	-19329
[...]
