<pad>	0
<unk>	0
<s>	0
</s>	0
▁t	-0
in	-1
▁a	-2
he	-3
re	-4
on	-5
▁the	-6
er	-7
at	-8
en	-9
▁c	-10
▁s	-11
it	-12
▁o	-13
an	-14
es	-15
is	-16
▁w	-17
al	-18
▁p	-19
or	-20
▁b	-21
▁in	-22
▁f	-23
ed	-24
nd	-25
ing	-26
▁to	-27
ic	-28
▁m	-29
ar	-30
ion	-31
▁of	-32
ro	-33
▁d	-34
▁and	-35
ou	-36
ent	-37
▁th	-38
le	-39
▁e	-40
st	-41
▁h	-42
▁re	-43
om	-44
▁n	-45
il	-46
ve	-47
as	-48
ly	-49
▁l	-50
▁be	-51
ct	-52
▁g	-53
ut	-54
▁is	-55
ol	-56
ation	-57
▁that	-58
▁T	-59
im	-60
▁A	-61
ce	-62
se	-63
ver	-64
▁de	-65
ot	-66
ur	-67
ra	-68
▁for	-69
ment	-70
ld	-71
▁I	-72
ig	-73
id	-74
et	-75
ow	-76
▁on	-77
▁it	-78
▁C	-79
ies	-80
▁st	-81
nt	-82
ch	-83
ad	-84
▁pro	-85
▁u	-86
ill	-87
ir	-88
ate	-89
▁con	-90
▁B	-91
ul	-92
▁E	-93
▁S	-94
ore	-95
▁–	-96
▁as	-97
ers	-98
pe	-99
▁The	-100
ith	-101
est	-102
▁wh	-103
ity	-104
▁al	-105
▁cou	-106
▁r	-107
▁su	-108
her	-109
lo	-110
▁ex	-111
▁with	-112
▁are	-113
ge	-114
ort	-115
ay	-116
ist	-117
ess	-118
ab	-119
▁ne	-120
▁an	-121
con	-122
ial	-123
th	-124
▁U	-125
res	-126
ive	-127
ain	-128
us	-129
▁ha	-130
ter	-131
▁not	-132
if	-133
▁com	-134
am	-135
iv	-136
▁we	-137
ke	-138
▁by	-139
▁has	-140
em	-141
conom	-142
▁Ch	-143
▁M	-144
▁have	-145
ac	-146
pp	-147
ould	-148
▁se	-149
▁will	-150
▁le	-151
▁sh	-152
and	-153
▁pol	-154
qu	-155
ust	-156
▁econom	-157
▁W	-158
▁wor	-159
▁P	-160
oc	-161
um	-162
▁en	-163
▁v	-164
▁count	-165
uro	-166
igh	-167
rom	-168
▁Chin	-169
▁F	-170
op	-171
over	-172
ost	-173
▁countr	-174
ap	-175
ant	-176
▁im	-177
ical	-178
▁at	-179
▁from	-180
ia	-181
▁G	-182
os	-183
od	-184
▁or	-185
ions	-186
▁more	-187
▁ch	-188
▁y	-189
▁he	-190
iz	-191
art	-192
▁its	-193
▁“	-194
ure	-195
▁their	-196
ome	-197
ast	-198
ong	-199
▁2	-200
un	-201
ans	-202
ib	-203
▁Euro	-204
▁inc	-205
▁China	-206
▁Europe	-207
▁int	-208
ff	-209
▁imp	-210
▁But	-211
el	-212
ther	-213
▁un	-214
red	-215
▁res	-216
▁R	-217
row	-218
ear	-219
ich	-220
▁In	-221
▁N	-222
anc	-223
ru	-224
ak	-225
mer	-226
ect	-227
▁would	-228
gh	-229
end	-230
ric	-231
▁ad	-232
▁this	-233
all	-234
ight	-235
pt	-236
▁ab	-237
▁can	-238
▁was	-239
overn	-240
▁ag	-241
ance	-242
ary	-243
▁US	-244
▁20	-245
▁1	-246
▁cont	-247
▁countries	-248
▁than	-249
able	-250
▁they	-251
du	-252
▁which	-253
ous	-254
ational	-255
▁govern	-256
▁D	-257
cc	-258
▁O	-259
out	-260
▁fin	-261
ard	-262
ip	-263
▁all	-264
rou	-265
▁comp	-266
reat	-267
ud	-268
ign	-269
▁Th	-270
ations	-271
ates	-272
ark	-273
▁world	-274
▁year	-275
▁grow	-276
▁whe	-277
ere	-278
▁exp	-279
▁rec	-280
▁man	-281
ult	-282
▁(	-283
ress	-284
ank	-285
bal	-286
ie	-287
▁j	-288
▁fa	-289
▁government	-290
▁H	-291
ven	-292
lic	-293
ike	-294
▁economic	-295
ated	-296
orm	-297
▁dis	-298
▁do	-299
one	-300
▁but	-301
ide	-302
▁part	-303
▁polic	-304
▁tr	-305
lobal	-306
ence	-307
▁polit	-308
▁new	-309
▁pl	-310
▁bec	-311
▁inv	-312
ag	-313
▁out	-314
og	-315
▁been	-316
ub	-317
ris	-318
▁reg	-319
▁other	-320
▁pe	-321
▁so	-322
age	-323
▁L	-324
ree	-325
ors	-326
ine	-327
▁me	-328
lop	-329
▁dec	-330
▁over	-331
velop	-332
ction	-333
ile	-334
▁global	-335
ime	-336
ep	-337
arket	-338
▁As	-339
are	-340
ack	-341
▁Un	-342
▁tra	-343
▁J	-344
▁lead	-345
▁growth	-346
ll	-347
▁one	-348
ose	-349
so	-350
meric	-351
form	-352
▁inter	-353
ian	-354
ower	-355
ally	-356
ens	-357
ition	-358
▁Americ	-359
▁K	-360
ren	-361
▁need	-362
▁ind	-363
▁und	-364
▁ris	-365
▁Af	-366
ern	-367
erm	-368
ue	-369
ities	-370
▁also	-371
our	-372
▁eff	-373
▁financ	-374
au	-375
▁should	-376
ility	-377
▁develop	-378
reas	-379
▁like	-380
▁dem	-381
ake	-382
▁market	-383
▁comm	-384
▁invest	-385
▁only	-386
▁cons	-387
▁could	-388
cy	-389
▁political	-390
ople	-391
ire	-392
ident	-393
▁about	-394
▁most	-395
▁pre	-396
▁acc	-397
fic	-398
▁who	-399
▁It	-400
▁str	-401
▁such	-402
▁no	-403
ord	-404
▁per	-405
▁bet	-406
ange	-407
▁cl	-408
▁there	-409
ood	-410
ited	-411
▁long	-412
▁now	-413
ative	-414
▁people	-415
▁bank	-416
pport	-417
low	-418
▁policy	-419
▁cap	-420
ments	-421
▁years	-422
▁European	-423
▁sp	-424
ism	-425
▁up	-426
▁financial	-427
ublic	-428
▁even	-429
uch	-430
▁qu	-431
▁work	-432
▁Ind	-433
rit	-434
ew	-435
ach	-436
ble	-437
▁increas	-438
old	-439
illion	-440
▁19	-441
ert	-442
▁pr	-443
ious	-444
gy	-445
▁many	-446
▁some	-447
▁rem	-448
▁cur	-449
▁EU	-450
▁were	-451
▁em	-452
ces	-453
erv	-454
yst	-455
de	-456
int	-457
ution	-458
▁them	-459
▁St	-460
ital	-461
▁inf	-462
und	-463
▁must	-464
bt	-465
▁app	-466
ause	-467
▁country	-468
▁his	-469
▁ra	-470
▁This	-471
▁economy	-472
lect	-473
ish	-474
av	-475
▁if	-476
ber	-477
▁ar	-478
ang	-479
act	-480
▁And	-481
ough	-482
▁rel	-483
amp	-484
ame	-485
▁201	-486
▁these	-487
eral	-488
▁produ	-489
ons	-490
▁when	-491
ace	-492
▁k	-493
ystem	-494
▁under	-495
▁lar	-496
▁cris	-497
very	-498
▁power	-499
pect	-500
▁tw	-501
uc	-502
rough	-503
arly	-504
▁ro	-505
ms	-506
alth	-507
▁may	-508
ating	-509
▁sc	-510
own	-511
ks	-512
▁intern	-513
erest	-514
we	-515
▁us	-516
ount	-517
▁system	-518
▁fir	-519
▁po	-520
▁te	-521
vent	-522
ese	-523
ass	-524
▁into	-525
cess	-526
▁rep	-527
▁soc	-528
▁Afric	-529
resident	-530
▁time	-531
ory	-532
▁am	-533
▁leaders	-534
▁what	-535
▁cent	-536
▁200	-537
▁much	-538
▁how	-539
ced	-540
▁att	-541
▁act	-542
▁co	-543
per	-544
▁had	-545
▁inst	-546
ild	-547
▁crisis	-548
ob	-549
lud	-550
ond	-551
uss	-552
▁public	-553
▁interest	-554
▁pos	-555
ind	-556
get	-557
ific	-558
▁any	-559
ov	-560
▁ow	-561
olog	-562
ade	-563
.”	-564
▁recent	-565
▁trans	-566
ful	-567
▁high	-568
its	-569
▁just	-570
ient	-571
▁far	-572
▁import	-573
hip	-574
▁real	-575
▁international	-576
ual	-577
ible	-578
ists	-579
imate	-580
▁proble	-581
▁dif	-582
ruct	-583
▁contin	-584
hed	-585
vers	-586
▁United	-587
▁fore	-588
▁mon	-589
hen	-590
▁ac	-591
▁war	-592
▁conf	-593
ization	-594
▁again	-595
ral	-596
urn	-597
▁well	-598
iss	-599
ives	-600
▁because	-601
ics	-602
ase	-603
▁ref	-604
uring	-605
ise	-606
▁support	-607
ok	-608
▁two	-609
ject	-610
read	-611
▁way	-612
ri	-613
▁prov	-614
ax	-615
▁pric	-616
▁Y	-617
▁gen	-618
▁debt	-619
▁those	-620
▁For	-621
▁remain	-622
ween	-623
▁America	-624
oth	-625
ite	-626
pec	-627
iven	-628
ption	-629
lear	-630
iet	-631
vel	-632
ry	-633
▁Chinese	-634
▁less	-635
▁between	-636
▁fact	-637
ward	-638
00	-639
ove	-640
ound	-641
rent	-642
▁end	-643
inist	-644
opul	-645
itt	-646
▁add	-647
ues	-648
▁def	-649
sel	-650
▁ent	-651
chn	-652
any	-653
oll	-654
ration	-655
ize	-656
eed	-657
ice	-658
▁prog	-659
▁mod	-660
▁dep	-661
ene	-662
▁hel	-663
▁des	-664
▁effect	-665
ail	-666
ural	-667
▁while	-668
ures	-669
▁right	-670
▁our	-671
▁capital	-672
aj	-673
ings	-674
ict	-675
▁includ	-676
▁own	-677
▁sec	-678
▁Russ	-679
▁help	-680
term	-681
▁popul	-682
allen	-683
▁large	-684
round	-685
▁On	-686
ince	-687
ability	-688
▁adv	-689
▁first	-690
▁cost	-691
▁sur	-692
led	-693
▁national	-694
▁off	-695
▁change	-696
▁resp	-697
▁Wh	-698
▁requ	-699
aw	-700
▁investment	-701
▁euro	-702
▁techn	-703
▁mem	-704
rib	-705
▁examp	-706
▁ass	-707
ied	-708
▁last	-709
▁trade	-710
▁fund	-711
ential	-712
oun	-713
ump	-714
ajor	-715
▁current	-716
orts	-717
loy	-718
ergy	-719
▁state	-720
▁af	-721
▁sim	-722
▁redu	-723
aking	-724
▁ob	-725
▁bo	-726
▁$	-727
cal	-728
▁result	-729
rat	-730
▁banks	-731
▁sub	-732
utions	-733
▁through	-734
ized	-735
▁Africa	-736
▁reform	-737
▁partic	-738
▁health	-739
ilit	-740
▁Is	-741
▁sign	-742
▁great	-743
▁tax	-744
▁example	-745
▁appro	-746
les	-747
▁against	-748
▁conc	-749
▁major	-750
▁markets	-751
▁seem	-752
▁become	-753
▁both	-754
▁ext	-755
▁Se	-756
▁kn	-757
▁good	-758
gest	-759
DP	-760
▁development	-761
fere	-762
▁go	-763
▁make	-764
▁hum	-765
▁region	-766
▁where	-767
▁challen	-768
▁ke	-769
▁infl	-770
ically	-771
iness	-772
▁If	-773
ram	-774
ging	-775
day	-776
▁cor	-777
ract	-778
▁too	-779
xt	-780
▁aut	-781
▁important	-782
▁Germ	-783
apan	-784
urity	-785
▁after	-786
ting	-787
▁governments	-788
gan	-789
▁democ	-790
▁foreign	-791
▁est	-792
▁rates	-793
▁social	-794
ink	-795
ices	-796
▁lo	-797
omm	-798
▁Tr	-799
▁bu	-800
▁Japan	-801
▁energy	-802
ploy	-803
ather	-804
▁instit	-805
▁economies	-806
ready	-807
▁demand	-808
▁President	-809
▁sol	-810
ater	-811
not	-812
▁strate	-813
▁fut	-814
▁bene	-815
▁fail	-816
▁prom	-817
als	-818
ts	-819
▁emer	-820
ron	-821
▁technolog	-822
ending	-823
▁serv	-824
▁back	-825
▁rest	-826
▁val	-827
usiness	-828
eration	-829
▁dom	-830
▁sa	-831
▁still	-832
▁does	-833
ft	-834
▁prot	-835
▁every	-836
ays	-837
▁today	-838
▁policies	-839
▁future	-840
▁billion	-841
fore	-842
▁GDP	-843
▁States	-844
▁offic	-845
less	-846
ense	-847
▁already	-848
▁That	-849
▁risk	-850
▁More	-851
ision	-852
ath	-853
ning	-854
▁iss	-855
outh	-856
,”	-857
▁ret	-858
ined	-859
ty	-860
▁bas	-861
▁level	-862
▁cour	-863
eg	-864
▁indust	-865
ingly	-866
0%	-867
ually	-868
ten	-869
▁Russia	-870
▁strong	-871
▁use	-872
▁same	-873
▁cred	-874
▁ed	-875
▁3	-876
ians	-877
▁consum	-878
ially	-879
iscal	-880
▁Brit	-881
▁rate	-882
▁equ	-883
▁prop	-884
▁main	-885
iew	-886
▁set	-887
▁human	-888
▁milit	-889
ctor	-890
▁West	-891
etary	-892
▁business	-893
▁benef	-894
ck	-895
▁being	-896
▁problem	-897
▁leg	-898
▁American	-899
▁ins	-900
▁product	-901
ality	-902
▁De	-903
ared	-904
iron	-905
ants	-906
▁sm	-907
▁climate	-908
rast	-909
▁likely	-910
zone	-911
▁disc	-912
ouse	-913
ily	-914
▁ann	-915
▁low	-916
unity	-917
▁short	-918
der	-919
▁differe	-920
▁pur	-921
▁since	-922
▁br	-923
ges	-924
▁Trump	-925
▁el	-926
▁Bank	-927
▁const	-928
),	-929
▁might	-930
ably	-931
other	-932
▁made	-933
hing	-934
▁take	-935
inc	-936
▁elect	-937
▁fiscal	-938
mental	-939
▁regul	-940
ger	-941
ran	-942
ccess	-943
).	-944
▁op	-945
abor	-946
▁see	-947
▁Indeed	-948
▁es	-949
▁priv	-950
▁central	-951
pl	-952
oss	-953
ss	-954
▁term	-955
▁V	-956
▁particul	-957
ving	-958
▁educ	-959
▁point	-960
ness	-961
▁without	-962
ved	-963
tern	-964
imes	-965
ior	-966
▁To	-967
ivers	-968
▁including	-969
ever	-970
▁Asia	-971
▁impro	-972
▁prices	-973
ieve	-974
▁India	-975
▁call	-976
ider	-977
▁threat	-978
▁job	-979
bers	-980
▁med	-981
▁decl	-982
ertain	-983
▁bel	-984
hold	-985
viron	-986
▁better	-987
ines	-988
▁cannot	-989
ged	-990
▁compet	-991
ency	-992
▁neg	-993
▁With	-994
▁reas	-995
▁military	-996
▁ser	-997
▁success	-998
abl	-999
ell	-1000
▁down	-1001
▁stand	-1002
▁vot	-1003
▁Wor	-1004
▁creat	-1005
▁At	-1006
land	-1007
cond	-1008
arch	-1009
▁million	-1010
▁know	-1011
ience	-1012
▁pers	-1013
▁We	-1014
▁supp	-1015
here	-1016
▁Int	-1017
▁poss	-1018
▁agree	-1019
▁expect	-1020
▁quest	-1021
▁aff	-1022
▁hig	-1023
▁states	-1024
▁ter	-1025
stain	-1026
▁fac	-1027
▁often	-1028
▁Al	-1029
ex	-1030
▁eurozone	-1031
anies	-1032
ructure	-1033
▁did	-1034
hor	-1035
▁sustain	-1036
idd	-1037
ents	-1038
ars	-1039
▁imm	-1040
▁contro	-1041
▁start	-1042
▁environ	-1043
▁ide	-1044
ollow	-1045
▁toward	-1046
cept	-1047
▁dire	-1048
▁dist	-1049
▁three	-1050
▁another	-1051
▁security	-1052
uel	-1053
ources	-1054
▁ev	-1055
lement	-1056
▁process	-1057
▁clo	-1058
ately	-1059
▁hist	-1060
ered	-1061
▁account	-1062
▁course	-1063
▁arg	-1064
▁approach	-1065
▁Union	-1066
ivity	-1067
▁cre	-1068
▁Germany	-1069
▁There	-1070
ute	-1071
ployment	-1072
▁ap	-1073
li	-1074
▁They	-1075
▁Comm	-1076
▁East	-1077
▁order	-1078
ury	-1079
▁move	-1080
▁past	-1081
▁pres	-1082
▁companies	-1083
▁then	-1084
iving	-1085
▁hard	-1086
ross	-1087
uclear	-1088
▁pot	-1089
▁child	-1090
▁turn	-1091
▁loc	-1092
▁put	-1093
ades	-1094
▁few	-1095
▁ant	-1096
orth	-1097
▁trad	-1098
rem	-1099
racy	-1100
ocus	-1101
▁pay	-1102
▁very	-1103
self	-1104
▁opport	-1105
cing	-1106
omen	-1107
▁meas	-1108
▁law	-1109
▁ine	-1110
▁next	-1111
▁curren	-1112
▁So	-1113
▁ens	-1114
▁view	-1115
road	-1116
▁among	-1117
por	-1118
▁address	-1119
stand	-1120
▁before	-1121
▁South	-1122
ivid	-1123
▁around	-1124
▁av	-1125
▁rev	-1126
▁institutions	-1127
▁official	-1128
▁follow	-1129
▁World	-1130
▁allow	-1131
▁Re	-1132
osed	-1133
▁least	-1134
▁5	-1135
ued	-1136
▁tar	-1137
▁protect	-1138
▁focus	-1139
▁Moreover	-1140
▁increase	-1141
▁rul	-1142
▁president	-1143
roup	-1144
▁lim	-1145
▁eas	-1146
▁private	-1147
ening	-1148
ves	-1149
ph	-1150
▁Iran	-1151
▁inn	-1152
▁chang	-1153
▁ach	-1154
▁role	-1155
oney	-1156
▁exper	-1157
ick	-1158
▁adm	-1159
▁plan	-1160
▁monetary	-1161
▁income	-1162
▁potential	-1163
most	-1164
▁needs	-1165
▁car	-1166
estic	-1167
▁press	-1168
itions	-1169
▁199	-1170
uge	-1171
▁labor	-1172
▁num	-1173
▁defic	-1174
▁lif	-1175
▁author	-1176
▁Fr	-1177
▁problems	-1178
iddle	-1179
rug	-1180
vere	-1181
▁ful	-1182
▁weak	-1183
▁play	-1184
ying	-1185
urther	-1186
▁prof	-1187
▁credit	-1188
ead	-1189
ages	-1190
▁nuclear	-1191
io	-1192
▁form	-1193
▁Fed	-1194
up	-1195
ively	-1196
▁developing	-1197
ances	-1198
lection	-1199
▁rise	-1200
pecially	-1201
▁inflation	-1202
▁whether	-1203
▁signific	-1204
ibility	-1205
▁Intern	-1206
aps	-1207
▁higher	-1208
aly	-1209
ama	-1210
ret	-1211
▁mat	-1212
▁establ	-1213
gin	-1214
▁opp	-1215
▁project	-1216
ining	-1217
ratic	-1218
ering	-1219
ittle	-1220
▁model	-1221
▁spec	-1222
▁rather	-1223
▁money	-1224
▁though	-1225
▁domestic	-1226
▁education	-1227
for	-1228
▁clear	-1229
▁needed	-1230
▁members	-1231
▁share	-1232
ush	-1233
▁sector	-1234
ix	-1235
ner	-1236
▁treat	-1237
▁Ob	-1238
▁beh	-1239
olution	-1240
▁remains	-1241
air	-1242
▁vi	-1243
▁gener	-1244
▁crit	-1245
▁case	-1246
ases	-1247
ished	-1248
ission	-1249
itional	-1250
▁services	-1251
▁gu	-1252
▁run	-1253
▁little	-1254
▁especially	-1255
ted	-1256
▁bal	-1257
▁costs	-1258
0,	-1259
akes	-1260
▁societ	-1261
▁access	-1262
▁progress	-1263
com	-1264
▁continue	-1265
▁key	-1266
ling	-1267
rael	-1268
ficult	-1269
inister	-1270
ogn	-1271
▁non	-1272
▁difficult	-1273
istan	-1274
▁innov	-1275
▁significant	-1276
▁4	-1277
▁rese	-1278
change	-1279
aus	-1280
▁par	-1281
▁concern	-1282
▁hal	-1283
▁When	-1284
▁efforts	-1285
▁show	-1286
▁doll	-1287
ork	-1288
ened	-1289
▁pros	-1290
pid	-1291
▁Kore	-1292
▁different	-1293
▁asse	-1294
imin	-1295
▁month	-1296
aim	-1297
ides	-1298
formation	-1299
acy	-1300
▁decades	-1301
anced	-1302
ock	-1303
▁meet	-1304
▁peace	-1305
▁ph	-1306
▁reason	-1307
▁ren	-1308
▁dr	-1309
▁means	-1310
▁emerging	-1311
▁industr	-1312
▁fe	-1313
izing	-1314
▁small	-1315
▁come	-1316
▁free	-1317
▁cit	-1318
▁big	-1319
▁build	-1320
▁group	-1321
▁Israel	-1322
ird	-1323
▁cut	-1324
▁find	-1325
▁control	-1326
rastructure	-1327
▁spending	-1328
itive	-1329
▁suff	-1330
▁why	-1331
idence	-1332
rop	-1333
▁relations	-1334
▁stud	-1335
▁simp	-1336
▁respons	-1337
▁happ	-1338
cies	-1339
▁poor	-1340
▁during	-1341
▁further	-1342
▁get	-1343
▁local	-1344
oti	-1345
▁cond	-1346
▁price	-1347
▁increasingly	-1348
▁appe	-1349
▁growing	-1350
▁conflic	-1351
arm	-1352
▁eng	-1353
▁care	-1354
▁integ	-1355
▁women	-1356
▁Obama	-1357
▁requi	-1358
ata	-1359
▁col	-1360
▁He	-1361
wh	-1362
reng	-1363
▁init	-1364
▁gain	-1365
▁fall	-1366
ators	-1367
ave	-1368
rate	-1369
▁ago	-1370
ash	-1371
vious	-1372
▁question	-1373
▁say	-1374
▁deep	-1375
▁require	-1376
▁currency	-1377
▁target	-1378
▁An	-1379
▁Yet	-1380
▁citiz	-1381
unities	-1382
▁resources	-1383
ON	-1384
pite	-1385
reed	-1386
sequ	-1387
▁challenges	-1388
▁longer	-1389
▁reforms	-1390
▁almost	-1391
▁One	-1392
▁Rep	-1393
▁fam	-1394
▁streng	-1395
ror	-1396
▁within	-1397
▁slow	-1398
icient	-1399
▁best	-1400
▁serious	-1401
▁infrastructure	-1402
▁however	-1403
0.	-1404
▁yet	-1405
ording	-1406
▁strateg	-1407
▁given	-1408
▁prevent	-1409
▁recently	-1410
ale	-1411
▁oil	-1412
▁Part	-1413
▁mass	-1414
▁shif	-1415
▁youn	-1416
▁recogn	-1417
▁hold	-1418
ention	-1419
▁seems	-1420
pris	-1421
▁lib	-1422
▁itself	-1423
▁return	-1424
▁benefits	-1425
▁viol	-1426
▁negoti	-1427
▁greater	-1428
▁population	-1429
▁her	-1430
lam	-1431
▁ur	-1432
▁event	-1433
way	-1434
rab	-1435
▁contrib	-1436
ased	-1437
ners	-1438
▁organ	-1439
akers	-1440
5%	-1441
acc	-1442
▁tru	-1443
▁lack	-1444
▁found	-1445
▁house	-1446
▁comple	-1447
▁second	-1448
▁nat	-1449
▁enough	-1450
verage	-1451
yn	-1452
▁others	-1453
▁consider	-1454
▁6	-1455
▁After	-1456
▁While	-1457
▁By	-1458
udget	-1459
▁lower	-1460
▁particularly	-1461
hes	-1462
▁think	-1463
▁These	-1464
▁rapid	-1465
▁democracy	-1466
ool	-1467
▁pat	-1468
ences	-1469
▁claim	-1470
te	-1471
▁home	-1472
▁want	-1473
▁er	-1474
epend	-1475
▁common	-1476
aving	-1477
▁citizens	-1478
▁Be	-1479
▁sug	-1480
▁workers	-1481
ned	-1482
▁France	-1483
▁impact	-1484
ai	-1485
ivil	-1486
ateral	-1487
▁rights	-1488
cent	-1489
▁bor	-1490
▁pred	-1491
▁cho	-1492
ope	-1493
▁terms	-1494
▁understand	-1495
▁UK	-1496
▁half	-1497
▁member	-1498
nce	-1499
omet	-1500
▁caus	-1501
ession	-1502
ier	-1503
▁interests	-1504
▁my	-1505
ided	-1506
▁camp	-1507
▁children	-1508
tain	-1509
▁value	-1510
▁create	-1511
▁report	-1512
▁War	-1513
▁cle	-1514
000	-1515
ither	-1516
▁strategy	-1517
lus	-1518
▁coop	-1519
where	-1520
▁hand	-1521
▁election	-1522
▁investors	-1523
▁data	-1524
▁used	-1525
▁African	-1526
▁land	-1527
▁direct	-1528
▁number	-1529
▁mult	-1530
▁post	-1531
▁administ	-1532
▁broad	-1533
▁budget	-1534
▁coll	-1535
▁gr	-1536
atic	-1537
ield	-1538
▁Cent	-1539
selves	-1540
makers	-1541
▁suggest	-1542
▁depend	-1543
▁ensure	-1544
▁improve	-1545
▁she	-1546
▁reduce	-1547
▁certain	-1548
rime	-1549
▁New	-1550
▁provide	-1551
▁occ	-1552
▁risks	-1553
▁you	-1554
▁oper	-1555
ug	-1556
onal	-1557
▁Con	-1558
▁jobs	-1559
ipl	-1560
be	-1561
the	-1562
atives	-1563
▁implement	-1564
▁Even	-1565
ression	-1566
▁Arab	-1567
▁mean	-1568
▁spe	-1569
▁never	-1570
▁simil	-1571
empt	-1572
▁Ar	-1573
▁rising	-1574
lf	-1575
▁Korea	-1576
▁min	-1577
▁leadership	-1578
▁Gree	-1579
▁young	-1580
▁fl	-1581
▁Tur	-1582
▁force	-1583
▁open	-1584
▁Western	-1585
▁Sp	-1586
▁face	-1587
▁levels	-1588
▁step	-1589
overty	-1590
iod	-1591
▁life	-1592
iqu	-1593
oura	-1594
▁possible	-1595
▁relative	-1596
like	-1597
▁thus	-1598
▁Britain	-1599
▁reflect	-1600
▁place	-1601
▁measures	-1602
▁each	-1603
▁civil	-1604
▁bond	-1605
yr	-1606
▁dev	-1607
ilateral	-1608
▁regional	-1609
vention	-1610
ards	-1611
ived	-1612
▁Fin	-1613
▁systems	-1614
▁deal	-1615
come	-1616
▁left	-1617
▁enc	-1618
▁rules	-1619
▁exchange	-1620
▁agreement	-1621
▁bl	-1622
▁tal	-1623
▁action	-1624
▁fuel	-1625
▁commit	-1626
▁technology	-1627
chool	-1628
gent	-1629
▁individ	-1630
haps	-1631
▁2008	-1632
▁British	-1633
▁finance	-1634
oint	-1635
▁begin	-1636
▁cult	-1637
▁terror	-1638
▁food	-1639
▁consequ	-1640
emoc	-1641
bon	-1642
aged	-1643
ceed	-1644
▁disp	-1645
▁politics	-1646
▁char	-1647
▁challenge	-1648
yond	-1649
▁effective	-1650
man	-1651
gether	-1652
▁together	-1653
ah	-1654
▁struct	-1655
▁Pol	-1656
▁fear	-1657
▁purs	-1658
lation	-1659
▁former	-1660
ik	-1661
▁Sh	-1662
▁research	-1663
▁productivity	-1664
▁ever	-1665
▁stat	-1666
▁attack	-1667
then	-1668
▁ear	-1669
▁dest	-1670
▁net	-1671
▁him	-1672
▁individual	-1673
ified	-1674
ination	-1675
▁poverty	-1676
▁consumption	-1677
▁funda	-1678
just	-1679
issions	-1680
ee	-1681
▁Republic	-1682
▁issues	-1683
▁balance	-1684
▁Sec	-1685
▁across	-1686
▁dou	-1687
▁boost	-1688
ront	-1689
▁met	-1690
-2	-1691
abil	-1692
ming	-1693
side	-1694
▁che	-1695
▁deb	-1696
▁stability	-1697
ban	-1698
▁blo	-1699
acity	-1700
▁dang	-1701
▁influ	-1702
▁What	-1703
▁four	-1704
▁wealth	-1705
ised	-1706
▁gra	-1707
▁necess	-1708
▁household	-1709
▁themselves	-1710
▁old	-1711
▁comb	-1712
▁head	-1713
conomic	-1714
▁increased	-1715
▁initi	-1716
oid	-1717
aken	-1718
▁7	-1719
▁X	-1720
▁anti	-1721
▁pract	-1722
▁repres	-1723
▁expl	-1724
though	-1725
▁manage	-1726
▁dollar	-1727
▁En	-1728
uation	-1729
irst	-1730
aign	-1731
▁bring	-1732
▁saf	-1733
▁unt	-1734
▁decision	-1735
▁strengthen	-1736
▁tot	-1737
▁look	-1738
▁accept	-1739
▁exist	-1740
▁fight	-1741
▁community	-1742
RI	-1743
ys	-1744
▁annual	-1745
▁program	-1746
az	-1747
raw	-1748
▁times	-1749
ins	-1750
▁firms	-1751
▁achieve	-1752
▁$1	-1753
▁early	-1754
▁campaign	-1755
▁extrem	-1756
▁ru	-1757
▁developed	-1758
▁Of	-1759
istic	-1760
▁making	-1761
▁UN	-1762
▁top	-1763
▁news	-1764
▁based	-1765
▁export	-1766
igration	-1767
▁history	-1768
dom	-1769
▁sl	-1770
▁similar	-1771
ium	-1772
erve	-1773
rodu	-1774
ways	-1775
▁period	-1776
▁promot	-1777
▁conflict	-1778
fact	-1779
▁believe	-1780
▁able	-1781
▁sk	-1782
▁society	-1783
▁la	-1784
quality	-1785
▁modern	-1786
reak	-1787
▁areas	-1788
ruption	-1789
▁emb	-1790
veral	-1791
▁once	-1792
0’	-1793
▁North	-1794
▁politic	-1795
▁sure	-1796
▁Islam	-1797
▁somet	-1798
kra	-1799
▁officials	-1800
ler	-1801
▁maintain	-1802
▁International	-1803
▁led	-1804
▁sing	-1805
raq	-1806
▁Syr	-1807
▁water	-1808
▁borrow	-1809
▁cr	-1810
ource	-1811
ricult	-1812
▁entire	-1813
▁largest	-1814
▁establish	-1815
raz	-1816
▁Central	-1817
cial	-1818
▁five	-1819
iation	-1820
▁sense	-1821
▁policymakers	-1822
rex	-1823
▁amount	-1824
CB	-1825
▁gre	-1826
▁Iraq	-1827
▁keep	-1828
▁environmental	-1829
▁true	-1830
▁becom	-1831
▁dise	-1832
▁close	-1833
rupt	-1834
▁corpor	-1835
▁century	-1836
igr	-1837
▁Ukra	-1838
yp	-1839
omp	-1840
▁Inst	-1841
▁administration	-1842
cil	-1843
▁bord	-1844
▁information	-1845
illions	-1846
▁average	-1847
den	-1848
▁Res	-1849
▁sit	-1850
▁encoura	-1851
▁effects	-1852
▁working	-1853
▁advanced	-1854
ief	-1855
▁unem	-1856
▁Party	-1857
▁hope	-1858
▁issue	-1859
▁decade	-1860
▁adop	-1861
▁simply	-1862
▁liberal	-1863
onse	-1864
▁deficit	-1865
▁Cl	-1866
ufact	-1867
isions	-1868
▁Democ	-1869
▁aim	-1870
arent	-1871
▁rece	-1872
▁total	-1873
▁Afgh	-1874
▁said	-1875
▁cooperation	-1876
▁opportunity	-1877
aster	-1878
▁independ	-1879
▁dam	-1880
▁Middle	-1881
▁Minister	-1882
▁else	-1883
▁changes	-1884
key	-1885
▁conditions	-1886
aring	-1887
▁198	-1888
rench	-1889
▁loss	-1890
utional	-1891
mm	-1892
rag	-1893
▁parties	-1894
▁reach	-1895
▁forces	-1896
▁Some	-1897
▁sovere	-1898
ean	-1899
▁Pro	-1900
▁seek	-1901
▁pressure	-1902
▁production	-1903
▁regime	-1904
▁recover	-1905
ify	-1906
▁All	-1907
razil	-1908
▁refuge	-1909
pped	-1910
▁Afghan	-1911
▁response	-1912
ival	-1913
▁unc	-1914
▁danger	-1915
▁manufact	-1916
▁position	-1917
▁expand	-1918
▁union	-1919
▁despite	-1920
▁capacity	-1921
▁industry	-1922
▁abs	-1923
▁requires	-1924
▁ECB	-1925
▁Or	-1926
▁lear	-1927
▁rule	-1928
▁single	-1929
arian	-1930
▁full	-1931
▁oppos	-1932
▁employment	-1933
uing	-1934
to	-1935
▁coal	-1936
▁regard	-1937
wise	-1938
ising	-1939
▁Turkey	-1940
▁industrial	-1941
rexit	-1942
▁several	-1943
▁done	-1944
▁school	-1945
lia	-1946
▁supply	-1947
▁Develop	-1948
▁effort	-1949
iversity	-1950
▁created	-1951
▁vis	-1952
▁environment	-1953
▁don	-1954
▁mar	-1955
ctions	-1956
▁8	-1957
▁Par	-1958
▁subst	-1959
▁emissions	-1960
▁Cong	-1961
ruction	-1962
▁Acc	-1963
▁ess	-1964
▁sustainable	-1965
ina	-1966
,000	-1967
gypt	-1968
incip	-1969
▁always	-1970
min	-1971
▁Italy	-1972
▁innovation	-1973
▁Egypt	-1974
▁Brazil	-1975
oral	-1976
ended	-1977
iting	-1978
▁Asian	-1979
▁tre	-1980
aging	-1981
ortun	-1982
▁histor	-1983
cl	-1984
based	-1985
▁vict	-1986
▁test	-1987
▁leading	-1988
▁Americans	-1989
▁flow	-1990
▁avoid	-1991
▁invol	-1992
▁called	-1993
▁massive	-1994
wide	-1995
▁alone	-1996
▁media	-1997
ring	-1998
▁exports	-1999
▁consequences	-2000
atory	-2001
▁assum	-2002
▁banking	-2003
▁predict	-2004
utin	-2005
▁bad	-2006
▁democratic	-2007
cut	-2008
▁perform	-2009
▁princip	-2010
▁agricult	-2011
▁AI	-2012
ills	-2013
imul	-2014
▁ident	-2015
rated	-2016
ds	-2017
▁day	-2018
▁King	-2019
down	-2020
▁shift	-2021
▁Commission	-2022
lt	-2023
▁kind	-2024
▁norm	-2025
▁unemployment	-2026
ends	-2027
ched	-2028
alest	-2029
▁clos	-2030
▁structural	-2031
▁death	-2032
▁politicians	-2033
▁funds	-2034
iveness	-2035
▁excess	-2036
▁unlike	-2037
▁strategic	-2038
rams	-2039
iplom	-2040
▁Cons	-2041
▁ways	-2042
ighb	-2043
▁scient	-2044
▁respect	-2045
ured	-2046
▁taken	-2047
▁whose	-2048
▁expected	-2049
▁cy	-2050
▁Fund	-2051
▁transp	-2052
▁partners	-2053
▁trillion	-2054
▁poll	-2055
▁Greece	-2056
▁Le	-2057
▁failed	-2058
ortunately	-2059
▁self	-2060
▁cause	-2061
▁French	-2062
▁prosper	-2063
line	-2064
oday	-2065
ently	-2066
▁beyond	-2067
▁opportunities	-2068
reg	-2069
▁stimul	-2070
ensive	-2071
▁technologies	-2072
by	-2073
rong	-2074
itted	-2075
▁goods	-2076
▁Global	-2077
▁particular	-2078
▁air	-2079
ctors	-2080
▁makes	-2081
▁party	-2082
liament	-2083
▁authorities	-2084
▁voters	-2085
▁Ukraine	-2086
▁largely	-2087
▁agg	-2088
▁Bush	-2089
▁prob	-2090
▁Today	-2091
▁nearly	-2092
▁fav	-2093
▁decline	-2094
▁aid	-2095
▁drug	-2096
▁lives	-2097
lim	-2098
rad	-2099
▁values	-2100
▁Such	-2101
▁investments	-2102
edi	-2103
lev	-2104
▁bar	-2105
▁projects	-2106
ne	-2107
alled	-2108
▁successful	-2109
nect	-2110
▁Nations	-2111
ented	-2112
▁diplom	-2113
▁incent	-2114
rec	-2115
▁particip	-2116
▁essential	-2117
enda	-2118
▁governance	-2119
▁powerful	-2120
▁programs	-2121
▁tem	-2122
▁prec	-2123
▁dig	-2124
▁underm	-2125
▁economists	-2126
▁mov	-2127
▁ten	-2128
ories	-2129
▁fram	-2130
▁increasing	-2131
▁2015	-2132
▁having	-2133
▁object	-2134
ien	-2135
▁Brexit	-2136
▁ability	-2137
▁According	-2138
▁began	-2139
fer	-2140
▁constit	-2141
▁Ag	-2142
iding	-2143
market	-2144
▁until	-2145
▁Z	-2146
▁counter	-2147
mber	-2148
▁opt	-2149
▁Many	-2150
▁Palest	-2151
▁popular	-2152
▁experience	-2153
oment	-2154
▁trend	-2155
▁continent	-2156
▁integration	-2157
▁rich	-2158
put	-2159
▁Bar	-2160
▁activ	-2161
▁altern	-2162
▁neighb	-2163
sw	-2164
▁Given	-2165
▁inequality	-2166
▁Development	-2167
▁class	-2168
istance	-2169
▁subs	-2170
▁determ	-2171
▁fundamental	-2172
verse	-2173
▁Prime	-2174
oh	-2175
ream	-2176
▁del	-2177
▁vol	-2178
▁lost	-2179
▁prior	-2180
▁quick	-2181
▁9	-2182
rade	-2183
▁ill	-2184
▁reven	-2185
force	-2186
▁months	-2187
▁gas	-2188
ights	-2189
▁doing	-2190
▁affect	-2191
▁attempt	-2192
▁natural	-2193
▁perhaps	-2194
▁197	-2195
▁respond	-2196
▁soon	-2197
▁cities	-2198
▁Kingdom	-2199
▁Now	-2200
▁Putin	-2201
▁Congress	-2202
arily	-2203
while	-2204
reedom	-2205
ternal	-2206
▁assets	-2207
▁mis	-2208
▁var	-2209
▁violence	-2210
▁necessary	-2211
▁traditional	-2212
▁leader	-2213
▁relationship	-2214
▁win	-2215
▁German	-2216
▁groups	-2217
▁Russian	-2218
bi	-2219
▁farm	-2220
▁prim	-2221
▁owing	-2222
1,	-2223
head	-2224
ored	-2225
▁May	-2226
▁weap	-2227
▁stock	-2228
▁Xi	-2229
icy	-2230
set	-2231
lies	-2232
▁comes	-2233
▁domin	-2234
▁design	-2235
ape	-2236
ledge	-2237
▁evidence	-2238
▁influence	-2239
▁bur	-2240
uted	-2241
▁path	-2242
▁elections	-2243
▁mob	-2244
▁obs	-2245
▁estim	-2246
▁highly	-2247
▁Mon	-2248
▁Coun	-2249
▁along	-2250
▁debate	-2251
▁moment	-2252
ember	-2253
▁goal	-2254
▁advant	-2255
ym	-2256
akistan	-2257
▁National	-2258
▁Afghanistan	-2259
▁away	-2260
▁attention	-2261
hood	-2262
▁unp	-2263
▁idea	-2264
▁break	-2265
▁behind	-2266
▁taking	-2267
▁sav	-2268
▁enter	-2269
ulner	-2270
▁benefit	-2271
▁Council	-2272
AN	-2273
ously	-2274
▁previous	-2275
▁ask	-2276
lying	-2277
thing	-2278
▁First	-2279
▁bonds	-2280
ton	-2281
urs	-2282
▁ge	-2283
ises	-2284
▁Syria	-2285
▁propos	-2286
▁demon	-2287
▁financing	-2288
▁pass	-2289
▁Pe	-2290
chan	-2291
▁corruption	-2292
▁indic	-2293
▁wrong	-2294
▁avail	-2295
▁later	-2296
▁third	-2297
▁adjust	-2298
▁sw	-2299
▁live	-2300
izations	-2301
▁discuss	-2302
▁surpris	-2303
MF	-2304
irc	-2305
▁amb	-2306
▁san	-2307
▁living	-2308
▁Q	-2309
▁cat	-2310
▁rat	-2311
▁recovery	-2312
omb	-2313
▁1.	-2314
aced	-2315
▁ult	-2316
▁manufacturing	-2317
▁framew	-2318
▁complex	-2319
▁Pakistan	-2320
▁external	-2321
▁exc	-2322
▁feel	-2323
▁agenda	-2324
▁vulner	-2325
▁probably	-2326
▁wide	-2327
▁middle	-2328
▁failure	-2329
▁contrast	-2330
rep	-2331
▁vir	-2332
▁achie	-2333
▁status	-2334
▁substant	-2335
▁coming	-2336
▁majority	-2337
▁recession	-2338
▁uncertain	-2339
uslim	-2340
▁extreme	-2341
▁meeting	-2342
▁nothing	-2343
▁solution	-2344
▁IMF	-2345
oring	-2346
▁give	-2347
▁cases	-2348
▁actually	-2349
▁huge	-2350
▁legit	-2351
med	-2352
▁wee	-2353
▁using	-2354
ulation	-2355
▁record	-2356
▁include	-2357
rats	-2358
igrants	-2359
▁things	-2360
▁eth	-2361
▁demonst	-2362
▁jo	-2363
▁argu	-2364
▁represent	-2365
▁lat	-2366
▁How	-2367
▁worse	-2368
▁willing	-2369
▁perm	-2370
▁green	-2371
▁territ	-2372
▁reality	-2373
▁commun	-2374
▁immedi	-2375
▁attract	-2376
▁situation	-2377
▁rad	-2378
▁nar	-2379
▁commitment	-2380
▁ve	-2381
erty	-2382
vest	-2383
minbi	-2384
▁larger	-2385
TO	-2386
erves	-2387
▁prospect	-2388
imately	-2389
▁collect	-2390
▁solutions	-2391
▁standards	-2392
go	-2393
leg	-2394
▁NE	-2395
▁Europeans	-2396
▁revolution	-2397
▁taxes	-2398
▁Muslim	-2399
▁Like	-2400
▁seen	-2401
itable	-2402
▁produce	-2403
▁decisions	-2404
ets	-2405
▁held	-2406
▁renew	-2407
▁Ab	-2408
olit	-2409
ters	-2410
▁rein	-2411
rought	-2412
▁legal	-2413
▁relig	-2414
itarian	-2415
▁announ	-2416
▁carbon	-2417
▁Instead	-2418
▁freedom	-2419
▁corporate	-2420
▁generation	-2421
▁circ	-2422
▁kill	-2423
▁behav	-2424
▁either	-2425
▁subsid	-2426
▁limited	-2427
▁pow	-2428
▁asset	-2429
rict	-2430
rugg	-2431
▁den	-2432
ensus	-2433
▁shar	-2434
chanism	-2435
▁reducing	-2436
▁-	-2437
▁Ge	-2438
year	-2439
▁cru	-2440
uster	-2441
▁read	-2442
ancing	-2443
called	-2444
ification	-2445
▁competition	-2446
▁NEW	-2447
▁fed	-2448
arter	-2449
▁employ	-2450
▁really	-2451
▁renminbi	-2452
ired	-2453
▁answ	-2454
▁late	-2455
income	-2456
OR	-2457
sh	-2458
tle	-2459
▁science	-2460
▁easy	-2461
▁expert	-2462
agn	-2463
utes	-2464
▁ign	-2465
▁vote	-2466
▁strugg	-2467
het	-2468
▁di	-2469
▁purch	-2470
▁ground	-2471
▁general	-2472
▁Ex	-2473
▁words	-2474
▁became	-2475
▁expans	-2476
▁digital	-2477
ung	-2478
▁Sim	-2479
▁2014	-2480
▁resol	-2481
▁Palestin	-2482
▁deficits	-2483
▁arr	-2484
DG	-2485
▁z	-2486
▁favor	-2487
▁weapons	-2488
▁urban	-2489
▁defense	-2490
▁deli	-2491
▁introdu	-2492
▁concerns	-2493
▁elsewhere	-2494
arant	-2495
▁indeed	-2496
▁products	-2497
▁Ad	-2498
▁Sc	-2499
▁2013	-2500
▁prep	-2501
▁explain	-2502
▁currently	-2503
▁businesses	-2504
▁relatively	-2505
rel	-2506
▁conv	-2507
▁powers	-2508
▁funding	-2509
▁Lat	-2510
▁dyn	-2511
▁laun	-2512
▁miss	-2513
ception	-2514
▁Argent	-2515
▁severe	-2516
▁Internet	-2517
▁above	-2518
▁ce	-2519
▁took	-2520
ological	-2521
▁something	-2522
▁established	-2523
use	-2524
plus	-2525
▁hous	-2526
▁sharp	-2527
▁art	-2528
▁Spain	-2529
▁univers	-2530
▁movement	-2531
onald	-2532
ension	-2533
▁quickly	-2534
▁following	-2535
▁protection	-2536
▁performance	-2537
▁negotiations	-2538
ached	-2539
▁heav	-2540
▁sectors	-2541
▁18	-2542
▁mind	-2543
ody	-2544
▁jud	-2545
▁Mean	-2546
▁guarant	-2547
▁worldwide	-2548
orn	-2549
ature	-2550
oviet	-2551
▁dram	-2552
▁disease	-2553
▁millions	-2554
▁organizations	-2555
▁tool	-2556
▁refere	-2557
▁Can	-2558
▁Although	-2559
▁Japanese	-2560
▁Meanwhile	-2561
▁prosperity	-2562
▁near	-2563
▁matter	-2564
▁unlikely	-2565
▁continues	-2566
▁additional	-2567
▁presidential	-2568
▁repl	-2569
making	-2570
▁known	-2571
▁results	-2572
▁industries	-2573
▁responsibility	-2574
aid	-2575
ustr	-2576
▁mist	-2577
uth	-2578
▁offer	-2579
▁expansion	-2580
▁households	-2581
app	-2582
erb	-2583
▁obvious	-2584
▁beginning	-2585
osing	-2586
▁Most	-2587
▁stop	-2588
▁below	-2589
▁surplus	-2590
▁certainly	-2591
ya	-2592
ici	-2593
▁Per	-2594
▁link	-2595
▁crises	-2596
▁refugees	-2597
▁mechanism	-2598
▁confidence	-2599
kn	-2600
sp	-2601
crib	-2602
hest	-2603
iated	-2604
▁source	-2605
▁behavior	-2606
ane	-2607
▁Latin	-2608
▁occur	-2609
▁vision	-2610
▁critical	-2611
▁framework	-2612
ech	-2613
ones	-2614
▁line	-2615
▁opposition	-2616
▁globalization	-2617
ator	-2618
rary	-2619
▁six	-2620
ressed	-2621
▁ahead	-2622
▁becoming	-2623
▁positive	-2624
▁available	-2625
care	-2626
▁technological	-2627
▁Sw	-2628
exic	-2629
▁fair	-2630
▁div	-2631
▁Great	-2632
▁Since	-2633
ressive	-2634
▁output	-2635
▁sovereign	-2636
▁transition	-2637
7,	-2638
ried	-2639
iance	-2640
ordin	-2641
bo	-2642
ots	-2643
▁mort	-2644
▁trou	-2645
urance	-2646
▁legis	-2647
▁Economic	-2648
▁creating	-2649
▁alternative	-2650
erc	-2651
ext	-2652
▁ir	-2653
▁dynam	-2654
unction	-2655
▁Federal	-2656
-1	-2657
phas	-2658
▁uns	-2659
▁boom	-2660
▁side	-2661
▁let	-2662
▁mess	-2663
▁spread	-2664
hem	-2665
▁Mexic	-2666
▁State	-2667
▁cover	-2668
▁gains	-2669
▁caused	-2670
▁factors	-2671
▁reserves	-2672
ogra	-2673
part	-2674
▁age	-2675
▁fig	-2676
▁typ	-2677
▁rough	-2678
▁scale	-2679
▁continued	-2680
▁communities	-2681
▁institutional	-2682
ees	-2683
▁15	-2684
iment	-2685
▁clearly	-2686
▁overall	-2687
▁existing	-2688
▁recognize	-2689
▁management	-2690
▁mere	-2691
▁sent	-2692
▁tend	-2693
▁loans	-2694
▁according	-2695
2,	-2696
IN	-2697
apse	-2698
▁cand	-2699
▁creation	-2700
ries	-2701
▁thing	-2702
usterity	-2703
▁stronger	-2704
lin	-2705
▁special	-2706
▁Monetary	-2707
▁jour	-2708
▁doubt	-2709
▁afford	-2710
▁commod	-2711
▁distrib	-2712
▁incentives	-2713
oph	-2714
ular	-2715
ients	-2716
▁surv	-2717
▁raise	-2718
▁helped	-2719
▁consumer	-2720
fortunately	-2721
loc	-2722
une	-2723
eria	-2724
▁host	-2725
▁reasons	-2726
▁minister	-2727
▁knowledge	-2728
osp	-2729
▁fle	-2730
▁summ	-2731
▁saving	-2732
▁federal	-2733
▁quality	-2734
emic	-2735
ancer	-2736
ology	-2737
▁forward	-2738
af	-2739
ero	-2740
▁Des	-2741
▁gradu	-2742
ilities	-2743
equ	-2744
▁inev	-2745
▁Security	-2746
▁NA	-2747
lier	-2748
omin	-2749
▁leave	-2750
▁emphas	-2751
▁building	-2752
▁competit	-2753
▁advantage	-2754
ograph	-2755
▁imper	-2756
▁imposs	-2757
▁skills	-2758
▁cal	-2759
iquid	-2760
▁writ	-2761
▁Second	-2762
▁stimulus	-2763
hel	-2764
omes	-2765
▁suc	-2766
retary	-2767
▁Soviet	-2768
▁candid	-2769
▁company	-2770
▁rapidly	-2771
ault	-2772
▁came	-2773
▁study	-2774
%.	-2775
of	-2776
iter	-2777
ortion	-2778
▁basic	-2779
▁divid	-2780
▁succeed	-2781
els	-2782
acro	-2783
▁rob	-2784
▁harm	-2785
▁famil	-2786
▁flows	-2787
▁models	-2788
aud	-2789
ustain	-2790
▁answer	-2791
▁outcome	-2792
▁det	-2793
▁twent	-2794
▁shared	-2795
▁protest	-2796
pol	-2797
work	-2798
▁deg	-2799
account	-2800
▁warming	-2801
▁contract	-2802
▁everyone	-2803
%,	-2804
▁2016	-2805
▁family	-2806
▁ste	-2807
▁repe	-2808
▁center	-2809
▁forced	-2810
▁outside	-2811
▁collapse	-2812
▁Ken	-2813
▁trust	-2814
▁points	-2815
▁connect	-2816
▁treatment	-2817
-20	-2818
▁No	-2819
hens	-2820
▁won	-2821
▁basis	-2822
▁negative	-2823
▁sanctions	-2824
mp	-2825
off	-2826
ware	-2827
▁Lib	-2828
aries	-2829
lling	-2830
▁soft	-2831
action	-2832
▁Barack	-2833
▁Govern	-2834
▁effectively	-2835
SE	-2836
▁Mar	-2837
▁wat	-2838
▁Geor	-2839
▁engage	-2840
▁facing	-2841
▁focused	-2842
nces	-2843
gence	-2844
▁impossible	-2845
ilt	-2846
aper	-2847
▁men	-2848
▁mid	-2849
celer	-2850
▁cuts	-2851
▁choice	-2852
▁Argentina	-2853
▁enterpris	-2854
DS	-2855
▁Dep	-2856
▁fast	-2857
▁ideas	-2858
▁required	-2859
▁transform	-2860
bol	-2861
▁worth	-2862
▁Donald	-2863
▁chance	-2864
▁Reserve	-2865
▁savings	-2866
▁consumers	-2867
right	-2868
▁assoc	-2869
▁extra	-2870
▁allowed	-2871
▁constra	-2872
▁reached	-2873
▁roughly	-2874
unt	-2875
▁clean	-2876
▁elimin	-2877
▁borders	-2878
▁internal	-2879
▁personal	-2880
▁austerity	-2881
▁emp	-2882
▁critic	-2883
▁equity	-2884
▁experien	-2885
▁economics	-2886
▁regulatory	-2887
lig	-2888
▁flo	-2889
▁area	-2890
ites	-2891
used	-2892
▁mot	-2893
▁damage	-2894
▁housing	-2895
▁suggests	-2896
▁societies	-2897
do	-2898
▁$2	-2899
itud	-2900
▁liquid	-2901
▁service	-2902
▁fix	-2903
ossil	-2904
▁road	-2905
▁poore	-2906
▁implic	-2907
oks	-2908
order	-2909
ashing	-2910
▁macro	-2911
ptember	-2912
▁assess	-2913
▁attacks	-2914
▁questions	-2915
cle	-2916
iff	-2917
▁Tw	-2918
▁bub	-2919
ustom	-2920
▁explo	-2921
▁vital	-2922
▁Go	-2923
encies	-2924
▁belie	-2925
▁Unfortunately	-2926
hers	-2927
iety	-2928
ought	-2929
▁Other	-2930
▁contain	-2931
abilities	-2932
oy	-2933
▁II	-2934
▁mark	-2935
▁fully	-2936
▁events	-2937
▁deliver	-2938
▁September	-2939
▁activities	-2940
▁From	-2941
▁super	-2942
▁commer	-2943
economic	-2944
▁dollars	-2945
▁instead	-2946
▁dangerous	-2947
mb	-2948
duct	-2949
▁fri	-2950
▁hop	-2951
▁Just	-2952
▁argue	-2953
▁deter	-2954
▁0.	-2955
▁red	-2956
▁virt	-2957
eneral	-2958
▁analy	-2959
▁thereby	-2960
pr	-2961
▁exe	-2962
▁gap	-2963
acter	-2964
▁moral	-2965
▁brought	-2966
▁electric	-2967
▁eventually	-2968
ott	-2969
▁sym	-2970
▁corre	-2971
▁cancer	-2972
▁reject	-2973
▁compared	-2974
▁referend	-2975
▁bilateral	-2976
▁parliament	-2977
▁regulation	-2978
9,	-2979
▁simple	-2980
▁increases	-2981
ij	-2982
▁days	-2983
▁committed	-2984
50	-2985
co	-2986
▁pursue	-2987
▁farmers	-2988
▁regions	-2989
▁intervention	-2990
rust	-2991
▁Col	-2992
ishing	-2993
lusion	-2994
▁Simil	-2995
▁limit	-2996
▁matters	-2997
▁reduced	-2998
▁sources	-2999
▁proposed	-3000
auc	-3001
▁frag	-3002
ancial	-3003
rehens	-3004
▁autom	-3005
▁cross	-3006
▁sound	-3007
iciency	-3008
▁normal	-3009
▁person	-3010
▁independence	-3011
▁mut	-3012
ender	-3013
▁pain	-3014
▁field	-3015
ensions	-3016
▁losses	-3017
▁office	-3018
▁goals	-3019
▁withd	-3020
▁People	-3021
▁claims	-3022
▁widely	-3023
fficient	-3024
▁Finally	-3025
▁significantly	-3026
▁bi	-3027
augh	-3028
▁tas	-3029
▁core	-3030
opolit	-3031
▁Indian	-3032
▁fossil	-3033
▁consensus	-3034
▁construction	-3035
olid	-3036
▁196	-3037
▁list	-3038
ustainable	-3039
umb	-3040
vert	-3041
lands	-3042
▁journ	-3043
▁meaning	-3044
▁thinking	-3045
▁direction	-3046
▁Ke	-3047
▁agreed	-3048
▁Despite	-3049
▁victory	-3050
▁initiative	-3051
gn	-3052
ands	-3053
▁shows	-3054
▁yield	-3055
▁Commun	-3056
▁legitim	-3057
▁targets	-3058
▁efficient	-3059
▁My	-3060
rist	-3061
▁reb	-3062
erate	-3063
▁name	-3064
▁vacc	-3065
▁Paris	-3066
▁engine	-3067
▁minist	-3068
▁primary	-3069
▁immigration	-3070
▁nor	-3071
ellig	-3072
▁NATO	-3073
▁parts	-3074
▁sufficient	-3075
▁multilateral	-3076
lled	-3077
▁Med	-3078
arity	-3079
light	-3080
▁promote	-3081
pro	-3082
▁2.	-3083
▁pus	-3084
▁Econom	-3085
▁precise	-3086
▁encourage	-3087
▁vulnerable	-3088
▁independent	-3089
aff	-3090
ann	-3091
oman	-3092
▁House	-3093
▁Islamic	-3094
▁biggest	-3095
▁crucial	-3096
▁thought	-3097
airs	-3098
anda	-3099
▁Rev	-3100
▁surve	-3101
atically	-3102
▁describ	-3103
▁Secretary	-3104
▁providing	-3105
ibly	-3106
▁bat	-3107
▁era	-3108
▁orig	-3109
▁block	-3110
▁conserv	-3111
▁trading	-3112
▁individuals	-3113
war	-3114
hern	-3115
▁202	-3116
▁enh	-3117
▁draw	-3118
▁allies	-3119
▁acceler	-3120
▁cultural	-3121
ony	-3122
angu	-3123
rain	-3124
rest	-3125
▁10%	-3126
▁city	-3127
▁opin	-3128
▁actions	-3129
▁seeking	-3130
▁provided	-3131
elt	-3132
eng	-3133
val	-3134
▁Am	-3135
▁aimed	-3136
▁minim	-3137
▁students	-3138
▁plac	-3139
▁heart	-3140
▁Mexico	-3141
▁argued	-3142
▁migration	-3143
CD	-3144
▁Eng	-3145
▁whole	-3146
aterial	-3147
▁withdraw	-3148
▁terrorism	-3149
▁ultimately	-3150
▁scen	-3151
▁trig	-3152
sector	-3153
▁truth	-3154
▁complete	-3155
▁directly	-3156
▁throughout	-3157
▁agriculture	-3158
▁12	-3159
▁Not	-3160
antic	-3161
▁talk	-3162
▁vast	-3163
▁quant	-3164
▁secure	-3165
ventional	-3166
▁accounts	-3167
▁property	-3168
▁Bo	-3169
fully	-3170
house	-3171
▁save	-3172
▁latest	-3173
▁importance	-3174
pping	-3175
▁drive	-3176
▁steps	-3177
▁seemed	-3178
▁character	-3179
urm	-3180
▁Sen	-3181
▁mal	-3182
▁imbal	-3183
▁story	-3184
▁nation	-3185
aul	-3186
▁Over	-3187
▁adap	-3188
▁facilit	-3189
▁Nor	-3190
▁embra	-3191
▁stable	-3192
▁supposed	-3193
▁commodity	-3194
▁referendum	-3195
ORK	-3196
requ	-3197
▁game	-3198
▁phys	-3199
▁front	-3200
▁minor	-3201
▁tight	-3202
▁border	-3203
▁difference	-3204
▁YORK	-3205
▁purp	-3206
▁Trade	-3207
▁appear	-3208
▁partly	-3209
▁neighbors	-3210
▁therefore	-3211
▁Pl	-3212
▁Ham	-3213
▁Joh	-3214
▁mand	-3215
ulated	-3216
undred	-3217
▁custom	-3218
▁trying	-3219
▁followed	-3220
ox	-3221
ats	-3222
ita	-3223
oot	-3224
par	-3225
cast	-3226
cont	-3227
▁Last	-3228
▁push	-3229
▁reve	-3230
▁plans	-3231
▁sides	-3232
▁enable	-3233
▁material	-3234
▁membership	-3235
▁strategies	-3236
car	-3237
uct	-3238
▁Cam	-3239
istent	-3240
▁faces	-3241
▁falling	-3242
▁announced	-3243
▁uncertainty	-3244
▁agricultural	-3245
▁BE	-3246
ique	-3247
▁margin	-3248
▁pattern	-3249
▁radical	-3250
▁contrary	-3251
▁responsible	-3252
my	-3253
▁Only	-3254
▁thous	-3255
▁burden	-3256
1.	-3257
ls	-3258
ubl	-3259
rene	-3260
▁193	-3261
▁bro	-3262
▁John	-3263
atever	-3264
▁commercial	-3265
anu	-3266
aled	-3267
▁sup	-3268
▁Comp	-3269
▁plat	-3270
policy	-3271
▁recon	-3272
▁talks	-3273
▁summit	-3274
▁context	-3275
▁religious	-3276
▁expectations	-3277
ety	-3278
izes	-3279
▁going	-3280
▁rural	-3281
▁faster	-3282
▁imports	-3283
▁authority	-3284
▁pollution	-3285
▁profession	-3286
fect	-3287
▁sal	-3288
▁Organ	-3289
▁displ	-3290
▁serve	-3291
▁leaving	-3292
▁competitive	-3293
rus	-3294
▁30	-3295
ondon	-3296
rowth	-3297
▁laws	-3298
▁Likewise	-3299
ING	-3300
▁unf	-3301
▁sens	-3302
▁Treat	-3303
reprene	-3304
▁London	-3305
▁scenar	-3306
▁culture	-3307
▁pan	-3308
▁sett	-3309
▁week	-3310
▁wind	-3311
outher	-3312
▁nature	-3313
▁subject	-3314
men	-3315
▁book	-3316
▁tools	-3317
▁becomes	-3318
▁argument	-3319
sec	-3320
▁aband	-3321
▁wants	-3322
▁abroad	-3323
▁extent	-3324
▁origin	-3325
▁theory	-3326
▁geopolit	-3327
▁historical	-3328
▁initiatives	-3329
going	-3330
third	-3331
▁safe	-3332
▁barri	-3333
▁limits	-3334
▁urgent	-3335
▁confront	-3336
▁produced	-3337
▁immediate	-3338
▁agreements	-3339
arc	-3340
nam	-3341
ether	-3342
gency	-3343
▁lose	-3344
▁zero	-3345
▁mortg	-3346
▁Though	-3347
▁adopted	-3348
▁improved	-3349
▁reflects	-3350
▁Republican	-3351
5,	-3352
▁buy	-3353
asion	-3354
ittee	-3355
▁hour	-3356
▁publ	-3357
onents	-3358
▁turned	-3359
▁comprom	-3360
rehensive	-3361
▁University	-3362
▁politically	-3363
▁CA	-3364
illing	-3365
levant	-3366
▁advoc	-3367
▁volat	-3368
▁capita	-3369
▁exceed	-3370
▁insurance	-3371
back	-3372
nder	-3373
comes	-3374
illed	-3375
▁adopt	-3376
outhern	-3377
▁execut	-3378
▁Climate	-3379
▁platform	-3380
▁understanding	-3381
MB	-3382
edly	-3383
▁log	-3384
porary	-3385
▁wages	-3386
▁happen	-3387
▁abandon	-3388
▁conclud	-3389
▁apparent	-3390
▁intellig	-3391
▁prospects	-3392
▁scientific	-3393
OND	-3394
ocks	-3395
▁Dece	-3396
▁here	-3397
▁size	-3398
lusive	-3399
▁enorm	-3400
▁speech	-3401
▁bankers	-3402
▁Similarly	-3403
▁Republicans	-3404
▁Organization	-3405
▁transformation	-3406
▁competitiveness	-3407
iagn	-3408
▁Its	-3409
ONDON	-3410
holders	-3411
▁Treaty	-3412
▁circum	-3413
▁option	-3414
▁broader	-3415
▁journal	-3416
▁improving	-3417
▁currencies	-3418
1%	-3419
▁port	-3420
▁solid	-3421
▁Invest	-3422
▁LONDON	-3423
▁default	-3424
▁hundred	-3425
▁lending	-3426
▁activity	-3427
▁practices	-3428
▁legitimacy	-3429
▁cash	-3430
▁imag	-3431
▁takes	-3432
orthern	-3433
related	-3434
▁earlier	-3435
▁promise	-3436
▁revenues	-3437
▁standard	-3438
▁reduction	-3439
▁enterprises	-3440
▁substantial	-3441
▁"	-3442
▁Gu	-3443
racies	-3444
▁calls	-3445
▁carry	-3446
▁families	-3447
▁liquidity	-3448
7%	-3449
ignt	-3450
iring	-3451
orial	-3452
ulate	-3453
▁built	-3454
▁range	-3455
▁appears	-3456
▁assistance	-3457
▁efficiency	-3458
lif	-3459
▁Ph	-3460
▁1990	-3461
▁coup	-3462
▁final	-3463
▁causes	-3464
▁police	-3465
▁changed	-3466
▁measure	-3467
▁December	-3468
▁borrowing	-3469
ili	-3470
▁ty	-3471
enth	-3472
oses	-3473
ignty	-3474
▁dict	-3475
century	-3476
▁demands	-3477
▁payments	-3478
▁Financial	-3479
▁Palestinian	-3480
inton	-3481
▁tell	-3482
istics	-3483
▁meant	-3484
▁inform	-3485
▁planet	-3486
▁present	-3487
▁excessive	-3488
▁precisely	-3489
▁electricity	-3490
4%	-3491
6%	-3492
sy	-3493
▁$3	-3494
▁Ro	-3495
vail	-3496
▁Ass	-3497
cause	-3498
ching	-3499
▁finally	-3500
▁neither	-3501
▁specific	-3502
▁training	-3503
▁subsidies	-3504
▁diplomatic	-3505
hib	-3506
look	-3507
▁lot	-3508
▁flex	-3509
▁stagn	-3510
▁elected	-3511
▁achieved	-3512
▁deflation	-3513
▁estimated	-3514
▁entreprene	-3515
▁regulations	-3516
iles	-3517
know	-3518
▁Saud	-3519
▁acqu	-3520
ovember	-3521
▁compar	-3522
▁factor	-3523
▁conduct	-3524
▁diseases	-3525
▁contribute	-3526
cale	-3527
▁your	-3528
ureauc	-3529
▁Polit	-3530
▁shown	-3531
▁Clinton	-3532
▁outcomes	-3533
▁addressing	-3534
▁Nig	-3535
rative	-3536
▁worry	-3537
▁merely	-3538
▁safety	-3539
▁Democrats	-3540
ded	-3541
▁Co	-3542
▁hy	-3543
ains	-3544
▁Mer	-3545
▁Sea	-3546
uting	-3547
▁June	-3548
▁Chile	-3549
▁fuels	-3550
actions	-3551
▁driven	-3552
▁easily	-3553
▁Consider	-3554
▁November	-3555
▁provides	-3556
2.	-3557
3%	-3558
fin	-3559
ethe	-3560
icro	-3561
▁His	-3562
▁Soc	-3563
▁hit	-3564
▁paid	-3565
itting	-3566
▁langu	-3567
▁online	-3568
▁experts	-3569
▁helping	-3570
▁happened	-3571
▁wel	-3572
reced	-3573
▁spend	-3574
▁migrants	-3575
▁Mal	-3576
aches	-3577
ijing	-3578
state	-3579
▁mach	-3580
▁Their	-3581
▁spent	-3582
▁deaths	-3583
▁easing	-3584
▁temper	-3585
▁opinion	-3586
▁populist	-3587
▁conflicts	-3588
▁structure	-3589
fall	-3590
orks	-3591
▁try	-3592
scale	-3593
reland	-3594
▁prime	-3595
▁George	-3596
▁produc	-3597
▁stabil	-3598
▁Eastern	-3599
▁running	-3600
recedented	-3601
▁transport	-3602
IV	-3603
▁equal	-3604
▁remark	-3605
▁advance	-3606
▁communic	-3607
▁partnership	-3608
▁sovereignty	-3609
▁spur	-3610
▁team	-3611
coming	-3612
▁perman	-3613
▁Ireland	-3614
▁allowing	-3615
▁greatest	-3616
▁Communist	-3617
▁scientists	-3618
▁unprecedented	-3619
orb	-3620
pay	-3621
pri	-3622
umm	-3623
uild	-3624
▁went	-3625
idency	-3626
lantic	-3627
ference	-3628
▁General	-3629
▁bureauc	-3630
▁slowdown	-3631
isc	-3632
mar	-3633
iable	-3634
▁pack	-3635
standing	-3636
▁returns	-3637
▁changing	-3638
▁designed	-3639
sis	-3640
ugh	-3641
stit	-3642
▁hur	-3643
▁pun	-3644
▁Both	-3645
▁separ	-3646
▁concent	-3647
ashington	-3648
▁received	-3649
▁associated	-3650
▁considerable	-3651
yl	-3652
ops	-3653
bank	-3654
bles	-3655
ellect	-3656
ifying	-3657
▁depos	-3658
▁oblig	-3659
▁worst	-3660
▁narrow	-3661
▁confere	-3662
▁quarter	-3663
▁raising	-3664
▁anything	-3665
▁principle	-3666
▁sometimes	-3667
▁sustained	-3668
▁principles	-3669
EN	-3670
▁Ju	-3671
▁Su	-3672
aves	-3673
ynes	-3674
▁tro	-3675
idesp	-3676
▁Sing	-3677
▁highest	-3678
▁prevail	-3679
idespread	-3680
▁resulting	-3681
TON	-3682
kel	-3683
lar	-3684
ote	-3685
▁Ma	-3686
▁100	-3687
risis	-3688
▁debts	-3689
▁optim	-3690
▁acknow	-3691
▁operations	-3692
lied	-3693
ping	-3694
▁Aust	-3695
▁deploy	-3696
▁Perhaps	-3697
▁revenue	-3698
reciation	-3699
▁addition	-3700
▁launched	-3701
▁restrict	-3702
▁Democratic	-3703
▁collective	-3704
▁regulators	-3705
▁dead	-3706
▁eight	-3707
▁frequ	-3708
▁occup	-3709
▁Beijing	-3710
▁depends	-3711
▁generate	-3712
▁remained	-3713
▁strength	-3714
▁exception	-3715
cap	-3716
see	-3717
▁Bl	-3718
SEAN	-3719
icip	-3720
itig	-3721
▁ban	-3722
▁enj	-3723
ables	-3724
rimin	-3725
▁insp	-3726
▁rare	-3727
▁wage	-3728
▁treaty	-3729
▁message	-3730
▁receive	-3731
▁enormous	-3732
▁supported	-3733
7.	-3734
▁€	-3735
oric	-3736
inary	-3737
▁York	-3738
▁fell	-3739
▁rele	-3740
▁learn	-3741
itative	-3742
▁proper	-3743
▁unable	-3744
▁victim	-3745
▁Because	-3746
▁started	-3747
▁barriers	-3748
▁consolid	-3749
▁widespread	-3750
▁geopolitical	-3751
▁macroeconomic	-3752
ira	-3753
inet	-3754
▁Har	-3755
▁sum	-3756
▁visit	-3757
▁double	-3758
▁giving	-3759
▁appropri	-3760
▁possibility	-3761
Ch	-3762
mark	-3763
0,000	-3764
▁Anot	-3765
▁Thus	-3766
▁dism	-3767
▁task	-3768
anuary	-3769
▁ended	-3770
▁light	-3771
▁prove	-3772
▁Merkel	-3773
▁crimin	-3774
▁moving	-3775
▁Another	-3776
▁Israeli	-3777
▁everywhere	-3778
▁ec	-3779
▁mer	-3780
▁bound	-3781
▁belief	-3782
▁destro	-3783
▁January	-3784
ructuring	-3785
▁circumst	-3786
▁comprehensive	-3787
oz	-3788
lows	-3789
rich	-3790
▁capt	-3791
▁meth	-3792
▁rhet	-3793
aching	-3794
acific	-3795
▁solar	-3796
▁stake	-3797
▁Christ	-3798
▁closer	-3799
▁incomes	-3800
▁estimates	-3801
▁intellect	-3802
▁thousands	-3803
▁implemented	-3804
uck	-3805
level	-3806
▁lies	-3807
▁manip	-3808
▁shock	-3809
etheless	-3810
▁medical	-3811
▁Mac	-3812
owned	-3813
atures	-3814
▁Saudi	-3815
▁seven	-3816
▁schools	-3817
▁entirely	-3818
▁fighting	-3819
▁promises	-3820
▁Washington	-3821
▁productive	-3822
AS	-3823
EL	-3824
▁CO	-3825
ares	-3826
▁50%	-3827
▁Cal	-3828
▁vers	-3829
▁ratio	-3830
▁space	-3831
▁struggle	-3832
▁universal	-3833
▁strengthening	-3834
ull	-3835
whel	-3836
idered	-3837
▁anyone	-3838
▁easier	-3839
▁infect	-3840
▁instru	-3841
▁Austral	-3842
▁agencies	-3843
▁forecast	-3844
▁Parliament	-3845
rid	-3846
▁($	-3847
▁Eth	-3848
▁har	-3849
▁2010	-3850
▁bail	-3851
▁adapt	-3852
▁trends	-3853
▁unless	-3854
▁viewed	-3855
▁function	-3856
▁considered	-3857
▁intelligence	-3858
hic	-3859
ogue	-3860
▁Cold	-3861
raction	-3862
▁During	-3863
▁undermine	-3864
▁experienced	-3865
▁circumstances	-3866
kept	-3867
▁defe	-3868
▁tack	-3869
▁amounts	-3870
▁justice	-3871
▁managed	-3872
▁threats	-3873
▁controls	-3874
▁instability	-3875
ray	-3876
yle	-3877
▁HIV	-3878
endit	-3879
▁pace	-3880
▁wast	-3881
▁adequ	-3882
▁views	-3883
▁insist	-3884
▁dynamic	-3885
▁collabor	-3886
▁perspect	-3887
▁democracies	-3888
4,	-3889
urb	-3890
aling	-3891
▁spir	-3892
▁youth	-3893
▁choose	-3894
▁places	-3895
▁compens	-3896
▁percent	-3897
▁overwhel	-3898
▁scenario	-3899
▁economist	-3900
▁capitalism	-3901
▁inevitable	-3902
▁legislation	-3903
2%	-3904
nic	-3905
Euro	-3906
▁der	-3907
adequ	-3908
ronic	-3909
▁stem	-3910
▁raised	-3911
▁resource	-3912
▁southern	-3913
▁fundament	-3914
▁promoting	-3915
▁presidency	-3916
8%	-3917
wan	-3918
▁203	-3919
▁Dav	-3920
▁ord	-3921
▁pen	-3922
▁2006	-3923
▁whom	-3924
▁ASEAN	-3925
▁joint	-3926
▁medium	-3927
▁poorest	-3928
▁repeated	-3929
uine	-3930
▁Non	-3931
rison	-3932
▁wars	-3933
▁welf	-3934
govern	-3935
ietnam	-3936
▁Greek	-3937
▁Those	-3938
▁hopes	-3939
▁resil	-3940
▁comput	-3941
▁lesson	-3942
▁enforce	-3943
▁getting	-3944
▁priority	-3945
ev	-3946
sc	-3947
gen	-3948
run	-3949
ints	-3950
▁unw	-3951
reasury	-3952
▁suffer	-3953
▁worked	-3954
▁disrupt	-3955
▁himself	-3956
▁mention	-3957
▁expendit	-3958
▁patients	-3959
▁rhetoric	-3960
ait	-3961
▁gl	-3962
▁drugs	-3963
▁Keynes	-3964
▁robust	-3965
▁absence	-3966
▁lessons	-3967
▁various	-3968
▁welfare	-3969
▁declared	-3970
ios	-3971
▁ut	-3972
▁Ber	-3973
▁Whe	-3974
urren	-3975
▁AIDS	-3976
▁sell	-3977
Europe	-3978
▁compl	-3979
▁forms	-3980
▁lines	-3981
▁deeply	-3982
▁genuine	-3983
▁ensuring	-3984
▁developments	-3985
▁Why	-3986
itude	-3987
which	-3988
▁Under	-3989
▁Health	-3990
▁intens	-3991
▁offers	-3992
▁resist	-3993
▁revers	-3994
▁Vietnam	-3995
▁arrange	-3996
▁combined	-3997
▁involved	-3998
▁weakness	-3999
▁coalition	-4000
▁Revolution	-4001
▁differences	-4002
more	-4003
▁sex	-4004
▁acad	-4005
▁alloc	-4006
▁stage	-4007
▁Instit	-4008
▁played	-4009
▁correct	-4010
▁disaster	-4011
▁transfer	-4012
▁otherwise	-4013
5.	-4014
cto	-4015
los	-4016
▁194	-4017
▁sen	-4018
inent	-4019
▁Octo	-4020
▁fert	-4021
▁goes	-4022
▁isol	-4023
▁diagn	-4024
▁hands	-4025
▁quite	-4026
▁October	-4027
▁hundreds	-4028
▁everything	-4029
▁restructuring	-4030
.)	-4031
ode	-4032
▁Port	-4033
▁arms	-4034
▁Canad	-4035
▁decided	-4036
▁inadequ	-4037
▁smaller	-4038
aria	-4039
fuel	-4040
ieth	-4041
▁Tai	-4042
▁sil	-4043
▁squ	-4044
ipher	-4045
▁drop	-4046
▁asked	-4047
▁colle	-4048
▁faced	-4049
▁vehic	-4050
▁forest	-4051
▁owners	-4052
▁proved	-4053
▁concept	-4054
▁refugee	-4055
▁overcome	-4056
▁territorial	-4057
ods	-4058
raft	-4059
▁diss	-4060
▁obst	-4061
▁prem	-4062
itation	-4063
▁gender	-4064
▁recomm	-4065
▁travel	-4066
▁Without	-4067
▁affairs	-4068
▁complic	-4069
▁driving	-4070
▁friends	-4071
▁implies	-4072
▁profits	-4073
▁terrorist	-4074
▁objectives	-4075
▁distribution	-4076
DGE	-4077
▁ep	-4078
MBRI	-4079
ames	-4080
iate	-4081
iders	-4082
▁told	-4083
Americ	-4084
▁aware	-4085
▁round	-4086
MBRIDGE	-4087
▁hardly	-4088
▁tariff	-4089
▁profound	-4090
▁CAMBRIDGE	-4091
▁technical	-4092
▁greenhouse	-4093
▁imbalances	-4094
▁credibility	-4095
ager	-4096
ores	-4097
reet	-4098
uman	-4099
▁BRI	-4100
▁Man	-4101
▁beg	-4102
▁due	-4103
▁join	-4104
iction	-4105
▁Rather	-4106
▁Taiwan	-4107
▁offered	-4108
▁includes	-4109
▁typically	-4110
▁intellectual	-4111
AR	-4112
CS	-4113
▁bott	-4114
▁upon	-4115
carbon	-4116
▁mount	-4117
▁remov	-4118
▁mostly	-4119
▁ongoing	-4120
▁options	-4121
▁organization	-4122
alk	-4123
dden	-4124
uses	-4125
▁Hong	-4126
▁susp	-4127
▁stead	-4128
▁accomp	-4129
▁devast	-4130
▁multip	-4131
▁heavily	-4132
▁participation	-4133
3,	-4134
▁DC	-4135
-200	-4136
inks	-4137
▁gir	-4138
antly	-4139
aught	-4140
▁Kong	-4141
▁Swed	-4142
▁1990’	-4143
▁Third	-4144
▁fears	-4145
▁speak	-4146
▁track	-4147
▁bubble	-4148
▁fallen	-4149
▁relevant	-4150
▁tensions	-4151
▁adjustment	-4152
▁innovative	-4153
▁Pr	-4154
fers	-4155
▁Then	-4156
▁base	-4157
▁stay	-4158
▁March	-4159
▁cheap	-4160
▁actors	-4161
▁formal	-4162
▁ministers	-4163
▁populations	-4164
▁entrepreneurs	-4165
▁vo	-4166
aren	-4167
▁mainly	-4168
▁prefer	-4169
▁stands	-4170
▁useful	-4171
▁generally	-4172
▁mechanisms	-4173
▁resistance	-4174
▁potentially	-4175
uk	-4176
enn	-4177
leb	-4178
▁2%	-4179
▁mor	-4180
▁root	-4181
▁ties	-4182
itious	-4183
▁mobil	-4184
▁tried	-4185
▁sought	-4186
▁underp	-4187
▁emerged	-4188
▁sharply	-4189
▁peripher	-4190
▁practice	-4191
▁diplomacy	-4192
▁conference	-4193
▁commitments	-4194
▁establishment	-4195
The	-4196
▁Er	-4197
book	-4198
▁Jin	-4199
eenth	-4200
ffect	-4201
▁firm	-4202
▁blame	-4203
▁hours	-4204
▁medic	-4205
▁motiv	-4206
▁appoint	-4207
▁reinfor	-4208
▁usually	-4209
▁language	-4210
▁learning	-4211
▁expensive	-4212
▁renewable	-4213
▁suffering	-4214
aut	-4215
let	-4216
pet	-4217
▁ey	-4218
ague	-4219
▁Kos	-4220
▁deval	-4221
▁works	-4222
flation	-4223
▁Colomb	-4224
▁coordin	-4225
▁resolve	-4226
▁creditors	-4227
▁objective	-4228
▁introduced	-4229
▁dramatically	-4230
20	-4231
▁50	-4232
▁bul	-4233
astro	-4234
chang	-4235
▁pled	-4236
▁2008,	-4237
▁grand	-4238
▁trial	-4239
▁sudden	-4240
ographic	-4241
▁cutting	-4242
▁partner	-4243
▁turning	-4244
▁proposal	-4245
▁percentage	-4246
▁implications	-4247
iop	-4248
▁Do	-4249
▁Jew	-4250
▁dro	-4251
▁Cour	-4252
▁sold	-4253
▁Count	-4254
▁perce	-4255
ialogue	-4256
▁accord	-4257
▁degree	-4258
▁undert	-4259
▁Jinping	-4260
▁discipl	-4261
▁involve	-4262
▁Committee	-4263
▁expanding	-4264
ECD	-4265
▁Me	-4266
▁Bro	-4267
▁hor	-4268
uries	-4269
usion	-4270
▁rely	-4271
▁shape	-4272
▁Policy	-4273
▁Portug	-4274
▁assert	-4275
▁defend	-4276
▁unique	-4277
▁replace	-4278
▁leverage	-4279
wing	-4280
asing	-4281
▁2009	-4282
▁gone	-4283
▁room	-4284
▁exact	-4285
▁credible	-4286
▁starters	-4287
▁guarantee	-4288
▁immigrants	-4289
▁volatility	-4290
▁Fortunately	-4291
long	-4292
itter	-4293
▁Here	-4294
herent	-4295
▁Kosov	-4296
▁obser	-4297
▁Ethiop	-4298
▁aggreg	-4299
▁purpose	-4300
▁prepared	-4301
ery	-4302
▁Abe	-4303
illeg	-4304
▁earn	-4305
▁accum	-4306
▁persu	-4307
uations	-4308
▁ethnic	-4309
▁figure	-4310
▁regimes	-4311
▁virtually	-4312
▁appropriate	-4313
▁Ital	-4314
arency	-4315
▁whereas	-4316
▁investing	-4317
▁permanent	-4318
▁generations	-4319
▁authoritarian	-4320
enh	-4321
rud	-4322
fort	-4323
▁30%	-4324
agers	-4325
▁July	-4326
▁OECD	-4327
▁grew	-4328
▁Still	-4329
▁board	-4330
▁chann	-4331
▁dimin	-4332
▁Beyond	-4333
▁mistake	-4334
▁studies	-4335
▁planning	-4336
8,	-4337
▁3.	-4338
enez	-4339
▁hon	-4340
▁2015,	-4341
▁spect	-4342
▁mutual	-4343
▁confron	-4344
▁numbers	-4345
▁processes	-4346
DGs	-4347
alle	-4348
iant	-4349
reen	-4350
sels	-4351
▁20%	-4352
▁dri	-4353
count	-4354
power	-4355
iences	-4356
▁Court	-4357
▁cycle	-4358
enezuel	-4359
▁Poland	-4360
▁remind	-4361
▁troops	-4362
▁equally	-4363
▁producers	-4364
▁temporary	-4365
▁recognized	-4366
▁unsustainable	-4367
ift	-4368
anks	-4369
bled	-4370
▁Fore	-4371
▁ones	-4372
stream	-4373
▁dream	-4374
▁mitig	-4375
▁Social	-4376
▁battle	-4377
▁desper	-4378
▁parent	-4379
▁causing	-4380
▁divided	-4381
▁holding	-4382
▁learned	-4383
▁analysis	-4384
▁pursuing	-4385
▁movements	-4386
▁destruction	-4387
Es	-4388
axim	-4389
rack	-4390
sych	-4391
▁Sch	-4392
▁wis	-4393
abled	-4394
heast	-4395
▁Will	-4396
▁type	-4397
▁grown	-4398
▁heavy	-4399
ructive	-4400
▁elites	-4401
▁plants	-4402
▁failing	-4403
▁happens	-4404
▁Treasury	-4405
▁Venezuel	-4406
▁bankrupt	-4407
▁declining	-4408
▁described	-4409
▁twentieth	-4410
▁integrated	-4411
uous	-4412
acerb	-4413
anted	-4414
▁army	-4415
▁body	-4416
▁Hamas	-4417
▁solve	-4418
▁Korean	-4419
▁Nigeria	-4420
▁critics	-4421
▁exacerb	-4422
▁addressed	-4423
▁ambitious	-4424
▁remaining	-4425
▁sustainability	-4426
han	-4427
oil	-4428
ahar	-4429
atis	-4430
▁195	-4431
▁Two	-4432
▁sea	-4433
▁Serb	-4434
▁lend	-4435
▁wond	-4436
▁2014,	-4437
ivalent	-4438
▁deeper	-4439
▁aggregate	-4440
▁published	-4441
▁territory	-4442
▁Investment	-4443
▁represents	-4444
doğ	-4445
time	-4446
▁Sil	-4447
▁fem	-4448
apore	-4449
doğan	-4450
first	-4451
▁feed	-4452
▁trip	-4453
luding	-4454
▁Trans	-4455
▁delay	-4456
▁illeg	-4457
▁weeks	-4458
▁applic	-4459
▁Erdoğan	-4460
▁Partners	-4461
▁bringing	-4462
▁discussion	-4463
▁corporations	-4464
▁liberalization	-4465
▁Ne	-4466
ancy	-4467
osis	-4468
rage	-4469
▁Our	-4470
▁1980	-4471
▁bear	-4472
idents	-4473
inking	-4474
▁2010,	-4475
▁faith	-4476
▁Kosovo	-4477
▁issued	-4478
▁choices	-4479
▁starting	-4480
▁whatever	-4481
▁positions	-4482
▁tradition	-4483
▁inadequate	-4484
▁Bang	-4485
▁calc	-4486
▁gave	-4487
▁stra	-4488
▁schem	-4489
▁Arabia	-4490
▁destroy	-4491
▁perfect	-4492
▁combination	-4493
▁immediately	-4494
▁transactions	-4495
4.	-4496
ches	-4497
enty	-4498
ikes	-4499
fense	-4500
▁Prot	-4501
▁bold	-4502
▁fost	-4503
▁fulf	-4504
▁exerc	-4505
▁knows	-4506
▁nations	-4507
▁putting	-4508
▁promised	-4509
▁determine	-4510
▁perspective	-4511
▁transparency	-4512
▁foot	-4513
urities	-4514
▁explan	-4515
▁summer	-4516
▁related	-4517
ibilities	-4518
▁annually	-4519
▁ordinary	-4520
▁Australia	-4521
▁criticism	-4522
▁underlying	-4523
▁conventional	-4524
dr	-4525
-19	-4526
oke	-4527
▁40%	-4528
▁mur	-4529
rowing	-4530
▁Kenya	-4531
▁accur	-4532
lements	-4533
ustrial	-4534
▁stress	-4535
▁pension	-4536
▁towards	-4537
▁occurred	-4538
▁Singapore	-4539
▁priorities	-4540
▁counterpart	-4541
▁requirements	-4542
itz	-4543
iang	-4544
▁Act	-4545
▁bre	-4546
▁Road	-4547
▁bomb	-4548
▁begun	-4549
▁liter	-4550
▁signs	-4551
connect	-4552
▁conver	-4553
▁trouble	-4554
▁believed	-4555
▁billions	-4556
▁candidates	-4557
US	-4558
ken	-4559
▁10	-4560
▁li	-4561
debt	-4562
iers	-4563
▁Car	-4564
▁evol	-4565
roduct	-4566
▁maxim	-4567
▁ready	-4568
ospital	-4569
▁playing	-4570
▁accountability	-4571
aza	-4572
lad	-4573
unn	-4574
▁25	-4575
▁Te	-4576
-201	-4577
cons	-4578
onom	-4579
▁phil	-4580
▁celeb	-4581
▁looks	-4582
▁losing	-4583
▁ruling	-4584
▁healthy	-4585
▁electoral	-4586
▁inclusive	-4587
▁purchases	-4588
▁Partnership	-4589
▁encouraging	-4590
add	-4591
imb	-4592
▁11	-4593
resp	-4594
with	-4595
▁mix	-4596
lines	-4597
apital	-4598
▁2013,	-4599
▁court	-4600
▁assume	-4601
▁bottom	-4602
▁desire	-4603
▁detail	-4604
▁impose	-4605
▁twenty	-4606
▁species	-4607
▁underst	-4608
▁dramatic	-4609
▁conservative	-4610
su	-4611
iot	-4612
llor	-4613
▁Unt	-4614
▁ric	-4615
oking	-4616
▁added	-4617
▁enjoy	-4618
aration	-4619
uilding	-4620
▁offset	-4621
▁preced	-4622
▁reports	-4623
▁reaching	-4624
▁emergence	-4625
▁reflected	-4626
▁seriously	-4627
▁Depression	-4628
▁proportion	-4629
▁recognition	-4630
la	-4631
son	-4632
iled	-4633
ires	-4634
▁Nob	-4635
class	-4636
works	-4637
▁aris	-4638
▁Leban	-4639
▁react	-4640
▁signed	-4641
▁trigger	-4642
▁victims	-4643
▁although	-4644
▁protests	-4645
▁achieving	-4646
▁observers	-4647
▁continuing	-4648
▁substantially	-4649
CA	-4650
gu	-4651
ze	-4652
asc	-4653
era	-4654
eron	-4655
licit	-4656
▁fire	-4657
▁cyber	-4658
▁imped	-4659
▁humans	-4660
▁underpin	-4661
ula	-4662
▁Ant	-4663
ested	-4664
mented	-4665
▁arrest	-4666
▁imposed	-4667
▁surprise	-4668
▁aggressive	-4669
▁equivalent	-4670
▁contributed	-4671
▁Palestinians	-4672
▁establishing	-4673
AI	-4674
che	-4675
gic	-4676
arsh	-4677
ison	-4678
▁80%	-4679
orpor	-4680
▁anim	-4681
ground	-4682
orient	-4683
rating	-4684
▁2012,	-4685
▁psych	-4686
▁Canada	-4687
▁Syrian	-4688
▁killed	-4689
▁legisl	-4690
▁mobile	-4691
▁Indones	-4692
▁Portugal	-4693
▁quantitative	-4694
ns	-4695
ipe	-4696
▁Mc	-4697
▁60%	-4698
ading	-4699
lihood	-4700
▁decis	-4701
▁truly	-4702
▁confir	-4703
▁emerge	-4704
▁obstac	-4705
▁exactly	-4706
▁affected	-4707
▁candidate	-4708
aily	-4709
iling	-4710
ugust	-4711
▁anal	-4712
▁race	-4713
icious	-4714
▁fewer	-4715
▁girls	-4716
▁leads	-4717
▁older	-4718
▁tough	-4719
appoint	-4720
▁gained	-4721
▁modest	-4722
▁showed	-4723
▁figures	-4724
▁network	-4725
▁restore	-4726
▁identity	-4727
▁rational	-4728
▁suffered	-4729
▁transfers	-4730
▁engagement	-4731
▁constitutional	-4732
acco	-4733
igor	-4734
ogle	-4735
olar	-4736
▁got	-4737
ilipp	-4738
▁cell	-4739
▁flaw	-4740
▁Until	-4741
▁monit	-4742
▁parad	-4743
▁superv	-4744
▁defined	-4745
▁welcome	-4746
▁possibly	-4747
▁approaches	-4748
BO	-4749
mon	-4750
▁13	-4751
bola	-4752
▁BER	-4753
▁Tal	-4754
▁ver	-4755
▁wid	-4756
atisf	-4757
▁Prog	-4758
▁crop	-4759
itably	-4760
▁aging	-4761
▁enact	-4762
▁nomin	-4763
▁revol	-4764
▁reluct	-4765
▁England	-4766
▁Philipp	-4767
▁compris	-4768
▁researc	-4769
▁disputes	-4770
▁concerned	-4771
▁practical	-4772
▁previously	-4773
▁economically	-4774
ari	-4775
▁Off	-4776
anish	-4777
iforn	-4778
▁black	-4779
country	-4780
▁survey	-4781
▁Californ	-4782
▁investig	-4783
▁reported	-4784
▁determined	-4785
▁remarkable	-4786
EO	-4787
ney	-4788
▁16	-4789
adow	-4790
pril	-4791
▁Reg	-4792
▁Sub	-4793
▁aud	-4794
irect	-4795
▁Wall	-4796
▁brut	-4797
▁tact	-4798
overed	-4799
▁compe	-4800
▁earth	-4801
▁paper	-4802
▁Foreign	-4803
▁closely	-4804
▁weather	-4805
▁Africans	-4806
▁Ethiopia	-4807
▁criminal	-4808
▁dialogue	-4809
▁equality	-4810
▁expanded	-4811
▁compromise	-4812
▁structures	-4813
▁implementation	-4814
alt	-4815
oly	-4816
comm	-4817
ifth	-4818
▁quo	-4819
anied	-4820
▁Vlad	-4821
▁inde	-4822
INGTON	-4823
crisis	-4824
▁2011,	-4825
▁Ebola	-4826
▁woman	-4827
▁Growth	-4828
▁Sweden	-4829
▁costly	-4830
▁profit	-4831
▁Cameron	-4832
▁Constit	-4833
▁centers	-4834
▁consist	-4835
▁incentive	-4836
..	-4837
ih	-4838
ASH	-4839
ife	-4840
arth	-4841
▁Plan	-4842
▁doesn	-4843
▁August	-4844
▁Google	-4845
▁decide	-4846
▁observ	-4847
▁prohib	-4848
▁search	-4849
▁senior	-4850
▁Brother	-4851
▁setting	-4852
▁violent	-4853
▁historic	-4854
▁networks	-4855
▁highlight	-4856
▁experiment	-4857
▁supporting	-4858
▁surprising	-4859
▁threatened	-4860
▁institution	-4861
▁universities	-4862
cks	-4863
mbly	-4864
ained	-4865
▁east	-4866
▁peak	-4867
arters	-4868
▁armed	-4869
▁toler	-4870
▁active	-4871
▁fueled	-4872
▁wanted	-4873
▁chronic	-4874
▁notably	-4875
ASHINGTON	-4876
▁identify	-4877
▁peaceful	-4878
▁Indonesia	-4879
▁accompanied	-4880
gas	-4881
ulf	-4882
mosp	-4883
▁shr	-4884
secut	-4885
▁Face	-4886
▁phen	-4887
▁Nobel	-4888
▁champ	-4889
▁fixed	-4890
▁Energy	-4891
▁defeat	-4892
▁paying	-4893
European	-4894
▁However	-4895
▁Italian	-4896
▁opposite	-4897
▁physical	-4898
▁supplies	-4899
ordination	-4900
▁contracts	-4901
▁pressures	-4902
▁proposals	-4903
▁accounting	-4904
▁protecting	-4905
▁researchers	-4906
eb	-4907
rs	-4908
appe	-4909
imir	-4910
pass	-4911
▁Any	-4912
▁thr	-4913
ament	-4914
lades	-4915
▁2007	-4916
▁Summ	-4917
▁cong	-4918
▁enem	-4919
▁iron	-4920
▁April	-4921
▁elite	-4922
artment	-4923
▁symbol	-4924
▁Muslims	-4925
▁benefic	-4926
▁content	-4927
▁creates	-4928
▁engaged	-4929
▁secular	-4930
▁Vladimir	-4931
▁hospital	-4932
▁negotiate	-4933
▁WASHINGTON	-4934
▁journalists	-4935
rog	-4936
ingu	-4937
reme	-4938
▁dow	-4939
▁sto	-4940
▁Turk	-4941
▁chem	-4942
▁exit	-4943
ladesh	-4944
▁tempt	-4945
▁users	-4946
russels	-4947
▁Chance	-4948
▁rating	-4949
▁surely	-4950
▁Colombia	-4951
▁included	-4952
▁mortgage	-4953
liferation	-4954
▁Bangladesh	-4955
▁California	-4956
▁Governments	-4957
▁educational	-4958
▁nationalism	-4959
GO	-4960
ozy	-4961
▁Em	-4962
ibet	-4963
ylum	-4964
▁asp	-4965
ional	-4966
▁Paul	-4967
▁says	-4968
▁wake	-4969
border	-4970
▁deals	-4971
▁atmosp	-4972
exchange	-4973
▁anticip	-4974
▁embrace	-4975
▁boosting	-4976
▁employees	-4977
▁platforms	-4978
▁promising	-4979
▁attractive	-4980
▁supporters	-4981
▁necessarily	-4982
▁contributions	-4983
eth	-4984
▁Kh	-4985
inct	-4986
▁Rob	-4987
Sahar	-4988
oming	-4989
▁Spec	-4990
▁none	-4991
▁shap	-4992
arkozy	-4993
icking	-4994
▁apply	-4995
▁reass	-4996
▁smart	-4997
Saharan	-4998
▁crimes	-4999
▁donors	-5000
security	-5001
▁Lebanon	-5002
▁operate	-5003
▁pushing	-5004
▁Brussels	-5005
▁humanity	-5006
▁phenomen	-5007
▁gradually	-5008
▁opponents	-5009
▁preventing	-5010
▁demographic	-5011
▁innovations	-5012
▁maintaining	-5013
ocu	-5014
uit	-5015
▁Ac	-5016
uable	-5017
▁Burm	-5018
▁arch	-5019
contro	-5020
igrant	-5021
▁micro	-5022
▁tests	-5023
▁ignore	-5024
▁warned	-5025
▁mandate	-5026
▁disorder	-5027
▁managing	-5028
▁northern	-5029
▁borrowers	-5030
▁devastating	-5031
▁essentially	-5032
▁restrictions	-5033
pan	-5034
▁40	-5035
etic	-5036
port	-5037
pric	-5038
ibiot	-5039
ipped	-5040
▁Cont	-5041
▁Gaza	-5042
▁High	-5043
▁Shan	-5044
▁tour	-5045
▁Every	-5046
▁Tibet	-5047
▁downt	-5048
▁moved	-5049
Pacific	-5050
▁closed	-5051
▁prison	-5052
▁pushed	-5053
▁enhance	-5054
▁sharing	-5055
intensive	-5056
▁accepted	-5057
▁managers	-5058
▁eliminate	-5059
▁evolution	-5060
▁understood	-5061
▁Nonetheless	-5062
8.	-5063
DR	-5064
▁Li	-5065
oubt	-5066
rown	-5067
▁Add	-5068
▁nav	-5069
▁sch	-5070
▁rose	-5071
▁Libya	-5072
▁ideal	-5073
▁legacy	-5074
▁Sarkozy	-5075
▁exposed	-5076
▁tariffs	-5077
▁Facebook	-5078
▁alliance	-5079
▁explicit	-5080
▁intended	-5081
▁marginal	-5082
▁survival	-5083
▁Countries	-5084
▁resolution	-5085
lock	-5086
▁alt	-5087
▁nine	-5088
▁outs	-5089
inding	-5090
▁scope	-5091
ogether	-5092
▁placed	-5093
▁weight	-5094
national	-5095
▁Further	-5096
▁capable	-5097
▁express	-5098
▁illegal	-5099
▁keeping	-5100
▁players	-5101
▁subsequ	-5102
▁shifting	-5103
▁vaccines	-5104
▁vehicles	-5105
▁Institute	-5106
▁primarily	-5107
▁withdrawal	-5108
▁constraints	-5109
▁willingness	-5110
▁constitution	-5111
PC	-5112
▁Bel	-5113
igned	-5114
rence	-5115
▁Ange	-5116
▁exam	-5117
▁fort	-5118
▁irre	-5119
▁sort	-5120
driven	-5121
▁uncon	-5122
▁asylum	-5123
▁father	-5124
▁sheets	-5125
▁shocks	-5126
▁Conserv	-5127
▁Iranian	-5128
▁adequate	-5129
▁discover	-5130
▁interven	-5131
▁momentum	-5132
▁presence	-5133
▁targeted	-5134
▁centuries	-5135
▁discrimin	-5136
▁extremely	-5137
▁perceived	-5138
▁imperative	-5139
▁legitimate	-5140
▁terrorists	-5141
▁nationalist	-5142
▁undermining	-5143
iny	-5144
free	-5145
ghai	-5146
being	-5147
▁epid	-5148
ivered	-5149
ultane	-5150
▁Again	-5151
▁series	-5152
▁corrupt	-5153
▁Shanghai	-5154
▁offering	-5155
▁condition	-5156
▁sentiment	-5157
▁facilitate	-5158
▁solidarity	-5159
▁coordination	-5160
DB	-5161
utr	-5162
pret	-5163
urch	-5164
▁Mod	-5165
▁fal	-5166
arely	-5167
erous	-5168
▁gold	-5169
aining	-5170
resent	-5171
▁Found	-5172
▁Human	-5173
through	-5174
▁allows	-5175
▁conven	-5176
▁secret	-5177
reaching	-5178
▁budgets	-5179
▁opening	-5180
▁survive	-5181
ineteenth	-5182
▁concluded	-5183
▁threatening	-5184
▁humanitarian	-5185
uty	-5186
▁Ky	-5187
iban	-5188
idel	-5189
irth	-5190
▁eru	-5191
break	-5192
onent	-5193
▁Hung	-5194
▁Once	-5195
itness	-5196
▁alike	-5197
▁artic	-5198
▁reput	-5199
reement	-5200
urrency	-5201
▁reward	-5202
▁slight	-5203
▁taxpay	-5204
oriented	-5205
▁Taliban	-5206
▁coverage	-5207
▁downturn	-5208
▁minority	-5209
▁delivered	-5210
▁periphery	-5211
▁demonstrated	-5212
duc	-5213
▁17	-5214
▁5%	-5215
pted	-5216
China	-5217
▁born	-5218
abling	-5219
▁flood	-5220
▁rival	-5221
▁sales	-5222
▁attrib	-5223
▁bailout	-5224
▁pointed	-5225
▁antibiot	-5226
▁emergency	-5227
▁operating	-5228
▁simultane	-5229
▁Philippines	-5230
▁parliamentary	-5231
oud	-5232
fare	-5233
lete	-5234
olst	-5235
what	-5236
ommod	-5237
iberal	-5238
▁Forum	-5239
▁absol	-5240
▁guide	-5241
cession	-5242
▁Rights	-5243
▁incomp	-5244
▁linked	-5245
ffective	-5246
▁Whether	-5247
▁autonom	-5248
▁initial	-5249
▁populism	-5250
▁settlement	-5251
9%	-5252
aba	-5253
ino	-5254
rap	-5255
udd	-5256
ume	-5257
▁3%	-5258
rote	-5259
▁Big	-5260
▁Sud	-5261
▁Sup	-5262
▁esc	-5263
▁lay	-5264
▁tow	-5265
lected	-5266
▁skept	-5267
▁weaker	-5268
▁artific	-5269
▁distort	-5270
▁advances	-5271
▁deterior	-5272
▁failures	-5273
▁globally	-5274
▁Venezuela	-5275
▁dependent	-5276
▁dominated	-5277
3.	-5278
▁Are	-5279
▁Rom	-5280
▁ded	-5281
▁sus	-5282
bling	-5283
▁magn	-5284
▁resc	-5285
▁wave	-5286
airman	-5287
▁risky	-5288
▁joined	-5289
▁served	-5290
▁settle	-5291
▁claimed	-5292
▁looking	-5293
▁neighbor	-5294
▁ownership	-5295
▁discipline	-5296
▁regardless	-5297
sk	-5298
ux	-5299
OEs	-5300
att	-5301
rue	-5302
atal	-5303
▁Mor	-5304
▁She	-5305
▁anx	-5306
▁2012	-5307
▁BRICS	-5308
▁disag	-5309
▁rebal	-5310
▁speed	-5311
▁table	-5312
agement	-5313
▁absorb	-5314
▁condem	-5315
▁divers	-5316
function	-5317
ventions	-5318
▁comfort	-5319
▁ethical	-5320
▁finding	-5321
▁imagine	-5322
▁regarded	-5323
▁rejected	-5324
▁revealed	-5325
▁threaten	-5326
▁accelerate	-5327
▁securities	-5328
▁stagnation	-5329
▁improvement	-5330
▁instruments	-5331
▁contribution	-5332
cean	-5333
▁Cub	-5334
known	-5335
rific	-5336
▁Bern	-5337
▁Krem	-5338
▁Alger	-5339
▁Spring	-5340
▁Kremlin	-5341
▁adverse	-5342
▁Chancellor	-5343
▁repeatedly	-5344
▁successfully	-5345
9.	-5346
▁1%	-5347
▁70%	-5348
▁ple	-5349
▁sac	-5350
point	-5351
anging	-5352
clical	-5353
illenn	-5354
▁Senate	-5355
▁buying	-5356
ifically	-5357
▁Spanish	-5358
▁collaps	-5359
▁accommod	-5360
▁controvers	-5361
▁professional	-5362
▁14	-5363
▁60	-5364
ebru	-5365
vard	-5366
▁ben	-5367
▁tim	-5368
adays	-5369
▁ment	-5370
▁vill	-5371
▁daily	-5372
▁heads	-5373
▁newly	-5374
▁twice	-5375
ebruary	-5376
ulating	-5377
▁appeal	-5378
▁tackle	-5379
▁Harvard	-5380
▁applied	-5381
▁calling	-5382
▁dispute	-5383
▁strongly	-5384
▁systemic	-5385
▁acknowled	-5386
▁workforce	-5387
▁atmosphere	-5388
▁disappoint	-5389
▁extraordin	-5390
▁arrangements	-5391
CO	-5392
ket	-5393
unis	-5394
anmar	-5395
icial	-5396
▁wors	-5397
estate	-5398
▁bolst	-5399
▁plant	-5400
▁Macron	-5401
▁Street	-5402
▁chains	-5403
▁stance	-5404
ophistic	-5405
veraging	-5406
▁educated	-5407
▁examples	-5408
▁released	-5409
▁standing	-5410
▁customers	-5411
▁inevitably	-5412
▁obligations	-5413
▁implementing	-5414
fe	-5415
iox	-5416
ole	-5417
uan	-5418
▁$4	-5419
ompl	-5420
▁anc	-5421
▁fil	-5422
▁via	-5423
▁2011	-5424
▁aims	-5425
▁burn	-5426
▁fate	-5427
▁seed	-5428
pected	-5429
rights	-5430
urally	-5431
▁coast	-5432
▁delib	-5433
▁monop	-5434
▁norms	-5435
▁phase	-5436
▁Change	-5437
▁Recent	-5438
▁acting	-5439
▁extend	-5440
▁harder	-5441
▁launch	-5442
▁raises	-5443
▁review	-5444
▁viable	-5445
▁bubbles	-5446
▁opposed	-5447
▁wealthy	-5448
▁February	-5449
▁enabling	-5450
▁reasonable	-5451
▁explanation	-5452
▁capabilities	-5453
▁strengthened	-5454
cri	-5455
isp	-5456
view	-5457
▁90%	-5458
unger	-5459
▁2000	-5460
▁clin	-5461
▁kept	-5462
▁text	-5463
health	-5464
▁Franc	-5465
▁index	-5466
ishment	-5467
▁charge	-5468
▁estate	-5469
▁leaves	-5470
▁resort	-5471
▁wonder	-5472
oubtedly	-5473
▁disappe	-5474
▁fragile	-5475
▁package	-5476
▁parents	-5477
▁realize	-5478
ressional	-5479
▁balanced	-5480
▁downward	-5481
▁advantages	-5482
▁bankruptcy	-5483
▁statistics	-5484
▁transparent	-5485
bit	-5486
rew	-5487
▁QE	-5488
▁CEO	-5489
▁Lab	-5490
▁mus	-5491
▁pie	-5492
▁Never	-5493
▁Tunis	-5494
▁blood	-5495
▁multi	-5496
▁votes	-5497
▁waste	-5498
▁wrote	-5499
▁Strate	-5500
▁aspect	-5501
▁retire	-5502
▁satisf	-5503
▁talent	-5504
▁broadly	-5505
▁enabled	-5506
▁warning	-5507
▁academic	-5508
▁deposits	-5509
▁properly	-5510
▁returned	-5511
▁Foundation	-5512
▁encouraged	-5513
▁university	-5514
GDP	-5515
ips	-5516
ius	-5517
▁BR	-5518
▁Law	-5519
▁Naz	-5520
▁hot	-5521
▁obt	-5522
sight	-5523
▁Four	-5524
▁chief	-5525
▁escal	-5526
▁frust	-5527
▁posed	-5528
▁prede	-5529
▁unity	-5530
osystem	-5531
termath	-5532
▁Market	-5533
▁ending	-5534
▁entail	-5535
▁except	-5536
▁destabil	-5537
▁multiple	-5538
▁religion	-5539
▁aftermath	-5540
▁displaced	-5541
▁nineteenth	-5542
▁repression	-5543
▁ideological	-5544
▁depreciation	-5545
▁improvements	-5546
na	-5547
rete	-5548
▁hyd	-5549
▁emot	-5550
▁reck	-5551
▁rout	-5552
▁holds	-5553
rations	-5554
▁contem	-5555
▁perpet	-5556
▁proced	-5557
▁retail	-5558
▁thanks	-5559
▁yields	-5560
▁Myanmar	-5561
▁carried	-5562
▁severely	-5563
▁valuable	-5564
▁narrative	-5565
▁predecess	-5566
▁sophistic	-5567
▁consistent	-5568
▁generating	-5569
▁Furthermore	-5570
▁alternatives	-5571
▁counterparts	-5572
▁participants	-5573
ha	-5574
how	-5575
ple	-5576
▁6.	-5577
iver	-5578
▁$1.	-5579
▁die	-5580
▁lag	-5581
ivate	-5582
trade	-5583
▁David	-5584
▁Sudan	-5585
▁defin	-5586
▁equip	-5587
▁polls	-5588
▁scand	-5589
▁Robert	-5590
▁courts	-5591
▁decent	-5592
▁escape	-5593
▁female	-5594
▁latter	-5595
▁transl	-5596
American	-5597
levision	-5598
▁diverse	-5599
▁expense	-5600
▁reserve	-5601
▁patterns	-5602
▁dictators	-5603
▁shortfall	-5604
▁flexibility	-5605
▁negotiating	-5606
▁undoubtedly	-5607
egu	-5608
gor	-5609
oes	-5610
vis	-5611
▁$5	-5612
rish	-5613
▁bra	-5614
▁cha	-5615
inced	-5616
itect	-5617
using	-5618
▁$100	-5619
▁docu	-5620
▁sole	-5621
▁Burma	-5622
▁acute	-5623
▁alarm	-5624
▁apart	-5625
▁logic	-5626
ulative	-5627
▁bigger	-5628
▁rarely	-5629
▁relief	-5630
▁painful	-5631
▁proceed	-5632
▁profess	-5633
▁annivers	-5634
▁concrete	-5635
▁informal	-5636
▁moderate	-5637
▁outbreak	-5638
▁Stability	-5639
▁recommend	-5640
▁completely	-5641
▁temperatures	-5642
ES	-5643
now	-5644
oon	-5645
ellow	-5646
style	-5647
▁ball	-5648
▁hege	-5649
▁qual	-5650
▁tort	-5651
thirds	-5652
▁diver	-5653
▁links	-5654
▁surge	-5655
▁voted	-5656
▁Resear	-5657
▁philos	-5658
▁compete	-5659
▁minimum	-5660
▁mission	-5661
▁pursued	-5662
▁reverse	-5663
▁witness	-5664
▁elements	-5665
▁somewhat	-5666
▁ecosystem	-5667
▁frequently	-5668
▁mainstream	-5669
▁devaluation	-5670
▁consolidation	-5671
▁effectiveness	-5672
IA	-5673
ias	-5674
she	-5675
▁El	-5676
aded	-5677
king	-5678
▁Imp	-5679
▁tob	-5680
oning	-5681
party	-5682
▁bill	-5683
▁crow	-5684
▁seas	-5685
▁2016,	-5686
▁recip	-5687
▁south	-5688
▁combat	-5689
▁friend	-5690
▁intent	-5691
▁persist	-5692
▁tobacco	-5693
▁variety	-5694
including	-5695
▁absolute	-5696
▁architect	-5697
▁expertise	-5698
▁generated	-5699
▁provision	-5700
▁responses	-5701
▁resilience	-5702
▁relationships	-5703
▁·	-5704
ONG	-5705
emb	-5706
▁TB	-5707
▁Cle	-5708
ollah	-5709
▁Lead	-5710
▁pret	-5711
itudes	-5712
▁Austr	-5713
▁Goals	-5714
▁White	-5715
▁shale	-5716
▁Serbia	-5717
▁slower	-5718
▁volunt	-5719
outheast	-5720
▁Through	-5721
▁inflows	-5722
▁nominal	-5723
▁computer	-5724
▁emphasis	-5725
▁expressed	-5726
▁populists	-5727
▁producing	-5728
▁similarly	-5729
▁commission	-5730
▁dependence	-5731
▁challenging	-5732
▁policymaking	-5733
▁interventions	-5734
CE	-5735
We	-5736
iar	-5737
▁Rw	-5738
▁App	-5739
ashed	-5740
▁2017	-5741
▁turm	-5742
growth	-5743
▁2000,	-5744
▁crime	-5745
▁gives	-5746
▁heard	-5747
▁overh	-5748
▁gather	-5749
▁poorer	-5750
▁saying	-5751
▁shares	-5752
▁spirit	-5753
▁Defense	-5754
▁turmoil	-5755
▁announce	-5756
▁publicly	-5757
▁prosperous	-5758
▁manipulation	-5759
AD	-5760
PP	-5761
BOC	-5762
xic	-5763
▁4.	-5764
▁aw	-5765
▁Aut	-5766
▁Bet	-5767
emics	-5768
idden	-5769
▁Educ	-5770
▁Gulf	-5771
▁runs	-5772
▁tele	-5773
commun	-5774
estern	-5775
▁2001,	-5776
▁helps	-5777
▁Labour	-5778
▁depart	-5779
▁waters	-5780
▁wisdom	-5781
▁ignored	-5782
▁killing	-5783
ependence	-5784
▁declined	-5785
▁meetings	-5786
▁mobility	-5787
▁conducted	-5788
▁taxpayers	-5789
▁maintained	-5790
▁participate	-5791
▁experiencing	-5792
agen	-5793
▁25%	-5794
▁cry	-5795
▁Conf	-5796
▁insu	-5797
▁zone	-5798
▁1980’	-5799
▁refer	-5800
▁risen	-5801
product	-5802
▁Nether	-5803
▁broken	-5804
▁safegu	-5805
▁slowly	-5806
▁unders	-5807
▁Turkish	-5808
▁supports	-5809
▁Political	-5810
▁isolation	-5811
▁assessment	-5812
▁struggling	-5813
▁Netherlands	-5814
▁breakthrough	-5815
IP	-5816
rig	-5817
rum	-5818
▁bip	-5819
▁swe	-5820
▁Sunn	-5821
▁cars	-5822
▁cast	-5823
▁curb	-5824
lessly	-5825
▁advis	-5826
▁staff	-5827
▁white	-5828
▁wider	-5829
▁Agency	-5830
▁actual	-5831
▁advice	-5832
▁caught	-5833
▁command	-5834
▁comment	-5835
▁prolong	-5836
▁slowing	-5837
▁treated	-5838
▁worried	-5839
inational	-5840
▁Islamist	-5841
▁exercise	-5842
▁limiting	-5843
▁convinced	-5844
▁suggested	-5845
▁unwilling	-5846
▁Sustainable	-5847
oor	-5848
soc	-5849
▁Hu	-5850
ocol	-5851
▁saw	-5852
place	-5853
▁pool	-5854
asters	-5855
▁enlar	-5856
▁pharm	-5857
▁Angela	-5858
▁Unlike	-5859
▁apprec	-5860
▁opened	-5861
▁shifts	-5862
▁strike	-5863
atlantic	-5864
▁accompl	-5865
▁version	-5866
▁attempts	-5867
▁invested	-5868
▁interpret	-5869
▁mortgages	-5870
▁stimulate	-5871
▁concerning	-5872
▁guarantees	-5873
▁purchasing	-5874
ma	-5875
RIS	-5876
ugg	-5877
▁Os	-5878
▁Ug	-5879
▁od	-5880
ador	-5881
cker	-5882
ragm	-5883
▁Den	-5884
▁doz	-5885
agger	-5886
gered	-5887
▁blam	-5888
▁loan	-5889
adjust	-5890
ashion	-5891
ounded	-5892
▁Peace	-5893
▁minds	-5894
▁night	-5895
▁noted	-5896
▁argues	-5897
▁define	-5898
▁plenty	-5899
▁united	-5900
▁weaken	-5901
▁assumed	-5902
▁fueling	-5903
▁routine	-5904
▁statement	-5905
▁Department	-5906
▁conclusion	-5907
▁presidents	-5908
governmental	-5909
▁transportation	-5910
IB	-5911
gia	-5912
ica	-5913
urd	-5914
ysts	-5915
▁lab	-5916
agues	-5917
price	-5918
▁Much	-5919
▁wait	-5920
iments	-5921
ptions	-5922
▁birth	-5923
▁barely	-5924
▁fourth	-5925
▁hunger	-5926
▁empower	-5927
▁renewed	-5928
▁someone	-5929
▁decisive	-5930
▁democrat	-5931
▁demanding	-5932
▁happening	-5933
▁seemingly	-5934
▁executives	-5935
▁enforcement	-5936
▁considerably	-5937
▁expenditures	-5938
EY	-5939
alf	-5940
▁PA	-5941
▁Bas	-5942
▁Cop	-5943
▁Cyp	-5944
▁Kim	-5945
acing	-5946
odies	-5947
▁alle	-5948
▁died	-5949
▁drag	-5950
▁pill	-5951
▁teac	-5952
00,000	-5953
ailand	-5954
umping	-5955
▁2009,	-5956
▁traff	-5957
osition	-5958
▁height	-5959
▁transm	-5960
▁stopped	-5961
▁damaging	-5962
▁flexible	-5963
▁measured	-5964
▁resulted	-5965
▁Democracy	-5966
▁anniversary	-5967
▁fundamentals	-5968
AV	-5969
CT	-5970
zz	-5971
cor	-5972
▁Ah	-5973
amed	-5974
lish	-5975
oted	-5976
▁Pan	-5977
▁Pen	-5978
▁Yes	-5979
inded	-5980
ordan	-5981
reens	-5982
▁blow	-5983
▁grid	-5984
▁trap	-5985
▁wish	-5986
▁Group	-5987
▁abuse	-5988
▁catch	-5989
▁chain	-5990
▁north	-5991
develop	-5992
▁Rwanda	-5993
▁manner	-5994
▁Supreme	-5995
▁charges	-5996
▁malaria	-5997
▁payment	-5998
▁privile	-5999
▁selling	-6000
▁Northern	-6001
▁Research	-6002
▁Thailand	-6003
▁urgently	-6004
▁arguments	-6005
▁carefully	-6006
▁diversity	-6007
▁equipment	-6008
▁weakening	-6009
▁indicators	-6010
▁tightening	-6011
▁antibiotics	-6012
▁coordinated	-6013
▁partnerships	-6014
▁communication	-6015
▁discrimination	-6016
CP	-6017
ami	-6018
cles	-6019
face	-6020
grad	-6021
prof	-6022
resh	-6023
▁vac	-6024
ilemm	-6025
inian	-6026
▁Asse	-6027
▁dark	-6028
▁prud	-6029
▁uses	-6030
▁2015.	-6031
▁autoc	-6032
▁colon	-6033
▁newsp	-6034
▁polar	-6035
▁Public	-6036
▁brings	-6037
▁cooper	-6038
▁divide	-6039
▁showing	-6040
▁stories	-6041
▁chemical	-6042
▁suddenly	-6043
▁triggered	-6044
▁affordable	-6045
▁facilities	-6046
▁reductions	-6047
▁collaboration	-6048
▁extraordinary	-6049
?”	-6050
me	-6051
uff	-6052
▁Sm	-6053
arak	-6054
lder	-6055
oked	-6056
▁Dar	-6057
▁lie	-6058
▁lob	-6059
eping	-6060
▁trib	-6061
▁vent	-6062
istrib	-6063
▁ruled	-6064
▁usual	-6065
enhagen	-6066
▁overse	-6067
▁presum	-6068
▁exchang	-6069
inflation	-6070
▁pressing	-6071
▁inclusion	-6072
▁materials	-6073
▁ourselves	-6074
▁responded	-6075
▁Copenhagen	-6076
▁impressive	-6077
▁phenomenon	-6078
▁television	-6079
▁consequence	-6080
▁insufficient	-6081
▁shareholders	-6082
hab	-6083
ini	-6084
ria	-6085
▁je	-6086
adic	-6087
oles	-6088
omal	-6089
phic	-6090
rees	-6091
▁205	-6092
▁ast	-6093
▁None	-6094
holder	-6095
▁homes	-6096
▁kinds	-6097
▁moves	-6098
▁thres	-6099
▁voice	-6100
growing	-6101
ressing	-6102
▁Jordan	-6103
▁advert	-6104
▁exclud	-6105
▁proven	-6106
▁gradual	-6107
▁traject	-6108
connected	-6109
▁creative	-6110
▁dominant	-6111
▁extended	-6112
▁reaction	-6113
▁straight	-6114
▁Southeast	-6115
▁awareness	-6116
▁executive	-6117
▁favorable	-6118
▁apparently	-6119
▁foreigners	-6120
▁Constitution	-6121
▁fundamentally	-6122
▁sophisticated	-6123
▁simultaneously	-6124
HI	-6125
TA	-6126
eda	-6127
oms	-6128
que	-6129
raf	-6130
body	-6131
odes	-6132
serv	-6133
integ	-6134
▁Init	-6135
▁SOEs	-6136
▁gets	-6137
▁puts	-6138
▁rail	-6139
▁shut	-6140
ioxide	-6141
▁Blair	-6142
▁Board	-6143
▁Roman	-6144
▁facts	-6145
▁write	-6146
perform	-6147
▁mother	-6148
▁voting	-6149
▁English	-6150
▁consult	-6151
▁distingu	-6152
▁financed	-6153
▁nowadays	-6154
▁outright	-6155
▁slightly	-6156
▁Represent	-6157
▁benefited	-6158
▁initially	-6159
▁organized	-6160
▁threshold	-6161
▁controlled	-6162
▁acknowledge	-6163
▁demonstrate	-6164
▁compensation	-6165
▁characterized	-6166
isan	-6167
osen	-6168
rity	-6169
▁Ben	-6170
▁hab	-6171
▁hyp	-6172
▁1970	-6173
▁Five	-6174
▁felt	-6175
astrop	-6176
▁Earth	-6177
▁aside	-6178
▁eager	-6179
▁types	-6180
▁murder	-6181
▁strict	-6182
▁Clearly	-6183
▁channel	-6184
▁Atlantic	-6185
▁accurate	-6186
▁champion	-6187
▁discoura	-6188
▁sacrific	-6189
▁Christian	-6190
▁fertility	-6191
▁predicted	-6192
▁requiring	-6193
▁threatens	-6194
▁attempting	-6195
▁problematic	-6196
▁appreciation	-6197
▁overwhelming	-6198
▁representatives	-6199
KEL	-6200
urt	-6201
▁$6	-6202
▁1,	-6203
agan	-6204
mony	-6205
stan	-6206
▁15%	-6207
▁Aff	-6208
▁Far	-6209
▁Net	-6210
▁rig	-6211
enses	-6212
▁rank	-6213
econom	-6214
▁Among	-6215
▁Assad	-6216
▁anger	-6217
▁deleg	-6218
▁match	-6219
▁simpl	-6220
▁steel	-6221
veraged	-6222
▁BERKEL	-6223
▁Berlin	-6224
▁Uganda	-6225
▁adding	-6226
▁shadow	-6227
▁Capital	-6228
▁Hungary	-6229
▁contrad	-6230
▁refused	-6231
▁vaccine	-6232
▁Assembly	-6233
▁focusing	-6234
▁weakened	-6235
▁ambitions	-6236
▁artificial	-6237
▁meaningful	-6238
▁undermined	-6239
▁progressive	-6240
▁multinational	-6241
amb	-6242
olf	-6243
hand	-6244
onia	-6245
otic	-6246
rant	-6247
ruit	-6248
▁Exp	-6249
▁Xia	-6250
enced	-6251
iking	-6252
▁Holl	-6253
ection	-6254
ranean	-6255
▁false	-6256
▁lacks	-6257
▁poses	-6258
▁pragm	-6259
▁seeks	-6260
▁Center	-6261
▁backed	-6262
▁brutal	-6263
interest	-6264
▁Algeria	-6265
▁Justice	-6266
▁capture	-6267
▁deposit	-6268
▁dismiss	-6269
▁removed	-6270
▁undersc	-6271
▁BERKELEY	-6272
▁reliable	-6273
▁catastrop	-6274
▁projected	-6275
▁Industrial	-6276
▁assumption	-6277
▁identified	-6278
▁complicated	-6279
▁expenditure	-6280
▁inefficient	-6281
▁urbanization	-6282
▁wa	-6283
aeda	-6284
cost	-6285
rine	-6286
▁cul	-6287
claim	-6288
olars	-6289
oples	-6290
urers	-6291
▁Bill	-6292
▁Coop	-6293
▁Cuba	-6294
▁Hill	-6295
▁Hist	-6296
▁bloc	-6297
▁didn	-6298
▁hurt	-6299
gorith	-6300
▁aspir	-6301
▁crack	-6302
▁forth	-6303
▁repay	-6304
▁attend	-6305
▁fields	-6306
▁remote	-6307
idelines	-6308
▁dangers	-6309
▁decreas	-6310
▁evident	-6311
▁Egyptian	-6312
▁imperial	-6313
▁lowering	-6314
▁Palestine	-6315
▁dominance	-6316
▁exporters	-6317
▁regarding	-6318
▁surpluses	-6319
▁background	-6320
▁beneficial	-6321
▁minorities	-6322
▁negotiated	-6323
▁contributing	-6324
AC	-6325
bor	-6326
sey	-6327
tax	-6328
urg	-6329
▁cop	-6330
▁Camb	-6331
▁True	-6332
▁eyes	-6333
▁stre	-6334
▁wild	-6335
establ	-6336
iously	-6337
▁2007,	-6338
▁Medic	-6339
▁Sunni	-6340
▁badly	-6341
▁fails	-6342
▁fresh	-6343
▁watch	-6344
▁Malays	-6345
▁basket	-6346
▁famous	-6347
▁flight	-6348
▁openly	-6349
▁oppose	-6350
▁eastern	-6351
▁fulfill	-6352
▁approved	-6353
▁mobilize	-6354
▁purchase	-6355
▁reliance	-6356
▁separate	-6357
▁underest	-6358
▁Education	-6359
▁prevented	-6360
▁liabilities	-6361
▁recognizing	-6362
▁consistently	-6363
born	-6364
iest	-6365
kers	-6366
▁Mub	-6367
▁Nic	-6368
▁dim	-6369
asive	-6370
ected	-6371
nings	-6372
▁brid	-6373
▁hero	-6374
▁nutr	-6375
▁pure	-6376
▁scar	-6377
▁unit	-6378
▁2017,	-6379
▁Somal	-6380
▁cells	-6381
▁notion	-6382
▁rulers	-6383
▁scheme	-6384
▁steady	-6385
adjusted	-6386
▁dealing	-6387
▁feature	-6388
▁greatly	-6389
▁streets	-6390
▁appeared	-6391
▁occasion	-6392
▁original	-6393
▁preserve	-6394
▁reconcil	-6395
▁accounted	-6396
▁activists	-6397
▁attitudes	-6398
▁governing	-6399
▁perception	-6400
▁subsequent	-6401
▁engineering	-6402
▁internationally	-6403
...	-6404
bed	-6405
ein	-6406
ley	-6407
mad	-6408
oto	-6409
▁Cz	-6410
alem	-6411
ande	-6412
coin	-6413
odox	-6414
rank	-6415
▁fra	-6416
▁gun	-6417
eting	-6418
▁enth	-6419
▁epis	-6420
▁pick	-6421
▁unex	-6422
▁2008.	-6423
▁Front	-6424
▁crash	-6425
▁entit	-6426
▁image	-6427
▁turns	-6428
theless	-6429
chnology	-6430
▁Mubarak	-6431
▁doctors	-6432
▁liberty	-6433
▁machine	-6434
▁methods	-6435
▁planned	-6436
▁spectac	-6437
▁adopting	-6438
▁imposing	-6439
▁mitigate	-6440
▁upcoming	-6441
▁confident	-6442
▁connected	-6443
▁colleagues	-6444
▁discussions	-6445
▁foundations	-6446
▁rebalancing	-6447
BI	-6448
EA	-6449
Is	-6450
osn	-6451
anke	-6452
aunt	-6453
▁500	-6454
▁bit	-6455
apers	-6456
essim	-6457
icism	-6458
▁1930	-6459
▁Balk	-6460
▁Char	-6461
▁Food	-6462
▁Gates	-6463
▁drawn	-6464
▁imply	-6465
▁insol	-6466
▁novel	-6467
▁couple	-6468
▁deprec	-6469
▁passed	-6470
▁retain	-6471
▁sexual	-6472
▁slowed	-6473
▁uphold	-6474
▁Mediter	-6475
▁Tunisia	-6476
▁alleged	-6477
▁forcing	-6478
▁foresee	-6479
▁gaining	-6480
▁justify	-6481
▁Business	-6482
▁civilian	-6483
▁Agreement	-6484
▁component	-6485
▁realistic	-6486
▁reluctant	-6487
▁stabilize	-6488
▁foundation	-6489
▁reputation	-6490
▁Mediterranean	-6491
▁vulnerability	-6492
."	-6493
ny	-6494
tt	-6495
▁5.	-6496
ihad	-6497
onds	-6498
orld	-6499
▁Pet	-6500
dered	-6501
opard	-6502
osure	-6503
▁Free	-6504
▁PBOC	-6505
▁dele	-6506
▁eval	-6507
▁rain	-6508
▁send	-6509
accept	-6510
▁Frank	-6511
▁backl	-6512
▁elder	-6513
▁Unless	-6514
▁driver	-6515
▁eradic	-6516
▁inside	-6517
▁accused	-6518
▁lenders	-6519
▁restric	-6520
▁substit	-6521
▁finances	-6522
▁findings	-6523
▁prosecut	-6524
▁replaced	-6525
▁underway	-6526
▁construct	-6527
▁understandable	-6528
cel	-6529
beit	-6530
ding	-6531
fire	-6532
▁Dut	-6533
aceut	-6534
riend	-6535
▁2004	-6536
▁City	-6537
▁Jews	-6538
▁barg	-6539
▁outl	-6540
▁PARIS	-6541
▁books	-6542
illance	-6543
▁Jewish	-6544
▁Summit	-6545
▁regist	-6546
▁stocks	-6547
currency	-6548
▁Against	-6549
▁Already	-6550
▁courage	-6551
▁dropped	-6552
▁written	-6553
aceutical	-6554
▁analysts	-6555
▁numerous	-6556
▁remember	-6557
▁treaties	-6558
▁abandoned	-6559
▁obstacles	-6560
▁resilient	-6561
▁Convention	-6562
▁neighboring	-6563
zb	-6564
▁SDR	-6565
▁Deng	-6566
▁Each	-6567
▁cate	-6568
▁ease	-6569
▁forg	-6570
▁gaps	-6571
▁pict	-6572
▁pose	-6573
icated	-6574
racted	-6575
tering	-6576
▁brain	-6577
▁check	-6578
▁crops	-6579
▁donor	-6580
▁toxic	-6581
zbollah	-6582
▁dilemm	-6583
▁marked	-6584
▁signal	-6585
▁Denmark	-6586
▁Program	-6587
▁chances	-6588
▁cheaper	-6589
▁lasting	-6590
▁prepare	-6591
▁younger	-6592
▁Bernanke	-6593
▁autonomy	-6594
▁dynamics	-6595
▁mounting	-6596
▁ultimate	-6597
▁automation	-6598
▁statements	-6599
▁trajectory	-6600
▁unilateral	-6601
▁surprisingly	-6602
▁modernization	-6603
▁unconventional	-6604
6,	-6605
fol	-6606
▁21	-6607
aval	-6608
ille	-6609
imal	-6610
ties	-6611
▁Jun	-6612
▁dys	-6613
utral	-6614
▁AIIB	-6615
▁roll	-6616
▁turb	-6617
energy	-6618
minded	-6619
▁postp	-6620
▁storm	-6621
▁island	-6622
▁debates	-6623
▁entered	-6624
▁jeopard	-6625
▁missing	-6626
astrophic	-6627
▁complain	-6628
▁machines	-6629
▁mortality	-6630
▁redistrib	-6631
▁Conference	-6632
▁compelling	-6633
▁reinforced	-6634
▁bureaucracy	-6635
▁temperature	-6636
▁applications	-6637
▁revolutionary	-6638
NA	-6639
lex	-6640
roc	-6641
yan	-6642
▁$7	-6643
▁24	-6644
abwe	-6645
alls	-6646
▁BEI	-6647
▁Out	-6648
▁Rel	-6649
▁avo	-6650
▁slo	-6651
ophob	-6652
▁Zimb	-6653
▁knew	-6654
alling	-6655
▁1970’	-6656
▁Power	-6657
▁arbit	-6658
▁arise	-6659
▁enthus	-6660
▁incumb	-6661
▁traged	-6662
▁unrest	-6663
▁Nuclear	-6664
▁avoided	-6665
▁enlarge	-6666
roportion	-6667
▁Zimbabwe	-6668
▁actively	-6669
▁mistakes	-6670
▁intention	-6671
▁involving	-6672
▁targeting	-6673
▁interested	-6674
▁considering	-6675
▁surveillance	-6676
▁pharmaceutical	-6677
DI	-6678
SEL	-6679
adv	-6680
irm	-6681
AIDS	-6682
ilib	-6683
omed	-6684
pper	-6685
such	-6686
▁Adm	-6687
▁Inc	-6688
▁Mao	-6689
▁pet	-6690
ailed	-6691
rates	-6692
▁date	-6693
▁hear	-6694
▁plun	-6695
▁vice	-6696
iative	-6697
▁Crime	-6698
▁align	-6699
▁manif	-6700
▁Greens	-6701
▁Norway	-6702
▁Should	-6703
▁career	-6704
▁resent	-6705
▁select	-6706
ominated	-6707
▁joining	-6708
▁outlook	-6709
▁possess	-6710
▁pursuit	-6711
▁winning	-6712
▁algorith	-6713
▁anywhere	-6714
▁backlash	-6715
▁epidemic	-6716
▁indicate	-6717
▁inherent	-6718
▁surround	-6719
▁Consensus	-6720
▁explained	-6721
▁presented	-6722
▁prominent	-6723
▁wellbeing	-6724
▁comparable	-6725
▁complement	-6726
▁accountable	-6727
▁dysfunction	-6728
▁transformed	-6729
NP	-6730
spe	-6731
alty	-6732
coni	-6733
indu	-6734
▁Ang	-6735
▁Let	-6736
▁Mad	-6737
child	-6738
▁exem	-6739
▁judg	-6740
▁male	-6741
▁sets	-6742
iances	-6743
icians	-6744
ighter	-6745
invest	-6746
▁2005,	-6747
▁abund	-6748
▁cease	-6749
▁falls	-6750
▁dispos	-6751
▁namely	-6752
▁scarce	-6753
▁binding	-6754
▁careful	-6755
▁enacted	-6756
▁peoples	-6757
▁approval	-6758
▁delivery	-6759
▁persuade	-6760
▁Hezbollah	-6761
▁cooperate	-6762
▁motivated	-6763
▁reinforce	-6764
▁shortages	-6765
▁succeeded	-6766
▁depression	-6767
▁catastrophe	-6768
▁convergence	-6769
▁neighborhood	-6770
▁disproportion	-6771
▁protectionism	-6772
ER	-6773
ef	-6774
hi	-6775
▁eg	-6776
JING	-6777
band	-6778
inst	-6779
ooth	-6780
uate	-6781
▁Hit	-6782
▁Sal	-6783
democ	-6784
hered	-6785
▁Back	-6786
▁Rich	-6787
▁SDGs	-6788
▁Scot	-6789
▁Year	-6790
▁ends	-6791
▁symp	-6792
▁wise	-6793
▁word	-6794
iaries	-6795
▁Czech	-6796
▁Three	-6797
▁harsh	-6798
▁Berlus	-6799
▁School	-6800
▁dispar	-6801
▁explos	-6802
▁propag	-6803
building	-6804
ependent	-6805
▁Germans	-6806
▁convers	-6807
▁disturb	-6808
▁fashion	-6809
▁missile	-6810
▁portfol	-6811
▁talking	-6812
▁conclude	-6813
▁enhanced	-6814
▁invasion	-6815
▁reversed	-6816
▁prolonged	-6817
▁residents	-6818
▁sensitive	-6819
▁Cooperation	-6820
▁influential	-6821
▁sufficiently	-6822
DA	-6823
lu	-6824
imp	-6825
▁7.	-6826
▁Mu	-6827
dict	-6828
icon	-6829
izon	-6830
oned	-6831
outs	-6832
ruck	-6833
▁Mos	-6834
▁You	-6835
▁hed	-6836
▁meg	-6837
▁spl	-6838
▁sun	-6839
▁tri	-6840
orrow	-6841
▁ally	-6842
▁cope	-6843
▁dign	-6844
▁fine	-6845
▁onto	-6846
inated	-6847
ployed	-6848
rained	-6849
▁2013.	-6850
▁crypt	-6851
▁grave	-6852
▁gross	-6853
▁hydro	-6854
▁input	-6855
▁plays	-6856
▁print	-6857
▁seats	-6858
▁Reagan	-6859
▁bodies	-6860
▁exists	-6861
▁unions	-6862
▁upward	-6863
▁BEIJING	-6864
▁arguing	-6865
▁fastest	-6866
▁feeling	-6867
▁paradox	-6868
▁pricing	-6869
▁skilled	-6870
▁adoption	-6871
▁believes	-6872
▁distinct	-6873
▁estimate	-6874
▁generous	-6875
▁ideology	-6876
▁medicine	-6877
▁openness	-6878
▁overlook	-6879
▁software	-6880
▁unaccept	-6881
▁competing	-6882
▁obviously	-6883
▁Berlusconi	-6884
▁disruption	-6885
▁constrained	-6886
▁importantly	-6887
▁catastrophic	-6888
▁dictatorship	-6889
▁administrative	-6890
▁considerations	-6891
6.	-6892
ky	-6893
iev	-6894
win	-6895
▁sy	-6896
iful	-6897
ivot	-6898
size	-6899
uris	-6900
▁Her	-6901
▁Wen	-6902
ourse	-6903
water	-6904
▁2005	-6905
▁Ghan	-6906
▁pull	-6907
▁site	-6908
▁2006,	-6909
▁adult	-6910
▁immun	-6911
▁laure	-6912
▁seize	-6913
▁sites	-6914
▁virus	-6915
forward	-6916
lihoods	-6917
▁Church	-6918
▁degrad	-6919
▁foster	-6920
▁spring	-6921
▁unfair	-6922
▁ancient	-6923
▁closing	-6924
▁exploit	-6925
▁granted	-6926
▁patient	-6927
▁picture	-6928
▁ratings	-6929
▁rightly	-6930
illennium	-6931
▁Hollande	-6932
▁Malaysia	-6933
▁overseas	-6934
▁scholars	-6935
▁taxation	-6936
▁worrying	-6937
▁alongside	-6938
▁disasters	-6939
▁existence	-6940
▁imbalance	-6941
▁integrity	-6942
▁secondary	-6943
▁criticized	-6944
▁persistent	-6945
▁Brotherhood	-6946
▁involvement	-6947
▁Nevertheless	-6948
▁concentrated	-6949
tr	-6950
rav	-6951
▁27	-6952
SELS	-6953
emen	-6954
fund	-6955
spec	-6956
tech	-6957
▁192	-6958
▁cab	-6959
▁sem	-6960
atism	-6961
▁Sino	-6962
▁cart	-6963
▁desp	-6964
▁pipe	-6965
▁tons	-6966
USSELS	-6967
aution	-6968
irable	-6969
ounced	-6970
▁Women	-6971
▁plaus	-6972
essions	-6973
▁Reform	-6974
cription	-6975
▁Environ	-6976
▁anxiety	-6977
▁dioxide	-6978
▁drought	-6979
▁paralle	-6980
▁testing	-6981
efficient	-6982
▁Alliance	-6983
▁Scotland	-6984
▁accident	-6985
▁convince	-6986
▁disinteg	-6987
▁dominate	-6988
▁resolved	-6989
▁Greenspan	-6990
▁desperate	-6991
▁introduce	-6992
iodiversity	-6993
▁procedures	-6994
▁supposedly	-6995
ani	-6996
def	-6997
imm	-6998
ked	-6999
olas	-7000
rase	-7001
real	-7002
▁Dis	-7003
▁ang	-7004
▁dub	-7005
▁fun	-7006
▁web	-7007
ifies	-7008
isher	-7009
sheet	-7010
▁Shia	-7011
▁burd	-7012
▁doct	-7013
▁flag	-7014
▁heat	-7015
▁jump	-7016
▁quot	-7017
▁toll	-7018
ispens	-7019
▁2014.	-7020
▁Dutch	-7021
▁Inter	-7022
▁inequ	-7023
▁tasks	-7024
largest	-7025
▁disarm	-7026
▁judges	-7027
▁lowest	-7028
▁marria	-7029
▁richer	-7030
▁Twitter	-7031
▁backing	-7032
▁forests	-7033
▁shifted	-7034
▁BRUSSELS	-7035
▁balances	-7036
▁constant	-7037
▁explains	-7038
▁exposure	-7039
▁troubled	-7040
▁Keynesian	-7041
▁civilians	-7042
▁deepening	-7043
▁divisions	-7044
▁inability	-7045
▁operation	-7046
▁emphasized	-7047
▁extremists	-7048
▁responding	-7049
▁retirement	-7050
▁competitors	-7051
SA	-7052
aks	-7053
bas	-7054
ply	-7055
irty	-7056
lymp	-7057
rect	-7058
▁300	-7059
▁Abd	-7060
▁Kar	-7061
▁bid	-7062
▁eye	-7063
▁mag	-7064
▁neo	-7065
▁tum	-7066
▁une	-7067
inger	-7068
night	-7069
▁indu	-7070
▁spot	-7071
▁star	-7072
▁finds	-7073
▁juris	-7074
▁navig	-7075
erately	-7076
respons	-7077
▁advent	-7078
▁funded	-7079
▁sooner	-7080
▁volume	-7081
▁Georgia	-7082
▁Somalia	-7083
▁concert	-7084
▁enemies	-7085
▁grounds	-7086
▁illness	-7087
▁regular	-7088
▁familiar	-7089
▁mutually	-7090
▁proclaim	-7091
▁realized	-7092
▁affecting	-7093
▁integrate	-7094
▁Economists	-7095
▁altogether	-7096
▁adjustments	-7097
▁contraction	-7098
▁enlargement	-7099
▁announcement	-7100
▁difficulties	-7101
▁respectively	-7102
cer	-7103
▁4%	-7104
▁Im	-7105
athy	-7106
berg	-7107
ione	-7108
mmet	-7109
olly	-7110
roll	-7111
soft	-7112
▁Bit	-7113
▁Lar	-7114
▁San	-7115
▁hom	-7116
▁los	-7117
▁tom	-7118
grade	-7119
oping	-7120
prime	-7121
scape	-7122
▁2001	-7123
▁Bash	-7124
▁acts	-7125
▁coun	-7126
▁halt	-7127
▁reap	-7128
▁rock	-7129
▁unle	-7130
necess	-7131
▁Ghana	-7132
▁Olymp	-7133
▁jihad	-7134
▁saved	-7135
alities	-7136
▁Cyprus	-7137
▁chosen	-7138
▁looked	-7139
▁pessim	-7140
▁refuse	-7141
▁stream	-7142
▁struck	-7143
▁Hillary	-7144
▁citizen	-7145
▁elderly	-7146
▁genetic	-7147
▁intense	-7148
▁nowhere	-7149
▁Russians	-7150
▁Strategy	-7151
▁Whatever	-7152
▁channels	-7153
▁famously	-7154
▁implicit	-7155
▁monopoly	-7156
▁recorded	-7157
▁protected	-7158
▁resolving	-7159
▁Initiative	-7160
▁contradict	-7161
▁prevailing	-7162
▁livelihoods	-7163
▁inflationary	-7164
EU	-7165
IT	-7166
ses	-7167
ums	-7168
▁(1	-7169
rium	-7170
▁Ann	-7171
▁Cor	-7172
▁Few	-7173
▁hes	-7174
▁pul	-7175
▁seg	-7176
▁Good	-7177
▁Jean	-7178
▁Serv	-7179
▁code	-7180
▁depr	-7181
▁subm	-7182
▁trem	-7183
▁vary	-7184
ipping	-7185
▁conce	-7186
▁innoc	-7187
▁lived	-7188
▁pound	-7189
▁skill	-7190
▁unequ	-7191
▁Hitler	-7192
▁albeit	-7193
▁asking	-7194
▁empire	-7195
▁memory	-7196
▁poorly	-7197
▁privat	-7198
▁prompt	-7199
▁rescue	-7200
▁weapon	-7201
▁Bitcoin	-7202
▁element	-7203
▁erupted	-7204
▁focuses	-7205
▁scandal	-7206
▁tactics	-7207
▁constitu	-7208
▁earnings	-7209
▁features	-7210
▁soldiers	-7211
▁steadily	-7212
▁superior	-7213
▁teachers	-7214
▁discussed	-7215
▁exchanges	-7216
▁eliminating	-7217
▁experiences	-7218
▁nonetheless	-7219
▁revolutions	-7220
▁accelerating	-7221
oe	-7222
cow	-7223
new	-7224
▁Lo	-7225
cell	-7226
itch	-7227
orsi	-7228
rors	-7229
▁Moh	-7230
▁Ren	-7231
▁gar	-7232
edded	-7233
itime	-7234
itzer	-7235
redit	-7236
▁Marx	-7237
▁lawy	-7238
▁melt	-7239
chmark	-7240
stable	-7241
▁2010.	-7242
▁2030.	-7243
▁Irish	-7244
▁enfor	-7245
▁happy	-7246
▁roads	-7247
▁Before	-7248
▁Crisis	-7249
▁Others	-7250
▁headed	-7251
▁inject	-7252
▁missed	-7253
▁Austria	-7254
▁Juncker	-7255
▁drivers	-7256
▁elector	-7257
▁farming	-7258
▁immense	-7259
▁landing	-7260
▁request	-7261
▁surpass	-7262
▁tragedy	-7263
ideration	-7264
▁alliances	-7265
▁collapsed	-7266
▁initiated	-7267
▁premature	-7268
▁reporting	-7269
▁enterprise	-7270
▁recognizes	-7271
▁desperately	-7272
▁legislative	-7273
▁predictable	-7274
▁supervision	-7275
▁proliferation	-7276
80	-7277
HO	-7278
WI	-7279
dig	-7280
▁7%	-7281
▁TV	-7282
anes	-7283
ocal	-7284
▁Inf	-7285
▁McK	-7286
▁glo	-7287
craft	-7288
▁Deal	-7289
▁Park	-7290
▁deny	-7291
▁grav	-7292
▁myth	-7293
▁outf	-7294
▁warm	-7295
orship	-7296
rators	-7297
redict	-7298
▁Morsi	-7299
▁Somet	-7300
▁chaos	-7301
▁gases	-7302
▁giant	-7303
▁merit	-7304
▁plumm	-7305
▁sympt	-7306
▁train	-7307
▁Moscow	-7308
▁exclus	-7309
▁interd	-7310
▁invent	-7311
▁ratios	-7312
▁triump	-7313
▁declare	-7314
▁distant	-7315
▁pledged	-7316
▁torture	-7317
▁Agricult	-7318
▁foremost	-7319
▁investor	-7320
▁observed	-7321
▁produces	-7322
▁striking	-7323
government	-7324
▁computers	-7325
▁forecasts	-7326
▁principal	-7327
▁expression	-7328
▁frameworks	-7329
▁guaranteed	-7330
▁infectious	-7331
▁violations	-7332
▁declaration	-7333
▁congressional	-7334
▁professionals	-7335
▁communications	-7336
no	-7337
ham	-7338
ola	-7339
▁23	-7340
▁Qu	-7341
educ	-7342
eted	-7343
gers	-7344
made	-7345
oler	-7346
owed	-7347
uity	-7348
▁191	-7349
▁hub	-7350
inter	-7351
vency	-7352
▁Chen	-7353
▁laid	-7354
▁note	-7355
▁seat	-7356
▁Davos	-7357
▁McKin	-7358
▁blind	-7359
▁agency	-7360
▁belong	-7361
▁relies	-7362
▁rooted	-7363
quarters	-7364
▁Islands	-7365
▁Pacific	-7366
▁details	-7367
▁relying	-7368
▁disagree	-7369
▁employed	-7370
▁entering	-7371
▁involves	-7372
▁meantime	-7373
▁purposes	-7374
▁sensible	-7375
▁volatile	-7376
ispensable	-7377
▁Economics	-7378
▁Recession	-7379
▁accepting	-7380
▁advocates	-7381
▁intervene	-7382
▁overwhelm	-7383
▁safeguard	-7384
▁successor	-7385
▁Millennium	-7386
▁discovered	-7387
▁optimistic	-7388
▁weaknesses	-7389
▁confronting	-7390
▁represented	-7391
▁Conservative	-7392
▁achievements	-7393
▁controversial	-7394
▁straightforward	-7395
);	-7396
90	-7397
Th	-7398
oo	-7399
afi	-7400
sen	-7401
▁AM	-7402
▁ST	-7403
▁Che	-7404
▁Mah	-7405
▁dog	-7406
▁ran	-7407
ollar	-7408
polit	-7409
▁2020	-7410
▁Emer	-7411
▁Sand	-7412
▁suit	-7413
active	-7414
advant	-7415
▁Green	-7416
▁entry	-7417
▁fluct	-7418
▁guard	-7419
▁route	-7420
▁sheet	-7421
▁stood	-7422
astrous	-7423
iration	-7424
sharing	-7425
▁blamed	-7426
▁fairly	-7427
▁flawed	-7428
▁smooth	-7429
▁upgrad	-7430
rational	-7431
▁Special	-7432
▁Switzer	-7433
▁aspects	-7434
▁harmful	-7435
▁prefere	-7436
▁preserv	-7437
▁schemes	-7438
▁visible	-7439
▁waiting	-7440
struction	-7441
▁Chairman	-7442
▁criteria	-7443
▁manifest	-7444
▁missiles	-7445
▁benchmark	-7446
▁receiving	-7447
▁delivering	-7448
▁suggesting	-7449
▁Switzerland	-7450
▁commodities	-7451
▁acknowledged	-7452
▁architecture	-7453
▁constructive	-7454
EM	-7455
It	-7456
asp	-7457
exp	-7458
agon	-7459
bted	-7460
ught	-7461
▁Ult	-7462
▁ble	-7463
▁fit	-7464
▁nom	-7465
▁raw	-7466
elect	-7467
tical	-7468
▁2003	-7469
▁Iron	-7470
▁MDGs	-7471
▁Shin	-7472
▁Silk	-7473
▁brib	-7474
▁uphe	-7475
▁Assoc	-7476
▁ample	-7477
▁honor	-7478
▁inher	-7479
▁seeds	-7480
ultural	-7481
▁Cambod	-7482
▁Corpor	-7483
▁Within	-7484
▁abuses	-7485
▁harmon	-7486
▁remove	-7487
▁resign	-7488
communic	-7489
lessness	-7490
▁ceiling	-7491
▁periods	-7492
▁McKinsey	-7493
▁admitted	-7494
▁attitude	-7495
▁avoiding	-7496
▁colonial	-7497
▁geograph	-7498
▁incorpor	-7499
▁indebted	-7500
▁informed	-7501
▁unnecess	-7502
▁attempted	-7503
▁communist	-7504
▁disadvant	-7505
▁naturally	-7506
▁acceptable	-7507
▁allocation	-7508
▁disastrous	-7509
▁insecurity	-7510
▁treatments	-7511
▁achievement	-7512
▁arrangement	-7513
▁availability	-7514
▁biodiversity	-7515
▁deflationary	-7516
OS	-7517
ao	-7518
▁[	-7519
ana	-7520
▁ES	-7521
aces	-7522
atar	-7523
fold	-7524
izer	-7525
lict	-7526
rand	-7527
well	-7528
wind	-7529
▁bab	-7530
▁loy	-7531
chain	-7532
erman	-7533
under	-7534
vered	-7535
▁Peru	-7536
▁bust	-7537
▁mood	-7538
▁tail	-7539
▁terr	-7540
imated	-7541
incing	-7542
irical	-7543
lights	-7544
owners	-7545
unicip	-7546
▁Times	-7547
▁haven	-7548
▁pione	-7549
▁ranks	-7550
▁remed	-7551
▁stark	-7552
▁valid	-7553
▁Crimea	-7554
▁begins	-7555
▁forget	-7556
▁occurs	-7557
▁parity	-7558
▁voices	-7559
▁cabinet	-7560
▁closest	-7561
▁statist	-7562
▁warfare	-7563
▁advocate	-7564
▁declines	-7565
▁doctrine	-7566
▁embraced	-7567
▁holdings	-7568
▁laureate	-7569
corruption	-7570
▁Brazilian	-7571
▁landscape	-7572
▁comparison	-7573
▁explicitly	-7574
▁assumptions	-7575
▁consideration	-7576
▁transatlantic	-7577
,"	-7578
RC	-7579
akh	-7580
arr	-7581
igm	-7582
uls	-7583
▁Op	-7584
aker	-7585
cher	-7586
▁Equ	-7587
▁Lis	-7588
itate	-7589
▁meat	-7590
▁mism	-7591
▁pays	-7592
▁soil	-7593
▁ster	-7594
▁unus	-7595
Brexit	-7596
iating	-7597
othing	-7598
▁2004,	-7599
▁James	-7600
▁Kyoto	-7601
▁categ	-7602
▁phone	-7603
▁zones	-7604
ounding	-7605
▁Author	-7606
▁cycles	-7607
▁doubts	-7608
▁endors	-7609
▁exempl	-7610
▁honest	-7611
ilibrium	-7612
▁Finance	-7613
▁aggress	-7614
▁applies	-7615
▁coastal	-7616
▁college	-7617
▁contest	-7618
▁deserve	-7619
▁reduces	-7620
▁coherent	-7621
▁cyclical	-7622
▁division	-7623
▁founding	-7624
▁fraction	-7625
▁quarters	-7626
▁tomorrow	-7627
▁committee	-7628
▁confirmed	-7629
▁destroyed	-7630
▁plausible	-7631
▁restoring	-7632
▁Ultimately	-7633
▁components	-7634
▁likelihood	-7635
▁prevention	-7636
▁reflecting	-7637
▁unemployed	-7638
▁aspirations	-7639
▁bureaucratic	-7640
▁stakeholders	-7641
▁traditionally	-7642
▁interconnected	-7643
Af	-7644
cu	-7645
ón	-7646
Ass	-7647
RID	-7648
hou	-7649
lor	-7650
sun	-7651
▁70	-7652
ache	-7653
atri	-7654
igen	-7655
lets	-7656
▁Dra	-7657
▁cas	-7658
▁dur	-7659
▁inj	-7660
▁isn	-7661
ADRID	-7662
erson	-7663
icing	-7664
ilton	-7665
inces	-7666
▁batt	-7667
▁fasc	-7668
▁feas	-7669
▁fill	-7670
▁pact	-7671
▁prox	-7672
▁tech	-7673
▁wall	-7674
uction	-7675
▁Popul	-7676
▁bills	-7677
▁facto	-7678
▁overt	-7679
society	-7680
▁Simply	-7681
▁denied	-7682
▁fellow	-7683
▁fertil	-7684
▁restra	-7685
▁solely	-7686
▁tempor	-7687
▁trials	-7688
ulations	-7689
▁Economy	-7690
▁Francis	-7691
▁classes	-7692
▁customs	-7693
▁retreat	-7694
▁shaping	-7695
▁spurred	-7696
▁student	-7697
▁telling	-7698
▁audience	-7699
▁claiming	-7700
▁tendency	-7701
▁widening	-7702
controlled	-7703
▁attracted	-7704
▁providers	-7705
▁returning	-7706
▁complexity	-7707
▁politician	-7708
▁popularity	-7709
▁destructive	-7710
▁functioning	-7711
▁underpinned	-7712
▁contemporary	-7713
▁deleveraging	-7714
▁concentration	-7715
▁confrontation	-7716
▁destabilizing	-7717
LA	-7718
jud	-7719
len	-7720
mal	-7721
▁6%	-7722
rick	-7723
▁11,	-7724
▁Air	-7725
▁Don	-7726
▁Had	-7727
▁son	-7728
▁1960	-7729
▁Mich	-7730
▁Pact	-7731
▁Prov	-7732
▁abol	-7733
▁cens	-7734
▁lift	-7735
▁love	-7736
▁scre	-7737
▁sequ	-7738
▁suic	-7739
ailing	-7740
arians	-7741
thodox	-7742
▁2012.	-7743
▁Moroc	-7744
▁Ocean	-7745
▁coinc	-7746
▁lands	-7747
▁mixed	-7748
▁piece	-7749
▁sight	-7750
station	-7751
▁Follow	-7752
▁Having	-7753
▁assist	-7754
▁formed	-7755
▁letter	-7756
▁method	-7757
▁precip	-7758
▁Whereas	-7759
▁bolster	-7760
▁devices	-7761
▁dilemma	-7762
▁doubled	-7763
▁fishing	-7764
▁municip	-7765
▁release	-7766
▁richest	-7767
▁carrying	-7768
▁cultures	-7769
▁frequent	-7770
▁indirect	-7771
▁maximize	-7772
▁minimize	-7773
▁overhaul	-7774
▁reminder	-7775
▁Otherwise	-7776
▁disappear	-7777
▁emphasize	-7778
▁hospitals	-7779
▁challenged	-7780
▁definition	-7781
▁exacerbate	-7782
▁Association	-7783
▁operational	-7784
▁predictions	-7785
▁temporarily	-7786
▁representative	-7787
70	-7788
OM	-7789
UN	-7790
▁‘	-7791
ghi	-7792
iary	-7793
offs	-7794
▁Art	-7795
▁Cur	-7796
▁bed	-7797
Assad	-7798
dated	-7799
ivals	-7800
ymmet	-7801
▁Bosn	-7802
▁Nazi	-7803
▁Stud	-7804
▁Wolf	-7805
▁deem	-7806
▁erod	-7807
▁flee	-7808
▁mira	-7809
▁tsun	-7810
apping	-7811
friend	-7812
iciary	-7813
▁Catal	-7814
▁Fried	-7815
▁brand	-7816
▁dereg	-7817
▁grant	-7818
▁spill	-7819
▁tends	-7820
aunting	-7821
▁Lisbon	-7822
▁Report	-7823
▁Review	-7824
▁contag	-7825
▁paraly	-7826
▁turbul	-7827
▁devoted	-7828
▁earthqu	-7829
▁enables	-7830
▁islands	-7831
▁legally	-7832
▁looming	-7833
▁tension	-7834
▁advancing	-7835
▁diagnosis	-7836
▁extensive	-7837
▁Government	-7838
▁collateral	-7839
▁confronted	-7840
▁centralized	-7841
▁comparative	-7842
▁existential	-7843
▁introduction	-7844
▁protectionist	-7845
va	-7846
eal	-7847
▁--	-7848
▁28	-7849
ELHI	-7850
ball	-7851
cure	-7852
iced	-7853
rill	-7854
unch	-7855
▁Mel	-7856
▁Rec	-7857
▁Who	-7858
▁ing	-7859
▁yen	-7860
arked	-7861
esity	-7862
haust	-7863
omics	-7864
think	-7865
▁Modi	-7866
▁Prem	-7867
▁bias	-7868
▁cold	-7869
▁duty	-7870
▁lobb	-7871
▁perv	-7872
▁DELHI	-7873
▁Yemen	-7874
▁depth	-7875
▁enemy	-7876
▁notes	-7877
▁owned	-7878
▁rigid	-7879
▁Draghi	-7880
▁MADRID	-7881
▁System	-7882
▁agents	-7883
▁anemic	-7884
▁robots	-7885
▁stated	-7886
▁suspic	-7887
▁versus	-7888
▁vested	-7889
▁Leaders	-7890
▁acquire	-7891
▁arrived	-7892
▁corresp	-7893
▁dignity	-7894
▁impover	-7895
▁privacy	-7896
▁ranging	-7897
▁somehow	-7898
▁tremend	-7899
mentation	-7900
▁Protocol	-7901
▁deployed	-7902
▁enduring	-7903
▁engaging	-7904
▁optimism	-7905
▁outflows	-7906
▁province	-7907
industrial	-7908
▁appealing	-7909
▁campaigns	-7910
▁contained	-7911
▁discovery	-7912
▁employers	-7913
▁preferred	-7914
▁realities	-7915
▁deterrence	-7916
▁ecosystems	-7917
▁propaganda	-7918
▁dangerously	-7919
▁distributed	-7920
▁financially	-7921
▁frustration	-7922
▁Policymakers	-7923
▁transmission	-7924
▁unacceptable	-7925
▁reconciliation	-7926
PCC	-7927
col	-7928
nel	-7929
sur	-7930
▁CD	-7931
▁sn	-7932
onym	-7933
▁Ban	-7934
▁Cup	-7935
▁Est	-7936
▁Ter	-7937
▁bon	-7938
▁gam	-7939
▁ham	-7940
▁twe	-7941
hetic	-7942
itely	-7943
liers	-7944
▁Decl	-7945
▁Tony	-7946
▁amid	-7947
▁caut	-7948
▁cere	-7949
▁evil	-7950
▁pand	-7951
▁wins	-7952
uggish	-7953
▁2020.	-7954
▁Basel	-7955
▁Where	-7956
▁Worse	-7957
▁burst	-7958
▁consc	-7959
▁drove	-7960
▁fault	-7961
▁split	-7962
▁Office	-7963
▁bright	-7964
▁circle	-7965
▁permit	-7966
▁pledge	-7967
▁revive	-7968
ceptions	-7969
ologists	-7970
▁Mexican	-7971
▁Morocco	-7972
▁Neither	-7973
▁factory	-7974
▁follows	-7975
▁lacking	-7976
▁2008-200	-7977
▁Israelis	-7978
▁ambition	-7979
▁arguably	-7980
▁borrowed	-7981
▁clearing	-7982
▁demanded	-7983
▁marriage	-7984
▁obstacle	-7985
▁shortage	-7986
▁desirable	-7987
▁precedent	-7988
▁successes	-7989
▁compensate	-7990
▁ecological	-7991
▁fragmented	-7992
▁guidelines	-7993
▁punishment	-7994
▁sanitation	-7995
▁accordingly	-7996
▁distortions	-7997
▁exacerbated	-7998
▁determination	-7999
▁dysfunctional	-8000
▁indispensable	-8001
25	-8002
▁.	-8003
iro	-8004
kin	-8005
osm	-8006
AVEN	-8007
azon	-8008
laud	-8009
▁Del	-8010
▁Fut	-8011
▁NCD	-8012
▁NGO	-8013
▁WTO	-8014
▁alc	-8015
▁map	-8016
▁scr	-8017
▁tap	-8018
added	-8019
iants	-8020
ishes	-8021
ouris	-8022
▁Wood	-8023
▁cogn	-8024
▁kick	-8025
▁luck	-8026
▁toug	-8027
licted	-8028
reform	-8029
▁HAVEN	-8030
▁Qaeda	-8031
▁dying	-8032
▁grows	-8033
▁hoped	-8034
▁resur	-8035
▁revel	-8036
▁waves	-8037
General	-8038
comings	-8039
▁approx	-8040
▁bought	-8041
▁obtain	-8042
▁reveal	-8043
▁taught	-8044
▁Premier	-8045
▁bipolar	-8046
▁display	-8047
▁neutral	-8048
▁scrutin	-8049
▁technoc	-8050
▁venture	-8051
▁Xiaoping	-8052
▁equipped	-8053
▁imported	-8054
▁maritime	-8055
▁Following	-8056
▁Islamists	-8057
▁Ukrainian	-8058
▁childhood	-8059
▁equitable	-8060
▁headlines	-8061
▁judiciary	-8062
▁philosoph	-8063
▁translate	-8064
▁undertake	-8065
▁Developing	-8066
▁constitute	-8067
▁creativity	-8068
▁diminished	-8069
▁expansionary	-8070
▁shortcomings	-8071
-3	-8072
5%.	-8073
Sem	-8074
ael	-8075
ima	-8076
tar	-8077
▁8%	-8078
cend	-8079
orse	-8080
velt	-8081
▁$10	-8082
▁Day	-8083
alism	-8084
▁Hait	-8085
▁Next	-8086
▁Vice	-8087
▁calm	-8088
▁enjo	-8089
▁stif	-8090
▁subt	-8091
liance	-8092
▁1930’	-8093
▁admit	-8094
▁arsen	-8095
▁cohes	-8096
▁deriv	-8097
▁draft	-8098
▁hedge	-8099
▁proud	-8100
▁quiet	-8101
▁roles	-8102
iations	-8103
leading	-8104
oration	-8105
osevelt	-8106
▁Fourth	-8107
▁Making	-8108
▁lately	-8109
▁lifest	-8110
▁metric	-8111
▁overth	-8112
▁Project	-8113
▁asymmet	-8114
▁carries	-8115
▁revival	-8116
▁strikes	-8117
▁triumph	-8118
▁unknown	-8119
▁Cambodia	-8120
▁assuming	-8121
▁director	-8122
▁feasible	-8123
▁innocent	-8124
▁tackling	-8125
▁theories	-8126
▁troubles	-8127
▁criminals	-8128
▁factories	-8129
▁pragmatic	-8130
▁strongest	-8131
▁accomplish	-8132
▁adaptation	-8133
▁adequately	-8134
▁appreciate	-8135
▁highlights	-8136
▁occupation	-8137
▁processing	-8138
▁renewables	-8139
▁unexpected	-8140
▁differently	-8141
▁disarmament	-8142
▁equilibrium	-8143
▁highlighted	-8144
▁recommendations	-8145
ek	-8146
ka	-8147
ago	-8148
anz	-8149
cho	-8150
ito	-8151
oul	-8152
zed	-8153
▁$8	-8154
▁CN	-8155
▁Us	-8156
▁fr	-8157
aked	-8158
ctic	-8159
need	-8160
ords	-8161
▁AMR	-8162
▁Emp	-8163
▁God	-8164
▁Tax	-8165
▁fan	-8166
▁lux	-8167
Semit	-8168
archy	-8169
usive	-8170
▁1997	-8171
▁2018	-8172
▁Roma	-8173
▁card	-8174
▁hike	-8175
▁rend	-8176
▁rent	-8177
taking	-8178
▁2003,	-8179
▁Apple	-8180
▁Iraqi	-8181
▁Prize	-8182
▁brink	-8183
▁escap	-8184
▁fraud	-8185
▁incre	-8186
▁topic	-8187
capital	-8188
▁Agenda	-8189
▁Better	-8190
▁absent	-8191
▁behave	-8192
▁corner	-8193
▁floods	-8194
▁freely	-8195
▁plural	-8196
▁serves	-8197
▁shaped	-8198
capacity	-8199
▁Finland	-8200
▁Several	-8201
▁assault	-8202
▁exhaust	-8203
▁implied	-8204
▁monitor	-8205
▁placing	-8206
▁stagger	-8207
▁trained	-8208
▁typical	-8209
▁village	-8210
▁generals	-8211
▁hegemony	-8212
▁meltdown	-8213
▁pensions	-8214
▁Roosevelt	-8215
▁extremism	-8216
▁incumbent	-8217
▁oversight	-8218
▁recovered	-8219
▁rejection	-8220
▁selection	-8221
▁electorate	-8222
▁intentions	-8223
▁monitoring	-8224
▁exclusively	-8225
▁reinforcing	-8226
▁speculation	-8227
▁transaction	-8228
BC	-8229
Wh	-8230
tw	-8231
yc	-8232
FOR	-8233
TIP	-8234
kes	-8235
och	-8236
vey	-8237
▁Ed	-8238
▁Gü	-8239
anth	-8240
cked	-8241
emer	-8242
hani	-8243
inal	-8244
▁Jer	-8245
▁PRI	-8246
▁haz	-8247
▁ice	-8248
alley	-8249
asant	-8250
egoti	-8251
skept	-8252
▁Coal	-8253
▁door	-8254
▁sake	-8255
▁walk	-8256
▁2050,	-8257
▁Elect	-8258
▁Qatar	-8259
▁breat	-8260
▁brief	-8261
▁flaws	-8262
▁panic	-8263
▁rally	-8264
▁ultra	-8265
content	-8266
inction	-8267
▁behalf	-8268
▁hurric	-8269
▁injust	-8270
▁lifted	-8271
▁relied	-8272
▁seeing	-8273
▁stakes	-8274
▁automob	-8275
▁brother	-8276
▁complac	-8277
▁cryptoc	-8278
▁evolved	-8279
▁horizon	-8280
▁issuing	-8281
▁serving	-8282
▁acquired	-8283
▁amounted	-8284
▁arrested	-8285
▁daunting	-8286
▁directed	-8287
▁embedded	-8288
▁governed	-8289
▁implying	-8290
▁interact	-8291
investment	-8292
▁Community	-8293
▁communism	-8294
▁genuinely	-8295
▁magnitude	-8296
▁prevailed	-8297
▁recapital	-8298
▁regularly	-8299
▁capitalist	-8300
▁expectancy	-8301
▁irrelevant	-8302
▁recessions	-8303
▁degradation	-8304
▁requirement	-8305
▁speculative	-8306
▁unification	-8307
▁immunization	-8308
▁predecessors	-8309
▁representing	-8310
▁disintegration	-8311
CH	-8312
eu	-8313
sm	-8314
▁x	-8315
asy	-8316
cul	-8317
▁ox	-8318
-199	-8319
adly	-8320
arus	-8321
brid	-8322
left	-8323
trad	-8324
▁1.5	-8325
▁Bol	-8326
▁Dec	-8327
▁Mat	-8328
▁Yas	-8329
▁cum	-8330
▁cyn	-8331
▁pra	-8332
▁yes	-8333
backs	-8334
comed	-8335
ester	-8336
iques	-8337
▁2002	-8338
▁cure	-8339
▁curt	-8340
▁diet	-8341
▁nets	-8342
▁sect	-8343
▁sees	-8344
▁tide	-8345
▁veto	-8346
addafi	-8347
backed	-8348
guided	-8349
resist	-8350
▁Child	-8351
▁Civil	-8352
▁Water	-8353
▁alien	-8354
▁cards	-8355
▁sheer	-8356
▁stret	-8357
▁utter	-8358
▁animal	-8359
▁curric	-8360
▁detect	-8361
▁fortun	-8362
▁losers	-8363
▁mathem	-8364
▁relent	-8365
▁resemb	-8366
ortheast	-8367
▁Banking	-8368
▁animals	-8369
▁compact	-8370
▁convict	-8371
▁drawing	-8372
▁linking	-8373
▁notable	-8374
▁sending	-8375
▁signals	-8376
▁soaring	-8377
▁surface	-8378
▁vehicle	-8379
▁Emerging	-8380
▁Governor	-8381
▁creditor	-8382
▁diagnost	-8383
▁insights	-8384
▁sluggish	-8385
▁stemming	-8386
▁supervis	-8387
▁treating	-8388
▁watching	-8389
performing	-8390
productive	-8391
▁Churchill	-8392
▁Sometimes	-8393
▁concerted	-8394
▁crackdown	-8395
▁empirical	-8396
▁followers	-8397
▁imperfect	-8398
▁justified	-8399
▁medicines	-8400
▁preparing	-8401
denominated	-8402
▁aggression	-8403
▁connection	-8404
▁eliminated	-8405
▁impression	-8406
▁temptation	-8407
▁tremendous	-8408
▁undermines	-8409
▁anticipated	-8410
▁approaching	-8411
▁containment	-8412
▁foreseeable	-8413
▁territories	-8414
▁collectively	-8415
▁historically	-8416
▁impoverished	-8417
▁Infrastructure	-8418
▁characteristics	-8419
▁vulnerabilities	-8420
ps	-8421
▁&	-8422
▁,	-8423
ixt	-8424
odd	-8425
ois	-8426
tor	-8427
ulg	-8428
ania	-8429
eneg	-8430
etty	-8431
high	-8432
ixon	-8433
▁Age	-8434
▁kil	-8435
▁liv	-8436
▁unm	-8437
Japan	-8438
astic	-8439
ronts	-8440
speed	-8441
▁Acad	-8442
▁Prom	-8443
▁Sadd	-8444
▁film	-8445
▁spok	-8446
▁tens	-8447
▁tied	-8448
erties	-8449
▁2017.	-8450
▁2030,	-8451
▁Alban	-8452
▁Stand	-8453
▁grasp	-8454
▁incon	-8455
▁incur	-8456
▁stuck	-8457
▁style	-8458
▁vigor	-8459
enophob	-8460
renched	-8461
version	-8462
▁Across	-8463
▁Bashar	-8464
▁Common	-8465
▁Valley	-8466
▁bloody	-8467
▁detain	-8468
▁excell	-8469
▁houses	-8470
▁interm	-8471
▁repair	-8472
▁theore	-8473
idential	-8474
▁Richard	-8475
▁affects	-8476
▁blocked	-8477
▁charged	-8478
▁combine	-8479
▁enjoyed	-8480
▁harvest	-8481
▁indefin	-8482
▁lawyers	-8483
▁neglect	-8484
▁smoking	-8485
▁unified	-8486
▁vicious	-8487
▁worries	-8488
▁captured	-8489
▁dividend	-8490
▁dynamism	-8491
▁ministry	-8492
▁orthodox	-8493
▁producer	-8494
▁securing	-8495
▁socially	-8496
▁welcomed	-8497
ifications	-8498
▁Authority	-8499
▁accession	-8500
▁appointed	-8501
▁buildings	-8502
▁nutrition	-8503
▁algorithms	-8504
▁advertising	-8505
▁predecessor	-8506
▁interference	-8507
▁specifically	-8508
5%,	-8509
LIN	-8510
ahu	-8511
▁Ev	-8512
▁€1	-8513
ales	-8514
anch	-8515
risk	-8516
▁Hen	-8517
▁arm	-8518
▁aug	-8519
▁mil	-8520
▁sho	-8521
ander	-8522
digit	-8523
ernal	-8524
izers	-8525
owing	-8526
rones	-8527
▁Cost	-8528
▁keen	-8529
▁wife	-8530
▁2016.	-8531
▁Doing	-8532
▁Macri	-8533
▁Nixon	-8534
▁actor	-8535
▁insur	-8536
▁midst	-8537
▁ocean	-8538
▁relax	-8539
▁teach	-8540
roughts	-8541
viously	-8542
▁Minist	-8543
▁Saddam	-8544
▁adults	-8545
▁fisher	-8546
▁impede	-8547
▁master	-8548
▁physic	-8549
▁punish	-8550
▁purely	-8551
▁spiral	-8552
▁therap	-8553
arations	-8554
election	-8555
▁Affairs	-8556
▁Freedom	-8557
▁Liberal	-8558
▁dismant	-8559
▁mineral	-8560
▁obesity	-8561
▁suspect	-8562
▁traders	-8563
▁writing	-8564
effective	-8565
financial	-8566
▁choosing	-8567
▁describe	-8568
▁disputed	-8569
▁governor	-8570
▁inspired	-8571
▁isolated	-8572
▁regulate	-8573
democratic	-8574
management	-8575
▁dividends	-8576
▁happiness	-8577
▁healthier	-8578
▁occurring	-8579
▁respected	-8580
▁spreading	-8581
▁unpredict	-8582
▁Protection	-8583
▁benefiting	-8584
▁correspond	-8585
▁instrument	-8586
▁obligation	-8587
▁provisions	-8588
withstanding	-8589
▁accelerated	-8590
▁cooperative	-8591
▁preferences	-8592
▁accumulation	-8593
▁aggressively	-8594
▁significance	-8595
▁transnational	-8596
▁Representatives	-8597
As	-8598
bu	-8599
zo	-8600
”:	-8601
NCE	-8602
WII	-8603
aug	-8604
▁22	-8605
hors	-8606
zing	-8607
▁$2.	-8608
▁End	-8609
▁Kaz	-8610
▁Pre	-8611
▁Ref	-8612
▁bes	-8613
▁bio	-8614
▁env	-8615
▁ost	-8616
▁pil	-8617
aired	-8618
aning	-8619
fired	-8620
front	-8621
othes	-8622
▁HONG	-8623
▁KONG	-8624
▁bulk	-8625
▁cool	-8626
▁leng	-8627
▁odds	-8628
▁town	-8629
NCETON	-8630
idance	-8631
ilater	-8632
orious	-8633
regard	-8634
▁Gülen	-8635
▁Mario	-8636
▁chose	-8637
▁peril	-8638
▁safer	-8639
atories	-8640
aughter	-8641
economy	-8642
endment	-8643
ilitary	-8644
▁Asians	-8645
▁deemed	-8646
▁deepen	-8647
▁ethics	-8648
▁listen	-8649
▁phones	-8650
cyclical	-8651
specific	-8652
▁assumes	-8653
▁burdens	-8654
▁delayed	-8655
▁suffers	-8656
▁adjusted	-8657
▁defaults	-8658
▁displace	-8659
▁droughts	-8660
▁judgment	-8661
▁judicial	-8662
▁PRINCETON	-8663
▁emotional	-8664
▁exclusive	-8665
▁indicates	-8666
▁meanwhile	-8667
▁professor	-8668
▁shrinking	-8669
responsible	-8670
▁collection	-8671
▁correction	-8672
▁difficulty	-8673
▁earthquake	-8674
▁profitable	-8675
▁situations	-8676
▁sustaining	-8677
▁excessively	-8678
▁protections	-8679
▁manufacturers	-8680
-7	-8681
CC	-8682
EP	-8683
ali	-8684
cup	-8685
des	-8686
due	-8687
emy	-8688
iam	-8689
kov	-8690
lov	-8691
ups	-8692
uzz	-8693
▁2,	-8694
▁35	-8695
▁id	-8696
good	-8697
ohol	-8698
▁$50	-8699
▁Mur	-8700
▁Pik	-8701
▁lic	-8702
▁rac	-8703
ashes	-8704
ceans	-8705
fifth	-8706
green	-8707
olved	-8708
orted	-8709
ounce	-8710
ropri	-8711
ruits	-8712
shore	-8713
uated	-8714
▁Jose	-8715
▁edit	-8716
▁fees	-8717
▁fool	-8718
▁grim	-8719
▁heed	-8720
▁ramp	-8721
▁sums	-8722
anyahu	-8723
encing	-8724
erated	-8725
▁2002,	-8726
▁Above	-8727
▁Ahmad	-8728
▁Banks	-8729
▁Chief	-8730
▁Major	-8731
▁angry	-8732
▁annex	-8733
▁climb	-8734
▁drast	-8735
▁fifth	-8736
▁humil	-8737
▁hyper	-8738
▁ignor	-8739
▁music	-8740
▁rises	-8741
▁towns	-8742
▁trump	-8743
anthrop	-8744
▁Amazon	-8745
▁Kazakh	-8746
▁Terror	-8747
▁helium	-8748
▁poised	-8749
▁racial	-8750
▁reserv	-8751
▁thrive	-8752
▁tragic	-8753
▁worker	-8754
affected	-8755
inations	-8756
▁Charter	-8757
▁Piketty	-8758
▁classic	-8759
▁damaged	-8760
▁exceeds	-8761
▁passing	-8762
▁reading	-8763
▁tourism	-8764
▁urgency	-8765
▁visited	-8766
▁whereby	-8767
▁winners	-8768
▁Together	-8769
▁chairman	-8770
▁distance	-8771
▁endorsed	-8772
▁excluded	-8773
▁fairness	-8774
▁terrible	-8775
ilaterally	-8776
orestation	-8777
▁Netanyahu	-8778
▁cognitive	-8779
▁completed	-8780
▁condemned	-8781
▁departure	-8782
▁literally	-8783
▁personnel	-8784
▁upgrading	-8785
information	-8786
▁convincing	-8787
▁staggering	-8788
▁comfortable	-8789
▁interesting	-8790
▁restructure	-8791
▁breakthroughs	-8792
▁fragmentation	-8793
▁overwhelmingly	-8794
EC	-8795
Sh	-8796
dec	-8797
lav	-8798
▁Bh	-8799
amin	-8800
comp	-8801
room	-8802
▁Sam	-8803
▁Sri	-8804
▁Tob	-8805
▁sky	-8806
ercul	-8807
qiang	-8808
▁Darf	-8809
▁Dire	-8810
▁Mass	-8811
▁Sant	-8812
▁exec	-8813
▁hide	-8814
▁pock	-8815
▁rand	-8816
▁tiny	-8817
needed	-8818
▁Niger	-8819
▁consp	-8820
▁forge	-8821
▁maneu	-8822
▁marks	-8823
▁opium	-8824
private	-8825
quarter	-8826
ubercul	-8827
▁advers	-8828
▁deadly	-8829
▁ingred	-8830
▁solved	-8831
friendly	-8832
▁Johnson	-8833
▁Nicolas	-8834
▁alcohol	-8835
▁breakup	-8836
▁consume	-8837
▁covered	-8838
▁degrees	-8839
▁forever	-8840
▁migrant	-8841
▁tsunami	-8842
▁unpopul	-8843
fficiency	-8844
▁entities	-8845
▁imprison	-8846
▁impunity	-8847
▁insisted	-8848
▁predomin	-8849
▁promoted	-8850
▁stressed	-8851
▁tradable	-8852
▁unstable	-8853
▁Companies	-8854
▁extending	-8855
▁functions	-8856
▁scenarios	-8857
▁screening	-8858
uberculosis	-8859
▁acceptance	-8860
▁attracting	-8861
▁discontent	-8862
▁entrenched	-8863
▁incomplete	-8864
▁peripheral	-8865
▁accumulated	-8866
▁application	-8867
▁consolidate	-8868
▁disruptions	-8869
▁statistical	-8870
▁Specifically	-8871
▁deliberately	-8872
BT	-8873
yo	-8874
ARC	-8875
iol	-8876
map	-8877
uum	-8878
agog	-8879
anim	-8880
hips	-8881
usal	-8882
▁Lee	-8883
▁coc	-8884
▁eat	-8885
aying	-8886
bonds	-8887
olera	-8888
orage	-8889
ounds	-8890
ravel	-8891
worth	-8892
▁Bret	-8893
▁Fran	-8894
▁Gold	-8895
▁IPCC	-8896
▁Lank	-8897
▁Long	-8898
▁Near	-8899
▁Poor	-8900
▁Pric	-8901
▁Rome	-8902
▁Stal	-8903
▁cosm	-8904
alties	-8905
compet	-8906
ighted	-8907
incial	-8908
owered	-8909
▁2011.	-8910
▁alleg	-8911
▁cited	-8912
▁clout	-8913
▁griev	-8914
▁pride	-8915
▁squee	-8916
induced	-8917
ratives	-8918
ulators	-8919
▁Almost	-8920
▁Future	-8921
▁Ronald	-8922
▁differ	-8923
▁dozens	-8924
▁inputs	-8925
▁mental	-8926
▁oceans	-8927
▁soccer	-8928
▁tested	-8929
▁timing	-8930
▁window	-8931
▁Balkans	-8932
▁Belarus	-8933
▁Success	-8934
▁answers	-8935
▁burning	-8936
▁debtors	-8937
▁emulate	-8938
▁extends	-8939
▁harness	-8940
▁hostile	-8941
▁intoler	-8942
▁unequal	-8943
▁flooding	-8944
▁guidance	-8945
▁xenophob	-8946
▁addresses	-8947
▁contagion	-8948
▁decentral	-8949
▁depressed	-8950
▁newspaper	-8951
▁promotion	-8952
▁provinces	-8953
▁strengths	-8954
▁Throughout	-8955
▁abandoning	-8956
▁boundaries	-8957
▁irrational	-8958
▁protracted	-8959
▁resentment	-8960
▁triggering	-8961
▁bureaucrats	-8962
▁controlling	-8963
▁distinguish	-8964
▁settlements	-8965
▁stabilizing	-8966
▁commentators	-8967
▁connectivity	-8968
▁conservation	-8969
▁evolutionary	-8970
▁polarization	-8971
40	-8972
60	-8973
AG	-8974
IS	-8975
”)	-8976
500	-8977
esh	-8978
jad	-8979
umn	-8980
voc	-8981
▁BO	-8982
▁La	-8983
▁Sy	-8984
Russ	-8985
char	-8986
ford	-8987
nedy	-8988
norm	-8989
pply	-8990
▁Dig	-8991
▁Ric	-8992
▁Sol	-8993
▁Squ	-8994
▁Sur	-8995
▁Ten	-8996
▁Web	-8997
▁box	-8998
apped	-8999
eterm	-9000
itage	-9001
trans	-9002
▁boss	-9003
▁edge	-9004
▁feet	-9005
▁sale	-9006
▁tang	-9007
atible	-9008
inejad	-9009
retion	-9010
unning	-9011
▁2009.	-9012
▁Arabs	-9013
▁Haiti	-9014
▁Index	-9015
▁Would	-9016
▁camps	-9017
▁indif	-9018
▁miles	-9019
▁panel	-9020
▁param	-9021
▁scarc	-9022
▁store	-9023
▁teams	-9024
▁upris	-9025
control	-9026
lusions	-9027
▁BERLIN	-9028
▁Bosnia	-9029
▁Darfur	-9030
▁earned	-9031
▁filled	-9032
▁firmly	-9033
▁parlia	-9034
▁street	-9035
▁Increas	-9036
▁Kennedy	-9037
▁Keqiang	-9038
▁Sanders	-9039
▁Science	-9040
▁article	-9041
▁favored	-9042
▁gravity	-9043
▁hegemon	-9044
▁silence	-9045
▁alarming	-9046
▁comprise	-9047
▁distress	-9048
▁distrust	-9049
▁freedoms	-9050
▁frontier	-9051
▁inaction	-9052
▁paradigm	-9053
▁parallel	-9054
▁philosop	-9055
▁restored	-9056
▁speaking	-9057
▁Argentine	-9058
▁allocated	-9059
▁combating	-9060
▁dimension	-9061
▁exclusion	-9062
▁suppliers	-9063
▁Kazakhstan	-9064
▁undertaken	-9065
▁ineffective	-9066
▁parliaments	-9067
▁residential	-9068
▁entrepreneur	-9069
▁telecommunic	-9070
▁Environmental	-9071
▁automatically	-9072
▁disappointing	-9073
▁industrialized	-9074
Le	-9075
UR	-9076
Ind	-9077
irs	-9078
law	-9079
sum	-9080
▁na	-9081
airo	-9082
aise	-9083
aret	-9084
asse	-9085
drop	-9086
hman	-9087
life	-9088
omas	-9089
step	-9090
▁Dam	-9091
▁Too	-9092
▁uni	-9093
armed	-9094
lined	-9095
otten	-9096
overs	-9097
▁Belt	-9098
▁beat	-9099
▁fier	-9100
▁hate	-9101
▁nurt	-9102
▁pron	-9103
▁wary	-9104
arious	-9105
global	-9106
iteers	-9107
manuel	-9108
▁Chair	-9109
▁Fight	-9110
▁Panel	-9111
▁Swiss	-9112
▁alive	-9113
▁dozen	-9114
▁euros	-9115
▁intra	-9116
▁monet	-9117
▁pivot	-9118
▁reloc	-9119
▁tells	-9120
defense	-9121
diction	-9122
▁Shinzo	-9123
▁boards	-9124
▁bridge	-9125
▁cleare	-9126
▁evolve	-9127
▁orient	-9128
▁phrase	-9129
▁regain	-9130
▁silent	-9131
▁winner	-9132
▁Similar	-9133
▁Summers	-9134
▁convert	-9135
▁dissent	-9136
▁dubious	-9137
▁inspire	-9138
▁orderly	-9139
▁portray	-9140
▁premium	-9141
▁rebuild	-9142
▁records	-9143
▁recruit	-9144
▁refusal	-9145
▁unclear	-9146
▁Brothers	-9147
▁blocking	-9148
▁breaking	-9149
▁downside	-9150
▁equities	-9151
▁opinions	-9152
▁reckless	-9153
▁reversal	-9154
▁supercon	-9155
▁thousand	-9156
▁warnings	-9157
▁countless	-9158
▁dedicated	-9159
▁disregard	-9160
▁gathering	-9161
▁overnight	-9162
▁troubling	-9163
▁workplace	-9164
▁motivation	-9165
▁officially	-9166
▁experiments	-9167
▁facilitated	-9168
▁unnecessary	-9169
▁fluctuations	-9170
▁overcapacity	-9171
▁transforming	-9172
▁normalization	-9173
▁possibilities	-9174
▁representation	-9175
AT	-9176
ET	-9177
In	-9178
hr	-9179
án	-9180
pel	-9181
▁8.	-9182
▁Lu	-9183
▁Up	-9184
case	-9185
host	-9186
orce	-9187
ques	-9188
thal	-9189
ulum	-9190
usse	-9191
▁Bay	-9192
▁BoE	-9193
▁dry	-9194
▁hat	-9195
▁syn	-9196
▁ven	-9197
essed	-9198
ousse	-9199
start	-9200
world	-9201
▁Army	-9202
▁Does	-9203
▁Pers	-9204
▁Real	-9205
▁TTIP	-9206
▁abst	-9207
▁feat	-9208
▁pump	-9209
cially	-9210
▁Abbas	-9211
▁chair	-9212
▁crowd	-9213
▁hikes	-9214
▁ought	-9215
▁patri	-9216
▁plain	-9217
▁spoke	-9218
▁steep	-9219
assador	-9220
instein	-9221
itively	-9222
rategic	-9223
▁Former	-9224
▁Lehman	-9225
▁Twenty	-9226
▁barrel	-9227
▁desert	-9228
▁fought	-9229
▁giants	-9230
▁hidden	-9231
▁images	-9232
▁lender	-9233
▁pretty	-9234
▁random	-9235
▁rivals	-9236
▁soared	-9237
▁sphere	-9238
▁starts	-9239
▁strang	-9240
▁unfold	-9241
▁booming	-9242
▁caution	-9243
▁discred	-9244
▁endless	-9245
▁founded	-9246
▁illustr	-9247
▁logical	-9248
▁outrage	-9249
▁Director	-9250
▁Thatcher	-9251
▁averaged	-9252
▁detailed	-9253
▁scrutiny	-9254
▁undercut	-9255
▁declaring	-9256
▁intensify	-9257
▁interview	-9258
▁liability	-9259
▁prisoners	-9260
▁secretary	-9261
▁biological	-9262
▁constantly	-9263
▁deployment	-9264
▁disruptive	-9265
▁escalating	-9266
▁globalized	-9267
▁newspapers	-9268
▁provincial	-9269
▁reluctance	-9270
▁techniques	-9271
▁Declaration	-9272
▁efficiently	-9273
▁introducing	-9274
▁negotiators	-9275
▁recommended	-9276
▁demonstrates	-9277
▁facilitating	-9278
▁approximately	-9279
▁deforestation	-9280
▁demonstrations	-9281
▁underestimated	-9282
BA	-9283
OK	-9284
-2.	-9285
avi	-9286
ett	-9287
rim	-9288
▁Ko	-9289
arks	-9290
burg	-9291
iast	-9292
▁35%	-9293
▁Ach	-9294
▁Dub	-9295
▁Gen	-9296
▁SAN	-9297
▁Tay	-9298
▁Vik	-9299
▁Vol	-9300
▁Wil	-9301
▁esp	-9302
▁fro	-9303
▁kid	-9304
Afric	-9305
ellen	-9306
exist	-9307
field	-9308
occup	-9309
roads	-9310
ullah	-9311
vedev	-9312
▁1989	-9313
▁Alex	-9314
▁Kurd	-9315
▁Land	-9316
▁baby	-9317
▁buff	-9318
▁club	-9319
▁diam	-9320
▁plus	-9321
▁semi	-9322
imalay	-9323
profit	-9324
saving	-9325
▁Black	-9326
▁Labor	-9327
▁Right	-9328
▁acted	-9329
▁alter	-9330
▁clash	-9331
▁inhab	-9332
▁polio	-9333
▁river	-9334
▁swift	-9335
▁weigh	-9336
ariably	-9337
igenous	-9338
ortions	-9339
▁Histor	-9340
▁Marine	-9341
▁Yellen	-9342
▁abrupt	-9343
▁analog	-9344
▁casual	-9345
▁denial	-9346
▁electr	-9347
▁feared	-9348
▁median	-9349
▁notice	-9350
▁recall	-9351
▁savers	-9352
▁slogan	-9353
ineering	-9354
▁Charles	-9355
▁boosted	-9356
▁cleaner	-9357
▁clients	-9358
▁entails	-9359
▁expects	-9360
▁mindset	-9361
▁pillars	-9362
▁storage	-9363
istically	-9364
rexiteers	-9365
urrencies	-9366
▁Administ	-9367
▁Medvedev	-9368
▁aircraft	-9369
▁cautious	-9370
▁customer	-9371
▁dictator	-9372
▁diminish	-9373
▁instinct	-9374
▁mathemat	-9375
▁removing	-9376
▁stagnant	-9377
▁whenever	-9378
▁defending	-9379
▁embracing	-9380
▁graduates	-9381
▁intensity	-9382
▁municipal	-9383
▁portfolio	-9384
▁sacrifice	-9385
▁suspicion	-9386
▁accessible	-9387
▁censorship	-9388
▁electronic	-9389
▁indigenous	-9390
▁innovators	-9391
▁misleading	-9392
▁narratives	-9393
▁Ahmadinejad	-9394
▁Corporation	-9395
▁assessments	-9396
▁connections	-9397
▁continental	-9398
▁diminishing	-9399
▁inspiration	-9400
▁interaction	-9401
▁permanently	-9402
▁replacement	-9403
▁spectacular	-9404
▁underscores	-9405
▁civilization	-9406
▁jurisdiction	-9407
▁irresponsible	-9408
▁privatization	-9409
▁environmentally	-9410
afe	-9411
ker	-9412
ras	-9413
zai	-9414
▁26	-9415
atch	-9416
bial	-9417
eter	-9418
feld	-9419
icul	-9420
pple	-9421
wage	-9422
wood	-9423
writ	-9424
▁Bor	-9425
▁Bre	-9426
▁FDI	-9427
▁Jan	-9428
▁Jim	-9429
▁Roy	-9430
▁Xin	-9431
▁ped	-9432
▁vit	-9433
▁2030	-9434
▁Fear	-9435
▁Gaul	-9436
▁Krug	-9437
▁Mart	-9438
▁Post	-9439
▁Sach	-9440
▁diff	-9441
▁fant	-9442
▁guer	-9443
▁vide	-9444
erates	-9445
estock	-9446
eville	-9447
ocracy	-9448
▁Franç	-9449
▁Guant	-9450
▁Micro	-9451
▁farms	-9452
▁irony	-9453
▁robot	-9454
▁stems	-9455
umption	-9456
▁Polish	-9457
▁Thomas	-9458
▁acquis	-9459
▁cultiv	-9460
▁enrich	-9461
▁fronts	-9462
▁grants	-9463
▁handle	-9464
▁illust	-9465
▁inward	-9466
▁length	-9467
▁repeat	-9468
▁100,000	-9469
▁Bretton	-9470
▁Himalay	-9471
▁Krugman	-9472
▁authors	-9473
▁cholera	-9474
▁confirm	-9475
▁disclos	-9476
▁encount	-9477
▁located	-9478
▁margins	-9479
▁methane	-9480
▁minimal	-9481
▁penalty	-9482
▁postwar	-9483
▁suicide	-9484
▁surveys	-9485
enhancing	-9486
insurance	-9487
▁Friedman	-9488
▁attended	-9489
▁cohesion	-9490
▁defining	-9491
▁document	-9492
▁integral	-9493
▁maneuver	-9494
▁packages	-9495
▁prompted	-9496
▁Pakistani	-9497
▁diplomats	-9498
▁discourse	-9499
▁extremist	-9500
▁illiberal	-9501
▁indicated	-9502
▁pervasive	-9503
▁realizing	-9504
▁reforming	-9505
▁regulated	-9506
▁routinely	-9507
▁sectarian	-9508
▁skeptical	-9509
▁socialist	-9510
▁voluntary	-9511
development	-9512
▁Brexiteers	-9513
▁capability	-9514
▁complaints	-9515
▁coordinate	-9516
▁cumulative	-9517
▁discretion	-9518
▁invariably	-9519
▁preserving	-9520
▁presumably	-9521
▁protesters	-9522
▁association	-9523
▁compromises	-9524
▁disparities	-9525
▁expectation	-9526
▁intensified	-9527
▁prohibition	-9528
▁surrounding	-9529
▁deregulation	-9530
If	-9531
ec	-9532
▁£	-9533
iph	-9534
▁Ji	-9535
▁om	-9536
Year	-9537
abet	-9538
asty	-9539
bear	-9540
hard	-9541
icit	-9542
imer	-9543
mare	-9544
okyo	-9545
umer	-9546
▁Att	-9547
▁Ear	-9548
▁Hol	-9549
▁Imm	-9550
▁Kyi	-9551
▁Oil	-9552
▁Red	-9553
▁Rem	-9554
▁Suu	-9555
▁TPP	-9556
▁tab	-9557
athol	-9558
aucas	-9559
diagn	-9560
hibit	-9561
lovak	-9562
merce	-9563
organ	-9564
print	-9565
▁FARC	-9566
▁News	-9567
▁aver	-9568
▁flat	-9569
▁hire	-9570
▁mild	-9571
▁olig	-9572
▁peer	-9573
▁resh	-9574
ancers	-9575
school	-9576
▁Armen	-9577
▁River	-9578
▁Tokyo	-9579
▁accus	-9580
▁ambig	-9581
▁color	-9582
▁craft	-9583
▁hence	-9584
▁retal	-9585
▁touch	-9586
▁unint	-9587
alemate	-9588
erating	-9589
finance	-9590
service	-9591
▁Action	-9592
▁Cathol	-9593
▁Joseph	-9594
▁Square	-9595
▁induce	-9596
▁locked	-9597
▁oversh	-9598
▁preval	-9599
▁recons	-9600
▁rivers	-9601
secution	-9602
▁Indians	-9603
▁metrics	-9604
▁partial	-9605
▁stalled	-9606
▁tougher	-9607
▁verdict	-9608
▁François	-9609
▁backdrop	-9610
▁disposal	-9611
▁eventual	-9612
▁facility	-9613
▁ignoring	-9614
▁infected	-9615
▁traction	-9616
▁describes	-9617
▁enhancing	-9618
▁historian	-9619
▁indicator	-9620
▁injustice	-9621
▁intermedi	-9622
▁livestock	-9623
▁maintains	-9624
▁misguided	-9625
▁perfectly	-9626
▁reformers	-9627
▁worsening	-9628
▁Ironically	-9629
▁attributed	-9630
▁disturbing	-9631
▁encourages	-9632
▁grievances	-9633
▁homeowners	-9634
▁respective	-9635
▁superpower	-9636
▁contributes	-9637
▁negotiation	-9638
▁marginalized	-9639
▁Congressional	-9640
▁psychological	-9641
▁unpredictable	-9642
!”	-9643
ID	-9644
apt	-9645
sol	-9646
vez	-9647
▁(“	-9648
FORD	-9649
even	-9650
that	-9651
▁CCP	-9652
▁Ent	-9653
▁Hel	-9654
▁Ice	-9655
▁Jud	-9656
▁Lad	-9657
▁peg	-9658
▁sle	-9659
-2008	-9660
endas	-9661
osion	-9662
▁Anti	-9663
▁Belg	-9664
▁Gene	-9665
▁Mont	-9666
▁Time	-9667
▁WWII	-9668
▁ampl	-9669
▁anch	-9670
▁culp	-9671
▁gene	-9672
▁item	-9673
▁mega	-9674
▁outp	-9675
▁plag	-9676
▁sick	-9677
▁succ	-9678
astics	-9679
funded	-9680
ieties	-9681
nation	-9682
▁Boliv	-9683
▁Lanka	-9684
▁Royal	-9685
▁Sachs	-9686
▁afflu	-9687
▁appet	-9688
▁cliff	-9689
▁inaug	-9690
▁irrig	-9691
▁mired	-9692
▁names	-9693
▁spons	-9694
iencies	-9695
ologist	-9696
reating	-9697
▁Either	-9698
▁Fiscal	-9699
▁Rousse	-9700
▁Stalin	-9701
▁Viktor	-9702
▁aggrav	-9703
▁ballot	-9704
▁checks	-9705
▁doctor	-9706
▁gotten	-9707
▁patent	-9708
▁pillar	-9709
▁rememb	-9710
▁season	-9711
▁sounds	-9712
▁spends	-9713
▁unanim	-9714
▁agendas	-9715
▁assured	-9716
▁beliefs	-9717
▁contact	-9718
▁ensuing	-9719
▁erosion	-9720
▁malaise	-9721
▁outsize	-9722
▁prudent	-9723
▁reveals	-9724
▁satisfy	-9725
▁virtual	-9726
resistant	-9727
▁Einstein	-9728
▁entitled	-9729
▁episodes	-9730
▁formally	-9731
▁imminent	-9732
▁journals	-9733
▁mainland	-9734
▁opposing	-9735
▁postpone	-9736
▁referred	-9737
▁assertive	-9738
▁certainty	-9739
▁depending	-9740
▁proposing	-9741
▁tolerance	-9742
▁unpopular	-9743
▁comprising	-9744
▁fertilizer	-9745
▁supplement	-9746
▁traditions	-9747
▁Agriculture	-9748
▁accommodate	-9749
▁philanthrop	-9750
▁theoretical	-9751
▁subsidiaries	-9752
▁Globalization	-9753
▁investigation	-9754
▁participating	-9755
▁Constitutional	-9756
AP	-9757
dep	-9758
kak	-9759
lie	-9760
ont	-9761
uma	-9762
uni	-9763
vol	-9764
ych	-9765
▁Av	-9766
▁ho	-9767
arat	-9768
bean	-9769
conf	-9770
ests	-9771
happ	-9772
iasm	-9773
lose	-9774
zero	-9775
ávez	-9776
▁$3.	-9777
▁-0.	-9778
▁11%	-9779
▁30-	-9780
▁Ali	-9781
▁CPC	-9782
▁Dem	-9783
▁ICT	-9784
▁Spe	-9785
▁fat	-9786
▁rid	-9787
Claud	-9788
inery	-9789
licop	-9790
value	-9791
▁Bund	-9792
▁Debt	-9793
▁Dodd	-9794
▁Gord	-9795
▁Stat	-9796
▁Tian	-9797
▁Trad	-9798
▁elig	-9799
▁fake	-9800
▁hack	-9801
▁intr	-9802
▁leap	-9803
▁shot	-9804
Claude	-9805
insula	-9806
states	-9807
uating	-9808
▁Large	-9809
▁Scott	-9810
▁Woods	-9811
▁Youth	-9812
▁avert	-9813
▁blunt	-9814
▁broke	-9815
▁chess	-9816
▁drone	-9817
▁embod	-9818
▁fruit	-9819
▁judge	-9820
▁lifet	-9821
▁loose	-9822
▁ports	-9823
▁upper	-9824
▁wield	-9825
acities	-9826
aucasus	-9827
support	-9828
▁adhere	-9829
▁attain	-9830
▁benign	-9831
▁drones	-9832
▁errors	-9833
▁excuse	-9834
▁hiring	-9835
▁incons	-9836
▁oldest	-9837
▁overly	-9838
▁panels	-9839
▁poison	-9840
▁ratify	-9841
▁thinks	-9842
▁underg	-9843
▁vacuum	-9844
▁vastly	-9845
▁winter	-9846
▁Markets	-9847
▁Michael	-9848
▁Romania	-9849
▁Senator	-9850
▁broaden	-9851
▁consent	-9852
▁handful	-9853
▁journey	-9854
▁minutes	-9855
▁monopol	-9856
▁ordered	-9857
▁solving	-9858
▁unusual	-9859
estically	-9860
izational	-9861
▁Emmanuel	-9862
▁assembly	-9863
▁backward	-9864
▁defenses	-9865
▁literacy	-9866
▁presents	-9867
▁receives	-9868
▁spectrum	-9869
▁tactical	-9870
▁Euroskept	-9871
▁advocated	-9872
▁engineers	-9873
▁fostering	-9874
▁mandatory	-9875
▁reference	-9876
▁witnessed	-9877
▁indication	-9878
▁ministries	-9879
▁overlooked	-9880
▁bondholders	-9881
▁conclusions	-9882
▁exemplified	-9883
▁longstanding	-9884
▁unilaterally	-9885
▁collaborative	-9886
▁demonstrating	-9887
▁stabilization	-9888
▁democratically	-9889
▁interpretation	-9890
GI	-9891
ko	-9892
ua	-9893
amm	-9894
aur	-9895
erg	-9896
nov	-9897
umi	-9898
▁80	-9899
▁9.	-9900
000,	-9901
ESCO	-9902
aste	-9903
awat	-9904
nard	-9905
ourn	-9906
riad	-9907
umes	-9908
umin	-9909
▁75%	-9910
▁Cit	-9911
▁Fuk	-9912
▁Put	-9913
▁WHO	-9914
▁tit	-9915
▁tor	-9916
▁vib	-9917
Frank	-9918
auses	-9919
great	-9920
ibaba	-9921
ivial	-9922
oldov	-9923
ukuni	-9924
urate	-9925
▁1950	-9926
▁Alan	-9927
▁Fail	-9928
▁Wang	-9929
▁Yanu	-9930
▁aren	-9931
▁auto	-9932
▁grip	-9933
▁loos	-9934
comers	-9935
kovych	-9936
uously	-9937
▁1960’	-9938
▁Artic	-9939
▁Could	-9940
▁allev	-9941
▁beaut	-9942
▁conqu	-9943
▁doors	-9944
▁guess	-9945
▁habit	-9946
▁keeps	-9947
▁outwe	-9948
▁prone	-9949
▁slump	-9950
▁socio	-9951
▁vague	-9952
▁veget	-9953
Western	-9954
levance	-9955
seekers	-9956
umbling	-9957
▁10,000	-9958
▁Chávez	-9959
▁Moldov	-9960
▁UNESCO	-9961
▁assass	-9962
▁drives	-9963
▁eroded	-9964
▁myriad	-9965
▁shrink	-9966
▁sports	-9967
▁Digital	-9968
▁Kurdish	-9969
▁Maynard	-9970
▁Silicon	-9971
▁bargain	-9972
▁enlight	-9973
▁explore	-9974
▁flowing	-9975
▁formula	-9976
▁priorit	-9977
▁propose	-9978
▁trapped	-9979
developed	-9980
▁Caucasus	-9981
▁Franklin	-9982
▁Interest	-9983
▁Politics	-9984
▁Yasukuni	-9985
▁allocate	-9986
▁attacked	-9987
▁consumed	-9988
▁contempl	-9989
▁defeated	-9990
▁determin	-9991
▁normally	-9992
▁outdated	-9993
▁partisan	-9994
▁printing	-9995
▁republic	-9996
▁selected	-9997
▁symbolic	-9998
▁universe	-9999
employment	-10000
▁Egyptians	-10001
▁contribut	-10002
▁democrats	-10003
▁dismissed	-10004
▁entertain	-10005
▁forgotten	-10006
▁insolvent	-10007
▁offensive	-10008
▁orthodoxy	-10009
▁performed	-10010
▁radically	-10011
▁reasoning	-10012
▁surprised	-10013
▁trillions	-10014
otechnology	-10015
▁Yanukovych	-10016
▁anticipate	-10017
▁attraction	-10018
▁decisively	-10019
▁discourage	-10020
▁enthusiasm	-10021
▁frustrated	-10022
▁identities	-10023
▁indicating	-10024
▁proclaimed	-10025
▁remembered	-10026
▁restricted	-10027
▁suspicious	-10028
▁determining	-10029
▁discredited	-10030
▁projections	-10031
▁revelations	-10032
▁conversation	-10033
▁indefinitely	-10034
▁deteriorating	-10035
▁strategically	-10036
▁Administration	-10037
30	-10038
ey	-10039
ask	-10040
bel	-10041
big	-10042
mas	-10043
obs	-10044
rol	-10045
▁Ki	-10046
▁Ts	-10047
cile	-10048
erts	-10049
euro	-10050
ster	-10051
tery	-10052
uras	-10053
will	-10054
▁($1	-10055
▁Leg	-10056
▁Mem	-10057
▁Tim	-10058
▁jun	-10059
▁mel	-10060
after	-10061
arted	-10062
eling	-10063
gical	-10064
ienna	-10065
uties	-10066
vable	-10067
▁NGOs	-10068
▁Snow	-10069
▁Wild	-10070
▁crus	-10071
▁cush	-10072
▁hind	-10073
▁hung	-10074
▁unav	-10075
Israel	-10076
Palest	-10077
public	-10078
ussein	-10079
wealth	-10080
▁Antar	-10081
▁Costa	-10082
▁Stock	-10083
▁boast	-10084
▁bombs	-10085
▁digit	-10086
▁drain	-10087
▁feels	-10088
▁genes	-10089
▁grass	-10090
▁incap	-10091
▁intim	-10092
▁likes	-10093
▁named	-10094
▁rigor	-10095
▁units	-10096
enomics	-10097
ologies	-10098
onymous	-10099
▁Refuge	-10100
▁Warren	-10101
▁arrive	-10102
▁bitter	-10103
▁fierce	-10104
▁lacked	-10105
▁seized	-10106
▁worsen	-10107
ittances	-10108
▁History	-10109
▁Hussein	-10110
▁Society	-10111
▁bearing	-10112
▁concess	-10113
▁endorse	-10114
▁episode	-10115
▁holders	-10116
▁miracle	-10117
▁rethink	-10118
▁revised	-10119
▁spreads	-10120
▁succumb	-10121
▁tempted	-10122
▁Exchange	-10123
▁abundant	-10124
▁advisers	-10125
▁applying	-10126
▁bailouts	-10127
▁clinical	-10128
▁emission	-10129
▁friendly	-10130
▁invented	-10131
▁irrevers	-10132
▁linkages	-10133
▁memories	-10134
▁mistrust	-10135
▁officers	-10136
▁offshore	-10137
▁refusing	-10138
▁revision	-10139
▁scarcity	-10140
▁teaching	-10141
▁tolerate	-10142
ologically	-10143
▁assessing	-10144
▁breakdown	-10145
▁reconcile	-10146
▁replacing	-10147
▁scientist	-10148
▁withstand	-10149
▁compounded	-10150
▁developers	-10151
▁emphasizes	-10152
▁enthusiast	-10153
▁heightened	-10154
▁hurricanes	-10155
▁infections	-10156
▁reportedly	-10157
▁Politicians	-10158
▁constitutes	-10159
▁derivatives	-10160
▁forthcoming	-10161
▁incremental	-10162
▁probability	-10163
▁restricting	-10164
▁nationalists	-10165
▁subsequently	-10166
▁conservatives	-10167
.,	-10168
KP	-10169
200	-10170
ikh	-10171
ils	-10172
net	-10173
▁65	-10174
▁Ox	-10175
▁nu	-10176
aine	-10177
erto	-10178
hist	-10179
lown	-10180
namo	-10181
omic	-10182
uled	-10183
▁$20	-10184
▁$40	-10185
▁12%	-10186
▁BOJ	-10187
▁MIT	-10188
▁Old	-10189
▁Pat	-10190
▁civ	-10191
▁fab	-10192
▁fre	-10193
▁hem	-10194
▁pin	-10195
apons	-10196
asure	-10197
borne	-10198
eline	-10199
human	-10200
iracy	-10201
izumi	-10202
oston	-10203
pered	-10204
winds	-10205
ánamo	-10206
▁Data	-10207
▁Move	-10208
▁Rest	-10209
▁aged	-10210
▁coff	-10211
▁empt	-10212
▁maln	-10213
▁pund	-10214
▁shed	-10215
ieving	-10216
licate	-10217
rawing	-10218
▁2005.	-10219
▁2020,	-10220
▁bases	-10221
▁catal	-10222
▁fines	-10223
▁fires	-10224
▁games	-10225
▁radio	-10226
▁refin	-10227
▁roots	-10228
arching	-10229
arshall	-10230
ication	-10231
lovakia	-10232
porting	-10233
tenance	-10234
▁Boston	-10235
▁Franco	-10236
▁Geneva	-10237
▁Nearly	-10238
▁Thanks	-10239
▁breast	-10240
▁demise	-10241
▁devise	-10242
▁fixing	-10243
▁luxury	-10244
▁square	-10245
▁stages	-10246
▁strain	-10247
▁string	-10248
▁unreal	-10249
▁wishes	-10250
balanced	-10251
▁Koizumi	-10252
▁Koreans	-10253
▁Liberia	-10254
▁Poverty	-10255
▁compare	-10256
▁conting	-10257
▁denying	-10258
▁despair	-10259
▁evasion	-10260
▁insight	-10261
▁install	-10262
▁lifting	-10263
▁settled	-10264
▁trivial	-10265
▁Building	-10266
▁Hamilton	-10267
▁confined	-10268
▁contains	-10269
▁favorite	-10270
▁imagined	-10271
▁pipeline	-10272
▁pointing	-10273
▁respects	-10274
▁segments	-10275
▁signaled	-10276
▁strictly	-10277
▁sweeping	-10278
▁broadcast	-10279
▁celebrate	-10280
▁deploying	-10281
▁marketing	-10282
▁qualified	-10283
▁restraint	-10284
▁advocating	-10285
▁bargaining	-10286
▁blockchain	-10287
▁capitalize	-10288
▁compliance	-10289
▁destroying	-10290
▁diagnostic	-10291
▁insolvency	-10292
▁overcoming	-10293
▁profoundly	-10294
▁turbulence	-10295
▁businessmen	-10296
▁composition	-10297
▁respondents	-10298
▁trafficking	-10299
▁Independence	-10300
▁inequalities	-10301
▁manufactured	-10302
▁perspectives	-10303
▁consequential	-10304
▁uncertainties	-10305
▁interdependence	-10306
FA	-10307
FS	-10308
iñ	-10309
FTA	-10310
OMC	-10311
ald	-10312
epr	-10313
oha	-10314
pts	-10315
unc	-10316
000.	-10317
abao	-10318
chen	-10319
clos	-10320
erry	-10321
ilty	-10322
rend	-10323
uepr	-10324
▁-2.	-10325
▁2.5	-10326
▁Dal	-10327
▁Hig	-10328
▁LDP	-10329
▁Mil	-10330
▁cri	-10331
▁hus	-10332
▁nan	-10333
▁nic	-10334
World	-10335
icago	-10336
inism	-10337
isive	-10338
phone	-10339
ureau	-10340
▁100%	-10341
▁Balt	-10342
▁CEOs	-10343
▁Kenn	-10344
▁Open	-10345
▁Wars	-10346
▁Zeal	-10347
▁clar	-10348
▁elev	-10349
▁issu	-10350
▁mant	-10351
▁reun	-10352
▁thin	-10353
▁warn	-10354
arrass	-10355
elsius	-10356
enegal	-10357
oughly	-10358
supply	-10359
▁1,000	-10360
▁1989,	-10361
▁1997,	-10362
▁2006.	-10363
▁array	-10364
▁dirty	-10365
▁fract	-10366
▁genoc	-10367
▁reaff	-10368
▁spear	-10369
▁trees	-10370
▁tyran	-10371
▁unite	-10372
acteria	-10373
artisan	-10374
athered	-10375
iversal	-10376
▁Gordon	-10377
▁Jiabao	-10378
▁Prince	-10379
▁Senkak	-10380
▁habits	-10381
▁hearts	-10382
▁hoping	-10383
▁hybrid	-10384
▁player	-10385
▁Alibaba	-10386
▁Between	-10387
▁Senegal	-10388
▁Zealand	-10389
▁clarity	-10390
▁engines	-10391
▁fallout	-10392
▁fleeing	-10393
▁illicit	-10394
▁knowing	-10395
▁manager	-10396
▁millenn	-10397
▁portion	-10398
▁strange	-10399
▁studied	-10400
▁talents	-10401
▁vibrant	-10402
▁western	-10403
immigrant	-10404
▁Medicare	-10405
▁affluent	-10406
▁consecut	-10407
▁exceeded	-10408
▁feedback	-10409
▁incident	-10410
▁occupied	-10411
▁overhang	-10412
▁persists	-10413
▁preoccup	-10414
▁prevents	-10415
▁ratified	-10416
▁reformed	-10417
▁scandals	-10418
▁sentence	-10419
▁violated	-10420
▁Eurobonds	-10421
▁Investors	-10422
▁academics	-10423
▁allegedly	-10424
▁champions	-10425
▁nightmare	-10426
▁stalemate	-10427
▁struggled	-10428
▁suspected	-10429
▁Australian	-10430
▁Guantánamo	-10431
▁accurately	-10432
▁disorderly	-10433
▁inherently	-10434
▁privileged	-10435
▁reconsider	-10436
▁remarkably	-10437
▁substitute	-10438
▁succession	-10439
▁complacency	-10440
▁concentrate	-10441
▁controversy	-10442
▁emphasizing	-10443
▁humiliation	-10444
▁proposition	-10445
▁shareholder	-10446
▁underground	-10447
▁exceptionally	-10448
▁justification	-10449
-8	-10450
PJ	-10451
UL	-10452
YO	-10453
ads	-10454
bra	-10455
fty	-10456
irt	-10457
who	-10458
▁Br	-10459
OKYO	-10460
inea	-10461
irac	-10462
moon	-10463
ogen	-10464
resa	-10465
urit	-10466
▁CIA	-10467
▁Com	-10468
▁Jac	-10469
▁Mic	-10470
▁RMB	-10471
▁Rou	-10472
▁van	-10473
ierra	-10474
jiang	-10475
produ	-10476
yield	-10477
▁Area	-10478
▁Budd	-10479
▁Doha	-10480
▁Fram	-10481
▁Less	-10482
▁Mand	-10483
▁Mark	-10484
▁NCDs	-10485
▁Prop	-10486
▁belt	-10487
▁loud	-10488
▁mini	-10489
▁rush	-10490
▁unth	-10491
▁vind	-10492
Soviet	-10493
dollar	-10494
elfare	-10495
idable	-10496
ppling	-10497
ulture	-10498
usalem	-10499
vation	-10500
▁2001.	-10501
▁Henry	-10502
▁Impro	-10503
▁TOKYO	-10504
▁coerc	-10505
▁crude	-10506
▁foods	-10507
▁peers	-10508
riminal	-10509
▁Karzai	-10510
▁Madrid	-10511
▁Martin	-10512
▁Romney	-10513
▁Scient	-10514
▁Sierra	-10515
▁Vienna	-10516
▁affair	-10517
▁exempt	-10518
▁guilty	-10519
▁harass	-10520
▁hazard	-10521
▁mining	-10522
▁potent	-10523
▁prolif	-10524
▁provoc	-10525
▁quotas	-10526
▁ranked	-10527
▁regret	-10528
▁scores	-10529
▁sensit	-10530
financed	-10531
ollywood	-10532
▁Albania	-10533
▁Celsius	-10534
▁Challen	-10535
▁Earlier	-10536
▁Equally	-10537
▁Nothing	-10538
▁Service	-10539
▁Theresa	-10540
▁charism	-10541
▁council	-10542
▁divorce	-10543
▁educate	-10544
▁extract	-10545
▁fiction	-10546
▁hardest	-10547
▁intimid	-10548
▁physics	-10549
▁removal	-10550
▁sitting	-10551
reduction	-10552
ternative	-10553
▁Eurozone	-10554
▁Movement	-10555
▁Official	-10556
▁Southern	-10557
▁activism	-10558
▁appetite	-10559
▁evolving	-10560
▁excesses	-10561
▁exporter	-10562
▁headline	-10563
▁navigate	-10564
▁outweigh	-10565
▁stations	-10566
▁tangible	-10567
especially	-10568
▁attacking	-10569
▁ceasefire	-10570
▁considers	-10571
▁diversify	-10572
▁exhausted	-10573
▁footprint	-10574
▁forefront	-10575
▁formation	-10576
▁frequency	-10577
▁hostility	-10578
▁inherited	-10579
▁launching	-10580
▁machinery	-10581
▁newcomers	-10582
▁operators	-10583
▁penalties	-10584
▁bipartisan	-10585
▁conviction	-10586
▁influenced	-10587
▁reflection	-10588
▁concessions	-10589
▁consecutive	-10590
▁maintenance	-10591
▁philosopher	-10592
▁stimulating	-10593
proliferation	-10594
▁calculations	-10595
▁displacement	-10596
▁exploitation	-10597
▁prescription	-10598
▁Representative	-10599
▁redistribution	-10600
11	-10601
TH	-10602
agh	-10603
bar	-10604
bur	-10605
ped	-10606
▁9%	-10607
▁90	-10608
▁Dr	-10609
araj	-10610
atah	-10611
inav	-10612
iors	-10613
kind	-10614
lass	-10615
ourg	-10616
▁150	-10617
▁16%	-10618
▁45%	-10619
▁AIP	-10620
▁Ins	-10621
▁flu	-10622
▁lev	-10623
▁mir	-10624
▁pes	-10625
▁ske	-10626
agine	-10627
athan	-10628
isite	-10629
▁1998	-10630
▁Drug	-10631
▁Gore	-10632
▁Miss	-10633
▁Shar	-10634
▁Soon	-10635
▁Tanz	-10636
▁cert	-10637
▁cron	-10638
▁hurd	-10639
▁impe	-10640
▁mudd	-10641
▁obsc	-10642
▁ring	-10643
▁shel	-10644
▁webs	-10645
itated	-10646
ourish	-10647
▁2007.	-10648
▁Brown	-10649
▁Dream	-10650
▁Fatah	-10651
▁Moral	-10652
▁Scand	-10653
▁Using	-10654
▁award	-10655
▁erode	-10656
▁fatal	-10657
▁greed	-10658
▁prize	-10659
▁spike	-10660
▁swing	-10661
America	-10662
changed	-10663
defined	-10664
herence	-10665
irected	-10666
keeping	-10667
liberal	-10668
ulatory	-10669
▁Bureau	-10670
▁Chirac	-10671
▁Gaulle	-10672
▁League	-10673
▁Santos	-10674
▁affirm	-10675
▁bluepr	-10676
▁debtor	-10677
▁listed	-10678
▁native	-10679
▁nobody	-10680
▁plunge	-10681
▁prejud	-10682
▁safely	-10683
▁traded	-10684
▁virtue	-10685
▁wasted	-10686
▁writer	-10687
resolved	-10688
▁Chicago	-10689
▁Failure	-10690
▁Iceland	-10691
▁Qaddafi	-10692
▁Senkaku	-10693
▁appeals	-10694
▁arsenal	-10695
▁careers	-10696
▁depress	-10697
▁exagger	-10698
▁helicop	-10699
▁invited	-10700
▁morning	-10701
▁mothers	-10702
▁outlets	-10703
▁totally	-10704
▁watched	-10705
▁Iranians	-10706
▁Ministry	-10707
▁Recently	-10708
▁Scottish	-10709
▁decrease	-10710
▁engineer	-10711
▁feelings	-10712
▁heritage	-10713
▁lifetime	-10714
▁missions	-10715
▁obtained	-10716
▁operates	-10717
▁skeptics	-10718
▁symptoms	-10719
▁Jerusalem	-10720
▁Scandinav	-10721
▁arbitrary	-10722
▁embarrass	-10723
▁exceeding	-10724
▁explosion	-10725
▁fragility	-10726
▁impending	-10727
▁struggles	-10728
▁tightened	-10729
▁withdrawn	-10730
▁formidable	-10731
▁groundwork	-10732
▁irrigation	-10733
▁originally	-10734
▁positioned	-10735
▁skepticism	-10736
▁unintended	-10737
▁witnessing	-10738
▁conferences	-10739
▁distinction	-10740
▁empowerment	-10741
▁forecasting	-10742
▁identifying	-10743
▁publication	-10744
▁understands	-10745
▁domestically	-10746
▁explanations	-10747
▁irreversible	-10748
▁accommodation	-10749
▁profitability	-10750
▁organizational	-10751
BM	-10752
Cs	-10753
IR	-10754
bl	-10755
”?	-10756
▁i	-10757
▁¥	-10758
MEs	-10759
Pro	-10760
ala	-10761
bán	-10762
fit	-10763
oca	-10764
rey	-10765
too	-10766
xon	-10767
zen	-10768
zhe	-10769
aved	-10770
away	-10771
oung	-10772
uble	-10773
▁400	-10774
▁Lag	-10775
▁Liu	-10776
▁Ram	-10777
▁bus	-10778
▁gay	-10779
▁pit	-10780
acies	-10781
aksin	-10782
blown	-10783
board	-10784
rants	-10785
reach	-10786
rians	-10787
track	-10788
▁Alas	-10789
▁Bulg	-10790
▁Mali	-10791
▁Norm	-10792
▁bets	-10793
▁blog	-10794
▁dust	-10795
▁echo	-10796
▁epic	-10797
▁hier	-10798
▁nurs	-10799
▁plot	-10800
▁ride	-10801
▁smok	-10802
ibbean	-10803
parent	-10804
risome	-10805
verest	-10806
▁Alzhe	-10807
▁Exxon	-10808
▁Fifth	-10809
▁Leone	-10810
▁Moham	-10811
▁Naval	-10812
▁bleak	-10813
▁bless	-10814
▁booms	-10815
▁borne	-10816
▁brave	-10817
▁cruel	-10818
▁defer	-10819
▁globe	-10820
▁slack	-10821
▁sport	-10822
▁subdu	-10823
▁throw	-10824
▁trick	-10825
comfort	-10826
ropical	-10827
uration	-10828
▁Angola	-10829
▁analyt	-10830
▁anyway	-10831
▁conced	-10832
▁culmin	-10833
▁deputy	-10834
▁devote	-10835
▁fabric	-10836
▁genome	-10837
▁guided	-10838
▁incurs	-10839
▁massac	-10840
▁revolt	-10841
▁storms	-10842
▁Britons	-10843
▁Olympic	-10844
▁Support	-10845
▁Swedish	-10846
▁coupled	-10847
▁elusive	-10848
▁emerges	-10849
▁examine	-10850
▁interim	-10851
▁passion	-10852
▁plagued	-10853
▁pundits	-10854
▁renewal	-10855
Americans	-10856
▁Austrian	-10857
▁Olympics	-10858
▁covering	-10859
▁daughter	-10860
▁misunder	-10861
▁prevails	-10862
▁renegoti	-10863
▁standoff	-10864
▁stunning	-10865
▁suppress	-10866
▁thriving	-10867
▁Alzheimer	-10868
▁Caribbean	-10869
▁Mechanism	-10870
▁Obviously	-10871
▁admission	-10872
▁autocrats	-10873
▁conscious	-10874
▁demograph	-10875
▁empowered	-10876
▁extension	-10877
▁headwinds	-10878
▁lawmakers	-10879
▁permitted	-10880
▁processed	-10881
▁rationale	-10882
▁recipient	-10883
▁unchanged	-10884
▁worrisome	-10885
engineering	-10886
▁autocratic	-10887
▁capacities	-10888
▁deliberate	-10889
▁disposable	-10890
▁exceptions	-10891
▁insistence	-10892
▁journalism	-10893
▁journalist	-10894
▁prediction	-10895
▁elimination	-10896
▁enlightened	-10897
▁illustrates	-10898
▁imagination	-10899
▁remittances	-10900
▁undertaking	-10901
▁vaccination	-10902
▁accomplished	-10903
▁interactions	-10904
▁decentralized	-10905
▁reconstruction	-10906
hy	-10907
zy	-10908
ICH	-10909
You	-10910
dis	-10911
wed	-10912
▁$9	-10913
▁Du	-10914
eled	-10915
gery	-10916
grid	-10917
ilip	-10918
lers	-10919
risy	-10920
rock	-10921
▁-3.	-10922
▁1.2	-10923
▁Ash	-10924
▁COP	-10925
▁DNA	-10926
▁DPJ	-10927
▁Def	-10928
▁Ecu	-10929
▁Low	-10930
▁MUN	-10931
▁Nat	-10932
▁ODA	-10933
▁Six	-10934
▁Tar	-10935
▁luc	-10936
▁mad	-10937
▁rot	-10938
▁sad	-10939
▁upd	-10940
▁voc	-10941
Islam	-10942
anged	-10943
eches	-10944
fuels	-10945
orbyn	-10946
ouses	-10947
rafat	-10948
richt	-10949
▁1.5%	-10950
▁1991	-10951
▁2050	-10952
▁AfDB	-10953
▁Conc	-10954
▁Gand	-10955
▁Kash	-10956
▁STEM	-10957
▁band	-10958
▁bell	-10959
▁dams	-10960
▁dual	-10961
▁woes	-10962
enable	-10963
ewater	-10964
ferent	-10965
headed	-10966
ocrisy	-10967
people	-10968
seless	-10969
▁AIPAC	-10970
▁Annan	-10971
▁Congo	-10972
▁Maast	-10973
▁Orbán	-10974
▁Smith	-10975
▁drops	-10976
▁floor	-10977
▁frict	-10978
▁infer	-10979
▁magic	-10980
▁naval	-10981
▁rests	-10982
▁smugg	-10983
▁tries	-10984
inkable	-10985
looking	-10986
▁Balkan	-10987
▁Compet	-10988
▁Empire	-10989
▁MUNICH	-10990
▁Michel	-10991
▁dreams	-10992
▁entity	-10993
▁expose	-10994
▁favors	-10995
▁fright	-10996
▁hatred	-10997
▁indict	-10998
▁lasted	-10999
▁lethal	-11000
▁marine	-11001
▁outset	-11002
▁plight	-11003
▁recipe	-11004
▁tenure	-11005
▁thrown	-11006
▁tribal	-11007
▁triple	-11008
▁visits	-11009
▁wholes	-11010
Japanese	-11011
regional	-11012
▁Article	-11013
▁Bolivia	-11014
▁Meeting	-11015
▁Moldova	-11016
▁Private	-11017
▁Tibetan	-11018
▁Tobacco	-11019
▁arrival	-11020
▁barrier	-11021
▁compass	-11022
▁contend	-11023
▁discern	-11024
▁ensures	-11025
▁footing	-11026
▁hearing	-11027
▁helpful	-11028
▁inhabit	-11029
▁intract	-11030
▁offices	-11031
▁rampant	-11032
▁restaur	-11033
▁shorter	-11034
▁surging	-11035
▁unravel	-11036
dependent	-11037
prisingly	-11038
▁Canadian	-11039
▁Progress	-11040
▁Tanzania	-11041
▁bacteria	-11042
▁centrist	-11043
▁deserves	-11044
▁discount	-11045
▁fighters	-11046
▁illusion	-11047
▁moreover	-11048
▁preceded	-11049
▁protocol	-11050
▁reviving	-11051
▁spurring	-11052
▁upheaval	-11053
▁2008-2009	-11054
▁Christmas	-11055
▁Microsoft	-11056
▁automated	-11057
▁balancing	-11058
▁ballistic	-11059
▁broadband	-11060
▁budgetary	-11061
▁channeled	-11062
▁correctly	-11063
▁distorted	-11064
▁documents	-11065
▁epidemics	-11066
▁excellent	-11067
▁ignorance	-11068
▁illnesses	-11069
▁inspiring	-11070
▁outsiders	-11071
▁overthrow	-11072
▁privately	-11073
▁schooling	-11074
▁Maastricht	-11075
▁accumulate	-11076
▁ambassador	-11077
▁calculated	-11078
▁categories	-11079
▁committing	-11080
▁continuous	-11081
▁divergence	-11082
▁insurgency	-11083
▁liberalism	-11084
▁philosophy	-11085
▁predicting	-11086
▁psychology	-11087
▁reassuring	-11088
▁registered	-11089
▁reinforces	-11090
▁repressive	-11091
▁safeguards	-11092
▁coefficient	-11093
▁correlation	-11094
▁eradication	-11095
▁exceptional	-11096
▁imperatives	-11097
▁materialize	-11098
▁perceptions	-11099
▁transitions	-11100
▁devaluations	-11101
▁disagreement	-11102
▁modification	-11103
▁underpinning	-11104
▁Conservatives	-11105
▁Transatlantic	-11106
▁beneficiaries	-11107
▁complementary	-11108
▁intellectuals	-11109
▁predominantly	-11110
▁democratization	-11111
▁entrepreneurial	-11112
▁experimentation	-11113
15	-11114
45	-11115
IL	-11116
RA	-11117
ST	-11118
ki	-11119
awn	-11120
mod	-11121
omy	-11122
oup	-11123
pre	-11124
uts	-11125
▁Bu	-11126
Chin	-11127
aire	-11128
disc	-11129
edge	-11130
emia	-11131
last	-11132
obyl	-11133
ship	-11134
▁Raj	-11135
▁Ret	-11136
▁Zed	-11137
▁ath	-11138
▁fur	-11139
▁lik	-11140
▁rej	-11141
▁sli	-11142
enter	-11143
group	-11144
itant	-11145
oline	-11146
ppled	-11147
▁Gavi	-11148
▁Lula	-11149
▁Mult	-11150
▁Nord	-11151
▁fled	-11152
▁ling	-11153
▁phot	-11154
▁urge	-11155
German	-11156
acking	-11157
anship	-11158
ensity	-11159
etting	-11160
hengen	-11161
inians	-11162
ivable	-11163
▁1990,	-11164
▁Guang	-11165
▁Journ	-11166
▁Maybe	-11167
▁Meles	-11168
▁Parad	-11169
▁Techn	-11170
▁centr	-11171
▁civic	-11172
▁deple	-11173
▁empty	-11174
▁fever	-11175
▁merch	-11176
▁proof	-11177
▁recyc	-11178
▁score	-11179
▁stick	-11180
▁tanks	-11181
Chinese	-11182
ersonal	-11183
raining	-11184
▁Corbyn	-11185
▁Credit	-11186
▁Guinea	-11187
▁Manuel	-11188
▁Modern	-11189
▁ancest	-11190
▁cataly	-11191
▁cement	-11192
▁counts	-11193
▁ideals	-11194
▁influx	-11195
▁lesser	-11196
▁misman	-11197
▁pestic	-11198
▁silver	-11199
▁spoken	-11200
▁squand	-11201
▁subtle	-11202
▁switch	-11203
▁wouldn	-11204
curement	-11205
entially	-11206
hernobyl	-11207
illusion	-11208
queville	-11209
▁Academy	-11210
▁Belgium	-11211
▁Drawing	-11212
▁Ecuador	-11213
▁Imagine	-11214
▁Malaria	-11215
▁Mohamed	-11216
▁adviser	-11217
▁antagon	-11218
▁cancers	-11219
▁clearer	-11220
▁courses	-11221
▁credits	-11222
▁cushion	-11223
▁debated	-11224
▁desired	-11225
▁maximum	-11226
▁militar	-11227
▁monthly	-11228
▁optimal	-11229
▁pockets	-11230
▁refrain	-11231
▁revived	-11232
▁stepped	-11233
▁subdued	-11234
▁symptom	-11235
▁traffic	-11236
▁transit	-11237
▁trusted	-11238
rudential	-11239
▁Children	-11240
▁Democrat	-11241
▁Marshall	-11242
▁Schengen	-11243
▁agreeing	-11244
▁comments	-11245
▁deciding	-11246
▁emotions	-11247
▁enforced	-11248
▁farmland	-11249
▁floating	-11250
▁gasoline	-11251
▁maternal	-11252
▁narrowly	-11253
▁reassure	-11254
▁speeches	-11255
▁visiting	-11256
▁Catalonia	-11257
▁Financing	-11258
▁Northeast	-11259
▁Relations	-11260
▁confronts	-11261
▁constrain	-11262
▁diagnosed	-11263
▁governors	-11264
▁immigrant	-11265
▁insisting	-11266
▁mentioned	-11267
▁outbreaks	-11268
▁reversing	-11269
▁statehood	-11270
▁suspended	-11271
▁autonomous	-11272
▁coalitions	-11273
▁delegation	-11274
▁dependency	-11275
▁explaining	-11276
▁manipulate	-11277
▁maximizing	-11278
▁mitigation	-11279
▁organizing	-11280
▁sentiments	-11281
▁wealthiest	-11282
▁disappeared	-11283
▁legislators	-11284
▁manufacture	-11285
establishment	-11286
▁Historically	-11287
▁transitional	-11288
▁disinformation	-11289
▁multilateralism	-11290
▁notwithstanding	-11291
vo	-11292
TIA	-11293
asi	-11294
inh	-11295
lom	-11296
onn	-11297
ora	-11298
sky	-11299
▁Ha	-11300
▁Je	-11301
▁Pu	-11302
ifts	-11303
isms	-11304
keep	-11305
lege	-11306
obil	-11307
sett	-11308
west	-11309
▁24%	-11310
▁IDB	-11311
▁Rio	-11312
▁Ris	-11313
▁odd	-11314
▁pal	-11315
▁tie	-11316
TIAGO	-11317
anium	-11318
found	-11319
happy	-11320
itous	-11321
month	-11322
peror	-11323
▁Crit	-11324
▁Dist	-11325
▁Home	-11326
▁Jong	-11327
▁Stan	-11328
▁Thai	-11329
▁akin	-11330
▁boys	-11331
▁fish	-11332
▁gest	-11333
▁gift	-11334
▁lest	-11335
▁myst	-11336
▁nerv	-11337
▁obso	-11338
▁tant	-11339
anches	-11340
ercuss	-11341
fiscal	-11342
normal	-11343
social	-11344
target	-11345
terror	-11346
▁2000.	-11347
▁2050.	-11348
▁About	-11349
▁Force	-11350
▁Keral	-11351
▁Nazis	-11352
▁Sadly	-11353
▁bread	-11354
▁knock	-11355
▁lobby	-11356
▁loyal	-11357
▁movie	-11358
▁reson	-11359
▁rever	-11360
▁scene	-11361
▁sorts	-11362
▁voter	-11363
itement	-11364
limited	-11365
profile	-11366
▁Arafat	-11367
▁Budget	-11368
▁Confuc	-11369
▁Forces	-11370
▁burned	-11371
▁contam	-11372
▁convey	-11373
▁duties	-11374
▁endure	-11375
▁insurg	-11376
▁orders	-11377
changing	-11378
ructural	-11379
▁Goldman	-11380
▁Navalny	-11381
▁Thaksin	-11382
▁Workers	-11383
▁anytime	-11384
▁augment	-11385
▁counted	-11386
▁curtail	-11387
▁destiny	-11388
▁lagging	-11389
▁oversee	-11390
▁picking	-11391
▁prostit	-11392
▁publish	-11393
▁rebound	-11394
▁rewards	-11395
▁separat	-11396
▁staying	-11397
▁tighten	-11398
▁uranium	-11399
▁volunte	-11400
regulated	-11401
▁Contrary	-11402
▁SANTIAGO	-11403
▁Services	-11404
▁evaluate	-11405
▁gathered	-11406
▁guerrill	-11407
▁initiate	-11408
▁killings	-11409
▁messages	-11410
▁mistaken	-11411
▁obsolete	-11412
▁plastics	-11413
▁Inflation	-11414
▁Strategic	-11415
▁amounting	-11416
▁believing	-11417
▁classical	-11418
▁collected	-11419
▁confusion	-11420
▁incapable	-11421
▁languages	-11422
▁relevance	-11423
▁surpassed	-11424
▁violation	-11425
▁watershed	-11426
▁Ukrainians	-11427
▁complained	-11428
▁curriculum	-11429
▁depreciate	-11430
▁indirectly	-11431
▁manageable	-11432
▁mobilizing	-11433
▁peacefully	-11434
▁performing	-11435
▁portfolios	-11436
▁regulating	-11437
▁supportive	-11438
▁unresolved	-11439
▁Alternative	-11440
▁accusations	-11441
▁battlefield	-11442
▁disillusion	-11443
▁implication	-11444
▁ingredients	-11445
▁integrating	-11446
▁limitations	-11447
▁macroeconom	-11448
▁occupations	-11449
▁procurement	-11450
▁prosecutors	-11451
▁technocrats	-11452
▁administered	-11453
▁declarations	-11454
▁questionable	-11455
▁clearinghouse	-11456
▁unfortunately	-11457
75	-11458
SB	-11459
WF	-11460
fl	-11461
ano	-11462
aph	-11463
elf	-11464
igl	-11465
ika	-11466
opt	-11467
van	-11468
▁Zh	-11469
▁ax	-11470
▁et	-11471
door	-11472
eded	-11473
mail	-11474
mble	-11475
seen	-11476
yles	-11477
▁1.3	-11478
▁EEA	-11479
▁FBI	-11480
▁Hur	-11481
▁Kur	-11482
▁Moz	-11483
▁Row	-11484
▁Toc	-11485
▁bin	-11486
▁cig	-11487
▁rum	-11488
cture	-11489
iably	-11490
iates	-11491
otine	-11492
rance	-11493
ridge	-11494
stone	-11495
▁$300	-11496
▁Care	-11497
▁Ever	-11498
▁Farm	-11499
▁Mahm	-11500
▁Need	-11501
▁Pope	-11502
▁Rica	-11503
▁Rums	-11504
▁Supp	-11505
▁arts	-11506
▁aven	-11507
▁inex	-11508
▁intu	-11509
▁king	-11510
▁laud	-11511
▁migr	-11512
▁puzz	-11513
▁tear	-11514
▁twin	-11515
arming	-11516
esbank	-11517
fueled	-11518
member	-11519
usions	-11520
utable	-11521
▁1991,	-11522
▁Cairo	-11523
▁Innov	-11524
▁Young	-11525
▁effic	-11526
▁ghost	-11527
▁items	-11528
▁motor	-11529
▁reign	-11530
▁ships	-11531
▁spark	-11532
▁swept	-11533
▁theme	-11534
▁Around	-11535
▁Baltic	-11536
▁beings	-11537
▁breaks	-11538
▁dearth	-11539
▁diabet	-11540
▁firing	-11541
▁handed	-11542
▁humili	-11543
▁insult	-11544
▁jumped	-11545
▁laying	-11546
▁meters	-11547
▁nomine	-11548
▁ostens	-11549
▁pollut	-11550
▁proves	-11551
▁shield	-11552
▁stores	-11553
▁strive	-11554
▁swings	-11555
▁timely	-11556
▁valued	-11557
Semitism	-11558
children	-11559
icrobial	-11560
resource	-11561
▁Armenia	-11562
▁Current	-11563
▁Snowden	-11564
▁Wilders	-11565
▁Working	-11566
▁culprit	-11567
▁curbing	-11568
▁earning	-11569
▁herself	-11570
▁impasse	-11571
▁locally	-11572
▁morally	-11573
▁nervous	-11574
▁overdue	-11575
▁passage	-11576
▁payroll	-11577
▁realism	-11578
▁seekers	-11579
▁specter	-11580
▁strides	-11581
▁unavoid	-11582
▁undergo	-11583
▁utility	-11584
▁utterly	-11585
▁visions	-11586
political	-11587
▁Intellig	-11588
▁Rumsfeld	-11589
▁adapting	-11590
▁confused	-11591
▁examined	-11592
▁executed	-11593
▁football	-11594
▁genocide	-11595
▁incompet	-11596
▁instruct	-11597
▁lobbying	-11598
▁oligarch	-11599
▁opponent	-11600
▁organize	-11601
▁perceive	-11602
▁prescrib	-11603
▁proposes	-11604
▁rainfall	-11605
▁shocking	-11606
▁surgical	-11607
▁survived	-11608
▁tourists	-11609
ercussions	-11610
generation	-11611
▁Chernobyl	-11612
▁Economist	-11613
▁Socialist	-11614
▁automatic	-11615
▁defensive	-11616
▁directors	-11617
▁lifestyle	-11618
▁somewhere	-11619
▁submitted	-11620
conditional	-11621
▁absolutely	-11622
▁containing	-11623
▁convenient	-11624
▁disconnect	-11625
▁functional	-11626
▁liberation	-11627
▁militarily	-11628
▁practition	-11629
▁separation	-11630
▁shortfalls	-11631
▁undergoing	-11632
▁commissions	-11633
▁contentious	-11634
▁persecution	-11635
▁resignation	-11636
▁signatories	-11637
▁unthinkable	-11638
▁disadvantage	-11639
▁perpetrators	-11640
▁totalitarian	-11641
GB	-11642
”.	-11643
aky	-11644
bes	-11645
dem	-11646
iat	-11647
lan	-11648
sub	-11649
upp	-11650
▁CT	-11651
▁IP	-11652
▁Ur	-11653
▁VI	-11654
avor	-11655
enei	-11656
ials	-11657
igil	-11658
inge	-11659
laim	-11660
nest	-11661
pace	-11662
play	-11663
prom	-11664
ugos	-11665
unta	-11666
zhou	-11667
▁204	-11668
▁AKP	-11669
▁Adv	-11670
▁Aid	-11671
▁Gul	-11672
▁Has	-11673
▁Ine	-11674
▁Lux	-11675
▁Min	-11676
▁Rod	-11677
▁Tam	-11678
▁aro	-11679
▁sat	-11680
Qaeda	-11681
atell	-11682
cular	-11683
erval	-11684
ework	-11685
heads	-11686
iform	-11687
ister	-11688
roots	-11689
rying	-11690
▁0.5%	-11691
▁2.5%	-11692
▁Bhut	-11693
▁Case	-11694
▁Clos	-11695
▁Dise	-11696
▁Hiro	-11697
▁Kham	-11698
▁Prad	-11699
▁Resp	-11700
▁Seas	-11701
▁Stra	-11702
▁blue	-11703
▁dose	-11704
▁hect	-11705
▁hunt	-11706
▁ruth	-11707
▁sour	-11708
▁stew	-11709
▁west	-11710
acious	-11711
andise	-11712
handed	-11713
ledged	-11714
rapped	-11715
▁1979,	-11716
▁2,000	-11717
▁2018,	-11718
▁Event	-11719
▁Peter	-11720
▁Trust	-11721
▁aston	-11722
▁chart	-11723
▁cloud	-11724
▁enshr	-11725
▁exert	-11726
▁fired	-11727
▁metap	-11728
▁overl	-11729
▁pilot	-11730
▁realm	-11731
▁rebel	-11732
▁recur	-11733
▁sched	-11734
▁scram	-11735
▁tumor	-11736
▁video	-11737
▁vivid	-11738
▁widen	-11739
achment	-11740
ometers	-11741
reaking	-11742
ugoslav	-11743
weapons	-11744
▁Calder	-11745
▁Kenyan	-11746
▁Kerala	-11747
▁Opport	-11748
▁Regard	-11749
▁absurd	-11750
▁bribes	-11751
▁buyers	-11752
▁compel	-11753
▁doomed	-11754
▁immune	-11755
▁jailed	-11756
▁judged	-11757
▁mandar	-11758
▁miscon	-11759
▁rebell	-11760
▁reiter	-11761
▁repeal	-11762
▁suited	-11763
▁tribun	-11764
▁upside	-11765
▁yellow	-11766
ceptible	-11767
commerce	-11768
payments	-11769
ropriate	-11770
utrition	-11771
▁College	-11772
▁Pradesh	-11773
▁Studies	-11774
▁Syrians	-11775
▁cocaine	-11776
▁cynical	-11777
▁durable	-11778
▁essence	-11779
▁forming	-11780
▁guiding	-11781
▁heating	-11782
▁husband	-11783
▁imposes	-11784
▁letting	-11785
▁motives	-11786
▁persons	-11787
▁rivalry	-11788
▁tyranny	-11789
▁viewing	-11790
▁Khamenei	-11791
▁Province	-11792
▁Rousseff	-11793
▁aversion	-11794
▁category	-11795
▁converge	-11796
▁depended	-11797
▁diabetes	-11798
▁doubling	-11799
▁favoring	-11800
▁grouping	-11801
▁improves	-11802
▁instance	-11803
▁liberals	-11804
▁markedly	-11805
▁maturity	-11806
▁settings	-11807
▁tempting	-11808
▁underval	-11809
▁wherever	-11810
▁accompany	-11811
▁capturing	-11812
▁denounced	-11813
▁detention	-11814
▁fisheries	-11815
▁generates	-11816
▁geography	-11817
▁necessity	-11818
▁persuaded	-11819
▁pessimism	-11820
▁resembles	-11821
▁socialism	-11822
▁uncomfort	-11823
competitive	-11824
▁Resolution	-11825
▁continuity	-11826
▁exploiting	-11827
▁professors	-11828
▁reasonably	-11829
▁systematic	-11830
▁wastewater	-11831
▁Tocqueville	-11832
▁adversaries	-11833
▁compromised	-11834
▁destination	-11835
▁intelligent	-11836
▁proportions	-11837
▁superiority	-11838
▁disappointed	-11839
▁environments	-11840
▁liberalizing	-11841
▁tuberculosis	-11842
▁Comprehensive	-11843
▁acknowledging	-11844
▁corresponding	-11845
▁repercussions	-11846
▁identification	-11847
▁systematically	-11848
PR	-11849
00,	-11850
HAN	-11851
New	-11852
ara	-11853
bul	-11854
but	-11855
cep	-11856
dad	-11857
inf	-11858
isa	-11859
ota	-11860
rev	-11861
rik	-11862
thy	-11863
usp	-11864
yip	-11865
▁Da	-11866
Arab	-11867
aths	-11868
bons	-11869
ecut	-11870
exas	-11871
fast	-11872
hrop	-11873
icks	-11874
idal	-11875
inis	-11876
otal	-11877
radu	-11878
raid	-11879
▁17%	-11880
▁Abu	-11881
▁Ext	-11882
▁FTA	-11883
▁Nap	-11884
▁Was	-11885
▁geo	-11886
▁upt	-11887
▁ves	-11888
aping	-11889
falls	-11890
icked	-11891
izens	-11892
luded	-11893
ranch	-11894
spons	-11895
vigor	-11896
▁$500	-11897
▁FOMC	-11898
▁Jeff	-11899
▁Kiss	-11900
▁ages	-11901
▁damp	-11902
▁disg	-11903
▁milk	-11904
▁owed	-11905
▁ship	-11906
▁swap	-11907
aghdad	-11908
around	-11909
ranted	-11910
reason	-11911
ubborn	-11912
▁Delhi	-11913
▁Dubai	-11914
▁Euras	-11915
▁Money	-11916
▁Recep	-11917
▁forum	-11918
▁junta	-11919
▁lofty	-11920
▁quasi	-11921
▁secre	-11922
▁spell	-11923
▁stars	-11924
▁steam	-11925
▁swaps	-11926
▁vigil	-11927
Russian	-11928
elected	-11929
ordable	-11930
repared	-11931
▁Nature	-11932
▁Tayyip	-11933
▁forged	-11934
▁fruits	-11935
▁overhe	-11936
▁overst	-11937
▁rebels	-11938
▁resume	-11939
▁satell	-11940
▁suprem	-11941
▁surrog	-11942
▁unjust	-11943
berspace	-11944
ourished	-11945
▁Control	-11946
▁Experts	-11947
▁Mahmoud	-11948
▁Network	-11949
▁Overall	-11950
▁Rowhani	-11951
▁William	-11952
▁complet	-11953
▁counsel	-11954
▁crossed	-11955
▁endured	-11956
▁hurdles	-11957
▁ignores	-11958
▁nominee	-11959
▁reaches	-11960
▁reacted	-11961
▁refuses	-11962
▁secured	-11963
▁session	-11964
▁strains	-11965
▁summits	-11966
▁tighter	-11967
▁weakens	-11968
▁Calderón	-11969
▁Dialogue	-11970
▁Xinjiang	-11971
▁abstract	-11972
▁academia	-11973
▁activist	-11974
▁catalyst	-11975
▁embarked	-11976
▁enjoying	-11977
▁everyday	-11978
▁exported	-11979
▁extremes	-11980
▁inclined	-11981
▁likewise	-11982
▁morality	-11983
▁mountain	-11984
▁nicotine	-11985
▁resisted	-11986
▁societal	-11987
▁succeeds	-11988
▁Achieving	-11989
▁analytics	-11990
▁blueprint	-11991
▁brutality	-11992
▁leveraged	-11993
▁militants	-11994
▁pipelines	-11995
▁privilege	-11996
▁radiation	-11997
▁referenda	-11998
▁regulator	-11999
▁resistant	-12000
▁unleashed	-12001
▁unlimited	-12002
▁upholding	-12003
▁wholesale	-12004
▁achievable	-12005
▁asymmetric	-12006
▁disclosure	-12007
▁distribute	-12008
▁fulfilling	-12009
▁healthcare	-12010
▁historians	-12011
▁insurgents	-12012
▁intervened	-12013
▁kilometers	-12014
▁privileges	-12015
▁relentless	-12016
▁Information	-12017
▁allegations	-12018
▁appointment	-12019
▁calculation	-12020
▁celebration	-12021
▁departments	-12022
▁diversified	-12023
▁merchandise	-12024
▁outstanding	-12025
▁overwhelmed	-12026
▁realization	-12027
▁artificially	-12028
▁governmental	-12029
▁indifference	-12030
▁socioeconomic	-12031
▁underestimate	-12032
▁capitalization	-12033
▁transformative	-12034
-4	-12035
AL	-12036
GF	-12037
QE	-12038
gs	-12039
nn	-12040
zi	-12041
-15	-12042
PEC	-12043
ada	-12044
chi	-12045
hon	-12046
nat	-12047
ona	-12048
rup	-12049
two	-12050
▁AN	-12051
▁Cy	-12052
▁PI	-12053
airy	-12054
amac	-12055
doch	-12056
flow	-12057
imil	-12058
plan	-12059
rier	-12060
role	-12061
sche	-12062
uits	-12063
▁13%	-12064
▁Fac	-12065
▁Met	-12066
▁Nav	-12067
▁Shi	-12068
▁Tig	-12069
▁bot	-12070
▁mos	-12071
▁rub	-12072
allow	-12073
amber	-12074
aming	-12075
anmen	-12076
apter	-12077
chers	-12078
illon	-12079
inked	-12080
intao	-12081
popul	-12082
ports	-12083
rable	-12084
▁3.5%	-12085
▁Disc	-12086
▁Marg	-12087
▁forb	-12088
▁jail	-12089
▁lens	-12090
▁mend	-12091
▁rage	-12092
▁rice	-12093
decade	-12094
ighbor	-12095
▁Singh	-12096
▁Start	-12097
▁Texas	-12098
▁agent	-12099
▁cance	-12100
▁dealt	-12101
▁disse	-12102
▁error	-12103
▁exped	-12104
▁inapp	-12105
▁inert	-12106
▁onset	-12107
▁pages	-12108
▁penet	-12109
▁posts	-12110
▁prest	-12111
▁quota	-12112
▁recal	-12113
▁slows	-12114
▁smoke	-12115
▁stamp	-12116
▁unden	-12117
▁urged	-12118
amacare	-12119
attered	-12120
hemical	-12121
ignific	-12122
▁Anyone	-12123
▁Carter	-12124
▁Gandhi	-12125
▁Higher	-12126
▁Jintao	-12127
▁Luxemb	-12128
▁Master	-12129
▁Oxford	-12130
▁Zedong	-12131
▁abound	-12132
▁assemb	-12133
▁banned	-12134
▁famine	-12135
▁flying	-12136
▁strife	-12137
▁worlds	-12138
▁Murdoch	-12139
▁Osborne	-12140
▁Serbian	-12141
▁advised	-12142
▁aligned	-12143
▁betting	-12144
▁bridges	-12145
▁circles	-12146
▁demagog	-12147
▁derived	-12148
▁lowered	-12149
▁offense	-12150
▁pledges	-12151
▁prerequ	-12152
▁readily	-12153
▁signing	-12154
▁smarter	-12155
▁squeeze	-12156
▁unleash	-12157
olidarity	-12158
▁Bulgaria	-12159
▁Nigerian	-12160
▁Sciences	-12161
▁articles	-12162
▁branches	-12163
▁catching	-12164
▁contempt	-12165
▁convened	-12166
▁deprived	-12167
▁drilling	-12168
▁drinking	-12169
▁equation	-12170
▁hypothes	-12171
▁impeding	-12172
▁innovate	-12173
▁landmark	-12174
▁precious	-12175
▁protects	-12176
▁quantity	-12177
▁rendered	-12178
▁robotics	-12179
▁solvency	-12180
▁stubborn	-12181
imicrobial	-12182
▁Amendment	-12183
▁Peninsula	-12184
▁comprises	-12185
▁eradicate	-12186
▁everybody	-12187
▁exploited	-12188
▁explosive	-12189
▁incidents	-12190
▁mandarins	-12191
▁neglected	-12192
▁paralysis	-12193
▁plummeted	-12194
▁procedure	-12195
▁satisfied	-12196
established	-12197
functioning	-12198
▁Liberation	-12199
▁accordance	-12200
▁automobile	-12201
▁competence	-12202
▁escalation	-12203
▁expressing	-12204
▁leveraging	-12205
▁nomination	-12206
▁questioned	-12207
▁rebuilding	-12208
▁recipients	-12209
▁responsive	-12210
▁translated	-12211
productivity	-12212
▁conditional	-12213
▁conflicting	-12214
▁destabilize	-12215
▁entitlement	-12216
▁geopolitics	-12217
▁intractable	-12218
▁unrealistic	-12219
▁withdrawing	-12220
globalization	-12221
▁deteriorated	-12222
▁persistently	-12223
▁simultaneous	-12224
▁superconduct	-12225
▁distinguished	-12226
▁unconditional	-12227
▁diversification	-12228
EV	-12229
sl	-12230
ORE	-12231
non	-12232
”),	-12233
▁Ap	-12234
▁Ku	-12235
▁MP	-12236
▁NP	-12237
This	-12238
achu	-12239
arde	-12240
fulf	-12241
gans	-12242
iege	-12243
orry	-12244
prot	-12245
▁1.4	-12246
▁2%.	-12247
▁21%	-12248
▁Ale	-12249
▁Bra	-12250
▁Bur	-12251
▁FSB	-12252
▁Gam	-12253
▁Hay	-12254
▁Rog	-12255
▁Ste	-12256
▁USS	-12257
▁dat	-12258
▁dil	-12259
▁fee	-12260
▁sab	-12261
achev	-12262
asset	-12263
iller	-12264
lived	-12265
ottom	-12266
ourge	-12267
oving	-12268
raged	-12269
range	-12270
roche	-12271
setts	-12272
skill	-12273
there	-12274
uming	-12275
wered	-12276
▁1994	-12277
▁BRCA	-12278
▁Poll	-12279
▁Sein	-12280
▁Shen	-12281
▁adds	-12282
▁hast	-12283
▁medi	-12284
▁merc	-12285
▁owes	-12286
▁thor	-12287
anding	-12288
debted	-12289
determ	-12290
ooting	-12291
ridden	-12292
roleum	-12293
strong	-12294
▁2002.	-12295
▁5,000	-12296
▁Guard	-12297
▁Kerry	-12298
▁Later	-12299
▁Short	-12300
▁Small	-12301
▁Stern	-12302
▁Urban	-12303
▁alert	-12304
▁arrog	-12305
▁breed	-12306
▁cents	-12307
▁curve	-12308
▁email	-12309
▁havoc	-12310
▁inexp	-12311
▁inval	-12312
▁opted	-12313
▁pecul	-12314
▁shake	-12315
▁stall	-12316
▁verge	-12317
compass	-12318
ifiable	-12319
uctions	-12320
▁Execut	-12321
▁Fillon	-12322
▁Hurric	-12323
▁Leader	-12324
▁Puerto	-12325
▁Sharon	-12326
▁banker	-12327
▁breath	-12328
▁bullet	-12329
▁bypass	-12330
▁copper	-12331
▁deport	-12332
▁dismal	-12333
▁enjoys	-12334
▁hamper	-12335
▁hosted	-12336
▁mechan	-12337
▁pieces	-12338
▁rounds	-12339
▁submar	-12340
▁tended	-12341
▁theirs	-12342
dictions	-12343
ertainly	-12344
esterday	-12345
indebted	-12346
location	-12347
thinking	-12348
▁Paradox	-12349
▁anxious	-12350
▁biology	-12351
▁cartels	-12352
▁clinics	-12353
▁employs	-12354
▁fertile	-12355
▁forging	-12356
▁founder	-12357
▁heading	-12358
▁hitting	-12359
▁hostage	-12360
▁inherit	-12361
▁mankind	-12362
▁preempt	-12363
▁pulling	-12364
▁regards	-12365
▁reliant	-12366
▁revital	-12367
▁tightly	-12368
▁tipping	-12369
▁tripled	-12370
▁violate	-12371
▁warrant	-12372
▁widened	-12373
achusetts	-12374
criptions	-12375
diagnosis	-12376
rochement	-12377
strategic	-12378
▁Catholic	-12379
▁Facility	-12380
▁Medicaid	-12381
▁capitals	-12382
▁cleaning	-12383
▁commerce	-12384
▁concepts	-12385
▁deadline	-12386
▁disclose	-12387
▁embodied	-12388
▁flourish	-12389
▁inflated	-12390
▁patience	-12391
▁punished	-12392
▁reminded	-12393
▁servants	-12394
▁shutdown	-12395
▁sterling	-12396
▁villages	-12397
celeration	-12398
▁Framework	-12399
▁Himalayan	-12400
▁criticize	-12401
▁exercises	-12402
▁exporting	-12403
▁liberties	-12404
▁lingering	-12405
▁lucrative	-12406
▁notorious	-12407
▁polarized	-12408
▁purchased	-12409
▁reinvigor	-12410
▁revealing	-12411
▁spillover	-12412
▁viability	-12413
▁Bundesbank	-12414
▁Regardless	-12415
▁announcing	-12416
▁conducting	-12417
▁constraint	-12418
▁courageous	-12419
▁distressed	-12420
▁enormously	-12421
▁literature	-12422
▁precarious	-12423
▁preference	-12424
▁quantities	-12425
▁unbalanced	-12426
▁automobiles	-12427
▁depreciated	-12428
▁inhabitants	-12429
▁observation	-12430
▁preparation	-12431
▁resolutions	-12432
▁speculators	-12433
▁susceptible	-12434
▁unavoidable	-12435
▁Intelligence	-12436
▁enthusiastic	-12437
▁generational	-12438
▁highlighting	-12439
▁inconsistent	-12440
▁Massachusetts	-12441
▁contradictory	-12442
▁deterioration	-12443
▁jurisdictions	-12444
▁unwillingness	-12445
▁disappointment	-12446
-9	-12447
At	-12448
MU	-12449
Vs	-12450
3%,	-12451
ARP	-12452
FSF	-12453
awa	-12454
bin	-12455
cit	-12456
hot	-12457
osé	-12458
ros	-12459
ube	-12460
ura	-12461
▁75	-12462
▁IT	-12463
▁Ol	-12464
▁Sa	-12465
card	-12466
epid	-12467
ften	-12468
gian	-12469
hent	-12470
iece	-12471
lant	-12472
list	-12473
ndra	-12474
opia	-12475
othe	-12476
star	-12477
tier	-12478
▁-1.	-12479
▁0.2	-12480
▁2%,	-12481
▁Dom	-12482
▁Ide	-12483
▁MIL	-12484
▁McC	-12485
▁PLA	-12486
▁Ser	-12487
▁Sin	-12488
▁Vot	-12489
▁lad	-12490
▁lin	-12491
▁lit	-12492
▁oxy	-12493
▁rav	-12494
dling	-12495
eness	-12496
major	-12497
ostal	-12498
peace	-12499
pture	-12500
ricts	-12501
smart	-12502
▁CTBT	-12503
▁Deep	-12504
▁Gini	-12505
▁Left	-12506
▁Main	-12507
▁Nare	-12508
▁Star	-12509
▁busy	-12510
▁butt	-12511
▁cite	-12512
▁doom	-12513
▁grab	-12514
▁rall	-12515
▁rapp	-12516
▁samp	-12517
▁snow	-12518
▁song	-12519
▁tone	-12520
▁tric	-12521
▁unim	-12522
▁user	-12523
▁vari	-12524
▁visa	-12525
Brazil	-12526
ainted	-12527
asures	-12528
author	-12529
hering	-12530
houses	-12531
idding	-12532
iglitz	-12533
isible	-12534
oliday	-12535
ulsion	-12536
weight	-12537
▁1950’	-12538
▁1992,	-12539
▁1998,	-12540
▁Ababa	-12541
▁Addis	-12542
▁Boris	-12543
▁Games	-12544
▁Larry	-12545
▁Osama	-12546
▁Shell	-12547
▁Years	-12548
▁bears	-12549
▁brill	-12550
▁clock	-12551
▁datab	-12552
▁disgu	-12553
▁dread	-12554
▁grids	-12555
▁impet	-12556
▁marry	-12557
▁misal	-12558
▁pregn	-12559
▁repud	-12560
▁sever	-12561
▁shame	-12562
▁theor	-12563
▁troop	-12564
▁twist	-12565
▁visas	-12566
▁wheat	-12567
Israeli	-12568
athetic	-12569
balance	-12570
centric	-12571
ighting	-12572
istence	-12573
overing	-12574
setting	-12575
▁Darwin	-12576
▁Wilson	-12577
▁addict	-12578
▁afraid	-12579
▁athlet	-12580
▁branch	-12581
▁caliph	-12582
▁dubbed	-12583
▁embark	-12584
▁frustr	-12585
▁gamble	-12586
▁hungry	-12587
▁hydrop	-12588
▁infant	-12589
▁intrus	-12590
▁killer	-12591
▁pulled	-12592
▁racism	-12593
▁remedy	-12594
▁stockp	-12595
▁submit	-12596
breaking	-12597
directed	-12598
educated	-12599
iniscent	-12600
standard	-12601
▁Journal	-12602
▁Morales	-12603
▁Rouhani	-12604
▁adapted	-12605
▁appease	-12606
▁arising	-12607
▁beating	-12608
▁clarify	-12609
▁coexist	-12610
▁drastic	-12611
▁existed	-12612
▁fortune	-12613
▁futures	-12614
▁handled	-12615
▁hardlin	-12616
▁intrins	-12617
▁loyalty	-12618
▁nuanced	-12619
▁origins	-12620
▁overval	-12621
▁prestig	-12622
▁readers	-12623
▁riskier	-12624
▁shelter	-12625
▁sincere	-12626
▁subsidy	-12627
▁teacher	-12628
▁therapy	-12629
▁turnout	-12630
▁unhappy	-12631
▁uniform	-12632
▁varying	-12633
▁volumes	-12634
autionary	-12635
ilization	-12636
sponsored	-12637
ugoslavia	-12638
▁Abdullah	-12639
▁Margaret	-12640
▁Millions	-12641
▁Narendra	-12642
▁Stiglitz	-12643
▁brothers	-12644
▁centered	-12645
▁deepened	-12646
▁destined	-12647
▁divisive	-12648
▁factions	-12649
▁incurred	-12650
▁punitive	-12651
▁reciproc	-12652
▁shopping	-12653
▁subprime	-12654
▁sympathy	-12655
▁tailored	-12656
▁thinkers	-12657
▁treasury	-12658
▁Colombian	-12659
▁Kissinger	-12660
▁competent	-12661
▁execution	-12662
▁inflicted	-12663
▁judgments	-12664
▁logistics	-12665
▁portrayed	-12666
▁relatives	-12667
▁scheduled	-12668
▁sidelines	-12669
▁substance	-12670
▁undergone	-12671
▁Inequality	-12672
▁Technology	-12673
▁behavioral	-12674
▁casualties	-12675
▁eighteenth	-12676
▁friendship	-12677
▁lifestyles	-12678
▁mitigating	-12679
▁worthwhile	-12680
▁Environment	-12681
▁creditworth	-12682
▁description	-12683
▁grandparent	-12684
▁overarching	-12685
▁personality	-12686
▁practically	-12687
▁specialists	-12688
▁strengthens	-12689
▁substantive	-12690
▁technically	-12691
▁Agricultural	-12692
▁imprisonment	-12693
▁occasionally	-12694
▁practitioners	-12695
▁rapprochement	-12696
▁investigations	-12697
▁understandably	-12698
LO	-12699
No	-12700
bro	-12701
ede	-12702
ela	-12703
ila	-12704
rac	-12705
▁(2	-12706
▁32	-12707
▁Ay	-12708
▁Bi	-12709
▁Ce	-12710
▁ri	-12711
SOEs	-12712
acks	-12713
aque	-12714
heid	-12715
igue	-12716
inqu	-12717
lika	-12718
lood	-12719
onic	-12720
pora	-12721
ribe	-12722
rior	-12723
rous	-12724
turn	-12725
▁95%	-12726
▁Beg	-12727
▁Bot	-12728
▁Hug	-12729
▁Hun	-12730
▁Kir	-12731
▁Len	-12732
▁Mog	-12733
▁Nak	-12734
▁Piñ	-12735
▁Val	-12736
▁Way	-12737
▁coh	-12738
▁dra	-12739
aires	-12740
arraf	-12741
earth	-12742
eding	-12743
idity	-12744
inate	-12745
ivism	-12746
raham	-12747
steps	-12748
ucker	-12749
umble	-12750
urban	-12751
▁1992	-12752
▁Fisc	-12753
▁Gorb	-12754
▁Pres	-12755
▁SMEs	-12756
▁Uber	-12757
▁awak	-12758
▁cler	-12759
▁dies	-12760
▁emit	-12761
▁glut	-12762
▁loop	-12763
▁mine	-12764
▁murd	-12765
▁poet	-12766
▁sway	-12767
▁synt	-12768
▁tank	-12769
▁tape	-12770
▁wear	-12771
▁wood	-12772
asions	-12773
forest	-12774
hecked	-12775
irates	-12776
ocaust	-12777
orders	-12778
reated	-12779
▁1999,	-12780
▁3,000	-12781
▁Cypri	-12782
▁Early	-12783
▁Faced	-12784
▁Janet	-12785
▁Jiang	-12786
▁MILAN	-12787
▁Uribe	-12788
▁altru	-12789
▁burge	-12790
▁diets	-12791
▁disen	-12792
▁doses	-12793
▁egreg	-12794
▁erupt	-12795
▁films	-12796
▁march	-12797
▁maybe	-12798
▁penal	-12799
▁plent	-12800
▁proxy	-12801
▁stone	-12802
▁tepid	-12803
▁veter	-12804
Semitic	-12805
ardship	-12806
fledged	-12807
serving	-12808
versely	-12809
welfare	-12810
▁Bhutan	-12811
▁Panama	-12812
▁Piñera	-12813
▁Rising	-12814
▁apolog	-12815
▁arises	-12816
▁backst	-12817
▁bloods	-12818
▁bosses	-12819
▁citing	-12820
▁freeze	-12821
▁futile	-12822
▁hailed	-12823
▁impair	-12824
▁merits	-12825
▁nostal	-12826
▁picked	-12827
▁replic	-12828
▁screen	-12829
▁speaks	-12830
▁surged	-12831
reported	-12832
usharraf	-12833
▁Fischer	-12834
▁Jacques	-12835
▁Looking	-12836
▁bonuses	-12837
▁chooses	-12838
▁clashes	-12839
▁crowded	-12840
▁dictate	-12841
▁exclude	-12842
▁fantasy	-12843
▁impacts	-12844
▁inertia	-12845
▁inhibit	-12846
▁insists	-12847
▁obliged	-12848
▁overest	-12849
▁permits	-12850
▁plunged	-12851
▁quantum	-12852
▁reminds	-12853
▁reservo	-12854
▁roadmap	-12855
dominated	-12856
roductive	-12857
▁Americas	-12858
▁Italians	-12859
▁biofuels	-12860
▁blessing	-12861
▁ceremony	-12862
▁commonly	-12863
▁defended	-12864
▁develops	-12865
▁dividing	-12866
▁graduate	-12867
▁gridlock	-12868
▁inferior	-12869
▁metaphor	-12870
▁provider	-12871
▁rigorous	-12872
▁sizeable	-12873
▁stopping	-12874
▁subjects	-12875
▁tropical	-12876
▁Abenomics	-12877
▁Gorbachev	-12878
▁Hurricane	-12879
▁Terrorism	-12880
▁Tiananmen	-12881
▁algorithm	-12882
▁avoidance	-12883
▁beautiful	-12884
▁combining	-12885
▁consuming	-12886
▁decreased	-12887
▁disparate	-12888
▁districts	-12889
▁enforcing	-12890
▁hypocrisy	-12891
▁infection	-12892
▁locations	-12893
▁mobilized	-12894
▁modernize	-12895
▁parallels	-12896
▁plentiful	-12897
▁postponed	-12898
▁proactive	-12899
▁reactions	-12900
▁rebalance	-12901
▁reporters	-12902
▁resisting	-12903
▁searching	-12904
▁spotlight	-12905
▁therapies	-12906
▁unchecked	-12907
▁utilities	-12908
▁Capitalism	-12909
▁Christians	-12910
▁Luxembourg	-12911
▁Securities	-12912
▁antibiotic	-12913
▁bolstering	-12914
▁burgeoning	-12915
▁celebrated	-12916
▁championed	-12917
▁collapsing	-12918
▁compassion	-12919
▁completion	-12920
▁cyberspace	-12921
▁depressing	-12922
▁designated	-12923
▁documented	-12924
▁hydropower	-12925
▁ostensibly	-12926
▁personally	-12927
▁pronounced	-12928
▁recovering	-12929
▁subsidized	-12930
▁successive	-12931
▁collaborate	-12932
▁contemplate	-12933
▁countryside	-12934
▁disciplines	-12935
▁dismantling	-12936
▁manipulated	-12937
▁mathematics	-12938
▁meaningless	-12939
▁reminiscent	-12940
▁Unemployment	-12941
▁continuation	-12942
▁coordinating	-12943
▁deficiencies	-12944
▁experimental	-12945
▁grandparents	-12946
▁instrumental	-12947
▁malnutrition	-12948
▁assertiveness	-12949
▁disadvantaged	-12950
▁externalities	-12951
-5	-12952
-6	-12953
21	-12954
ED	-12955
TT	-12956
da	-12957
iah	-12958
iza	-12959
pos	-12960
rea	-12961
san	-12962
”).	-12963
▁29	-12964
▁33	-12965
▁34	-12966
▁36	-12967
▁BP	-12968
▁Hy	-12969
▁OX	-12970
▁PR	-12971
assy	-12972
aund	-12973
best	-12974
core	-12975
eder	-12976
ifty	-12977
inde	-12978
iped	-12979
poor	-12980
quer	-12981
rome	-12982
uese	-12983
▁$4.	-12984
▁1.6	-12985
▁Alb	-12986
▁Cap	-12987
▁DRC	-12988
▁Eff	-12989
▁Ens	-12990
▁GEN	-12991
▁STO	-12992
▁boy	-12993
▁etc	-12994
▁owe	-12995
▁wed	-12996
amous	-12997
appro	-12998
chner	-12999
const	-13000
grown	-13001
ivist	-13002
lance	-13003
onial	-13004
opian	-13005
otion	-13006
otism	-13007
pivot	-13008
swana	-13009
▁$200	-13010
▁1945	-13011
▁1979	-13012
▁20%,	-13013
▁50%.	-13014
▁Mikh	-13015
▁Nich	-13016
▁Sich	-13017
▁Test	-13018
▁Vacc	-13019
▁Well	-13020
▁Zhou	-13021
▁axis	-13022
▁clim	-13023
▁cycl	-13024
▁dias	-13025
▁drew	-13026
▁flam	-13027
▁gang	-13028
▁glim	-13029
▁harb	-13030
▁hasn	-13031
▁hell	-13032
▁hint	-13033
▁omin	-13034
▁spin	-13035
▁tree	-13036
▁unsu	-13037
Africa	-13038
akable	-13039
eflika	-13040
inence	-13041
ixture	-13042
ometer	-13043
pelled	-13044
▁Advis	-13045
▁Aside	-13046
▁Dalai	-13047
▁atroc	-13048
▁calam	-13049
▁dairy	-13050
▁drama	-13051
▁marsh	-13052
▁messy	-13053
▁paved	-13054
▁redef	-13055
▁shore	-13056
▁sober	-13057
carbons	-13058
conserv	-13059
dumping	-13060
managed	-13061
manship	-13062
million	-13063
respect	-13064
sighted	-13065
ustomed	-13066
▁Andrew	-13067
▁Cancer	-13068
▁Gender	-13069
▁Milton	-13070
▁OXFORD	-13071
▁betray	-13072
▁coffee	-13073
▁depict	-13074
▁impart	-13075
▁landsl	-13076
▁licens	-13077
▁makers	-13078
▁masses	-13079
▁opaque	-13080
▁papers	-13081
▁posing	-13082
▁sevent	-13083
▁testim	-13084
▁unsett	-13085
▁whites	-13086
▁wisely	-13087
icularly	-13088
oliberal	-13089
▁Company	-13090
▁Critics	-13091
▁Mikhail	-13092
▁Outlook	-13093
▁Sichuan	-13094
▁acquies	-13095
▁costing	-13096
▁dragged	-13097
▁endemic	-13098
▁escaped	-13099
▁evening	-13100
▁inflict	-13101
▁matched	-13102
▁nurture	-13103
▁profile	-13104
▁replied	-13105
▁surgery	-13106
▁vessels	-13107
▁wounded	-13108
▁writers	-13109
communist	-13110
icultural	-13111
▁Botswana	-13112
▁Consumer	-13113
▁Military	-13114
▁Regional	-13115
▁absorbed	-13116
▁airlines	-13117
▁arriving	-13118
▁consists	-13119
▁disabled	-13120
▁handling	-13121
▁location	-13122
▁militias	-13123
▁minerals	-13124
▁outlined	-13125
▁peculiar	-13126
▁provoked	-13127
▁reinvent	-13128
▁resemble	-13129
▁resigned	-13130
▁rewarded	-13131
▁ruthless	-13132
▁surveyed	-13133
▁uprising	-13134
▁Ethiopian	-13135
▁Executive	-13136
▁Hungarian	-13137
▁Solutions	-13138
▁ambiguous	-13139
▁audiences	-13140
▁bloodshed	-13141
▁computing	-13142
▁convicted	-13143
▁crucially	-13144
▁deterrent	-13145
▁egregious	-13146
▁evidently	-13147
▁importers	-13148
▁intensive	-13149
▁listening	-13150
▁modernity	-13151
▁obsession	-13152
▁repayment	-13153
▁underwrit	-13154
▁varieties	-13155
▁worldview	-13156
Palestinian	-13157
▁Eventually	-13158
▁Management	-13159
▁Portuguese	-13160
▁Regulatory	-13161
▁annexation	-13162
▁chancellor	-13163
▁compatible	-13164
▁conspiracy	-13165
▁convention	-13166
▁cosmopolit	-13167
▁depositors	-13168
▁engineered	-13169
▁extraction	-13170
▁helicopter	-13171
▁imposition	-13172
▁invitation	-13173
▁jeopardize	-13174
▁minimizing	-13175
▁offsetting	-13176
▁overshadow	-13177
▁positively	-13178
▁simplistic	-13179
▁xenophobic	-13180
▁Independent	-13181
▁advancement	-13182
▁affirmative	-13183
▁articulated	-13184
▁communicate	-13185
▁constructed	-13186
▁discoveries	-13187
▁drastically	-13188
▁recruitment	-13189
▁restoration	-13190
▁retaliation	-13191
▁subsistence	-13192
▁voluntarily	-13193
Proliferation	-13194
▁consolidated	-13195
▁constraining	-13196
▁headquarters	-13197
▁hydrocarbons	-13198
▁intensifying	-13199
▁relentlessly	-13200
▁complications	-13201
▁disagreements	-13202
▁nationalistic	-13203
▁uncomfortable	-13204
▁attractiveness	-13205
CK	-13206
ML	-13207
Me	-13208
gi	-13209
zh	-13210
ais	-13211
bad	-13212
far	-13213
oko	-13214
oln	-13215
uns	-13216
vio	-13217
zbe	-13218
▁6,	-13219
▁9/	-13220
▁Ak	-13221
▁SP	-13222
▁Sk	-13223
▁“[	-13224
arre	-13225
hind	-13226
iden	-13227
ldom	-13228
lude	-13229
osni	-13230
roso	-13231
rows	-13232
sent	-13233
teen	-13234
zhen	-13235
▁$60	-13236
▁18%	-13237
▁183	-13238
▁Bad	-13239
▁CDF	-13240
▁EPP	-13241
▁III	-13242
▁NPT	-13243
▁Taj	-13244
▁cam	-13245
▁ele	-13246
▁gig	-13247
▁mig	-13248
▁thw	-13249
APORE	-13250
Leave	-13251
South	-13252
achal	-13253
attle	-13254
books	-13255
chest	-13256
cycle	-13257
elior	-13258
erion	-13259
heres	-13260
heric	-13261
iency	-13262
illes	-13263
isure	-13264
liest	-13265
ocaly	-13266
ogens	-13267
orous	-13268
surge	-13269
ulent	-13270
umber	-13271
▁10%.	-13272
▁1999	-13273
▁6.5%	-13274
▁Bout	-13275
▁Dani	-13276
▁Jobs	-13277
▁Lama	-13278
▁Life	-13279
▁Pand	-13280
▁SING	-13281
▁Salv	-13282
▁Step	-13283
▁Turn	-13284
▁Uzbe	-13285
▁bird	-13286
▁detr	-13287
▁fest	-13288
▁fren	-13289
▁plut	-13290
▁roof	-13291
▁sche	-13292
▁soci	-13293
▁stro	-13294
▁swit	-13295
▁thro	-13296
asants	-13297
ascent	-13298
atched	-13299
ickers	-13300
inable	-13301
inston	-13302
letion	-13303
linked	-13304
olitan	-13305
return	-13306
▁2000’	-13307
▁2018.	-13308
▁2025.	-13309
▁Daily	-13310
▁Hence	-13311
▁Hosni	-13312
▁Joint	-13313
▁Laden	-13314
▁Renew	-13315
▁Which	-13316
▁audit	-13317
▁ballo	-13318
▁crony	-13319
▁debac	-13320
▁drift	-13321
▁dwell	-13322
▁embar	-13323
▁erect	-13324
▁essay	-13325
▁ingen	-13326
▁mayor	-13327
▁meets	-13328
▁shoes	-13329
▁slide	-13330
▁spots	-13331
▁stuff	-13332
foreign	-13333
healthy	-13334
keepers	-13335
termism	-13336
western	-13337
▁Frankf	-13338
▁Fukush	-13339
▁Import	-13340
▁Silvio	-13341
▁Things	-13342
▁alumin	-13343
▁autumn	-13344
▁broker	-13345
▁cartel	-13346
▁comply	-13347
▁covers	-13348
▁elabor	-13349
▁golden	-13350
▁indoor	-13351
▁metrop	-13352
▁nearby	-13353
▁noting	-13354
▁nurses	-13355
▁passes	-13356
▁patron	-13357
▁praise	-13358
▁rolled	-13359
▁routes	-13360
▁stifle	-13361
▁trades	-13362
▁worthy	-13363
▁300,000	-13364
▁Barroso	-13365
▁Efforts	-13366
▁Kenneth	-13367
▁Lagarde	-13368
▁Mandela	-13369
▁Winston	-13370
▁amelior	-13371
▁anymore	-13372
▁approve	-13373
▁beneath	-13374
▁conform	-13375
▁dumping	-13376
▁hopeful	-13377
▁impetus	-13378
▁injured	-13379
▁jointly	-13380
▁longest	-13381
▁manages	-13382
▁mixture	-13383
▁quietly	-13384
▁reactor	-13385
▁redress	-13386
▁shocked	-13387
▁website	-13388
▁Cultural	-13389
▁Everyone	-13390
▁Nicholas	-13391
▁Shenzhen	-13392
▁charisma	-13393
▁coercion	-13394
▁downgrad	-13395
▁efficacy	-13396
▁eligible	-13397
▁exciting	-13398
▁incoming	-13399
▁insurers	-13400
▁militant	-13401
▁proceeds	-13402
▁relating	-13403
▁sciences	-13404
▁totaling	-13405
▁variable	-13406
▁ventures	-13407
▁vigorous	-13408
ortsighted	-13409
ranational	-13410
▁Antarctic	-13411
▁Certainly	-13412
▁Challenge	-13413
▁Communism	-13414
▁Migration	-13415
▁SINGAPORE	-13416
▁Universal	-13417
▁abundance	-13418
▁alleviate	-13419
▁anonymous	-13420
▁basically	-13421
▁bolstered	-13422
▁compelled	-13423
▁detriment	-13424
▁employing	-13425
▁encompass	-13426
▁excluding	-13427
▁exploring	-13428
▁physician	-13429
▁polluting	-13430
▁rejecting	-13431
▁uprisings	-13432
▁wealthier	-13433
▁Bouteflika	-13434
▁Solidarity	-13435
▁Yugoslavia	-13436
▁accustomed	-13437
▁appearance	-13438
▁authorized	-13439
▁critically	-13440
▁dimensions	-13441
▁dissidents	-13442
▁grassroots	-13443
▁incumbents	-13444
▁internally	-13445
▁monopolies	-13446
▁oppression	-13447
▁powerhouse	-13448
▁pragmatism	-13449
▁prioritize	-13450
▁reiterated	-13451
▁sacrifices	-13452
▁stagnating	-13453
▁suggestion	-13454
▁citizenship	-13455
▁contracting	-13456
▁contributor	-13457
▁denominated	-13458
▁exaggerated	-13459
▁influencing	-13460
▁intolerance	-13461
▁orientation	-13462
▁overheating	-13463
▁undervalued	-13464
▁anticipation	-13465
▁constituents	-13466
▁consultation	-13467
▁exacerbating	-13468
▁geographical	-13469
▁manipulating	-13470
▁ratification	-13471
▁systemically	-13472
▁discretionary	-13473
▁entertainment	-13474
▁precautionary	-13475
▁reunification	-13476
▁nanotechnology	-13477
▁predictability	-13478
▁fundamentalists	-13479
De	-13480
En	-13481
PI	-13482
iy	-13483
EVA	-13484
HOL	-13485
dam	-13486
ida	-13487
ids	-13488
lod	-13489
mir	-13490
ofi	-13491
pat	-13492
ppo	-13493
vin	-13494
▁37	-13495
▁Il	-13496
▁ug	-13497
What	-13498
aned	-13499
bedo	-13500
bene	-13501
deep	-13502
dule	-13503
fits	-13504
inds	-13505
iral	-13506
loom	-13507
paid	-13508
▁1.7	-13509
▁28%	-13510
▁38%	-13511
▁ESG	-13512
▁GNP	-13513
▁Kyr	-13514
▁Mek	-13515
▁Mid	-13516
▁Ott	-13517
▁Rad	-13518
▁Set	-13519
▁biz	-13520
▁bog	-13521
▁nit	-13522
▁rus	-13523
▁ton	-13524
▁woe	-13525
▁wre	-13526
Mobil	-13527
angel	-13528
eller	-13529
henko	-13530
ighed	-13531
osite	-13532
overy	-13533
piece	-13534
polar	-13535
ringe	-13536
ustry	-13537
äuble	-13538
▁1.5°	-13539
▁1995	-13540
▁1996	-13541
▁Adam	-13542
▁Aung	-13543
▁Beng	-13544
▁Club	-13545
▁Come	-13546
▁Else	-13547
▁Hard	-13548
▁José	-13549
▁Lith	-13550
▁Task	-13551
▁Yang	-13552
▁apes	-13553
▁boon	-13554
▁clou	-13555
▁drow	-13556
▁fans	-13557
▁girl	-13558
▁hang	-13559
▁inqu	-13560
▁mole	-13561
▁peso	-13562
▁ruin	-13563
▁sons	-13564
▁vain	-13565
▁wasn	-13566
ankind	-13567
celona	-13568
erable	-13569
losion	-13570
mother	-13571
paying	-13572
perial	-13573
ricket	-13574
uality	-13575
▁2004.	-13576
▁Based	-13577
▁Biden	-13578
▁Integ	-13579
▁Local	-13580
▁Owing	-13581
▁Recon	-13582
▁Round	-13583
▁abide	-13584
▁absor	-13585
▁amend	-13586
▁antit	-13587
▁arena	-13588
▁blocs	-13589
▁chron	-13590
▁esche	-13591
▁expon	-13592
▁freed	-13593
▁kills	-13594
▁lifes	-13595
▁lingu	-13596
▁plate	-13597
▁scant	-13598
▁sugar	-13599
▁tenth	-13600
▁unsur	-13601
▁vocal	-13602
▁warns	-13603
banking	-13604
billion	-13605
educing	-13606
iscally	-13607
lasting	-13608
lective	-13609
ocratic	-13610
ringing	-13611
▁20,000	-13612
▁Cities	-13613
▁Edward	-13614
▁GENEVA	-13615
▁Recogn	-13616
▁Rogoff	-13617
▁Saudis	-13618
▁Single	-13619
▁Syriza	-13620
▁Thirty	-13621
▁agrees	-13622
▁clever	-13623
▁coined	-13624
▁commem	-13625
▁covert	-13626
▁deduct	-13627
▁derive	-13628
▁domain	-13629
▁enroll	-13630
▁equals	-13631
▁glance	-13632
▁lights	-13633
▁mantra	-13634
▁mature	-13635
▁motion	-13636
▁muscle	-13637
▁muster	-13638
▁prosec	-13639
▁render	-13640
▁repaid	-13641
▁resett	-13642
▁scaled	-13643
▁seldom	-13644
▁skewed	-13645
▁spared	-13646
▁surviv	-13647
▁traits	-13648
ermanent	-13649
▁Century	-13650
▁Kashmir	-13651
▁Lithuan	-13652
▁Roughly	-13653
▁analyze	-13654
▁apparat	-13655
▁bizarre	-13656
▁charter	-13657
▁combust	-13658
▁condemn	-13659
▁conglom	-13660
▁decides	-13661
▁devised	-13662
▁embargo	-13663
▁emotion	-13664
▁garment	-13665
▁leisure	-13666
▁married	-13667
▁midterm	-13668
▁obscure	-13669
▁officer	-13670
▁outlays	-13671
▁retains	-13672
▁shouldn	-13673
▁wonders	-13674
ederation	-13675
supported	-13676
▁Criminal	-13677
▁Currency	-13678
▁Ensuring	-13679
▁Nowadays	-13680
▁Schäuble	-13681
▁Standard	-13682
▁accuracy	-13683
▁aluminum	-13684
▁assessed	-13685
▁bombings	-13686
▁crossing	-13687
▁district	-13688
▁elevated	-13689
▁envision	-13690
▁exposing	-13691
▁fortunes	-13692
▁goodwill	-13693
▁hardship	-13694
▁highways	-13695
▁obsessed	-13696
▁operated	-13697
▁polluted	-13698
▁presumed	-13699
▁radicals	-13700
▁reassert	-13701
▁resolute	-13702
▁retrench	-13703
▁schedule	-13704
▁settling	-13705
▁tortured	-13706
▁uniquely	-13707
▁youngest	-13708
celerating	-13709
revolution	-13710
▁Alexander	-13711
▁Frankfurt	-13712
▁Fukushima	-13713
▁Hollywood	-13714
▁Holocaust	-13715
▁Musharraf	-13716
▁acquiring	-13717
▁amendment	-13718
▁attribute	-13719
▁brightest	-13720
▁criterion	-13721
▁defenders	-13722
▁delegates	-13723
▁designing	-13724
▁diffusion	-13725
▁disparity	-13726
▁importing	-13727
▁mentality	-13728
▁millennia	-13729
▁pandemics	-13730
▁paralyzed	-13731
▁prevalent	-13732
▁sentences	-13733
▁servicing	-13734
▁stagnated	-13735
▁testimony	-13736
▁turbulent	-13737
▁unusually	-13738
▁ExxonMobil	-13739
▁Innovation	-13740
▁Venezuelan	-13741
▁circumvent	-13742
▁commentary	-13743
▁completing	-13744
▁disability	-13745
▁downstream	-13746
▁harassment	-13747
▁ironically	-13748
▁moderation	-13749
▁multipolar	-13750
▁pesticides	-13751
▁prudential	-13752
▁references	-13753
▁restraints	-13754
▁sovereigns	-13755
▁standpoint	-13756
▁tendencies	-13757
▁valuations	-13758
▁xenophobia	-13759
▁backgrounds	-13760
▁compensated	-13761
▁expressions	-13762
▁incorporate	-13763
▁intervening	-13764
▁investigate	-13765
▁medications	-13766
▁preventable	-13767
▁specialized	-13768
▁stewardship	-13769
▁supervisory	-13770
▁underscored	-13771
▁unregulated	-13772
▁accumulating	-13773
▁compromising	-13774
▁cosmopolitan	-13775
▁incompatible	-13776
▁incompetence	-13777
▁jeopardizing	-13778
▁shortsighted	-13779
▁technocratic	-13780
▁transferring	-13781
▁civilizations	-13782
▁philosophical	-13783
▁transformations	-13784
RF	-13785
ta	-13786
-1.	-13787
One	-13788
URG	-13789
ado	-13790
ato	-13791
aya	-13792
can	-13793
del	-13794
dog	-13795
oma	-13796
ows	-13797
pse	-13798
▁Fl	-13799
HOLM	-13800
acea	-13801
acon	-13802
bond	-13803
epal	-13804
game	-13805
iday	-13806
meal	-13807
oglo	-13808
okes	-13809
roat	-13810
sets	-13811
take	-13812
ttes	-13813
upid	-13814
warf	-13815
▁($3	-13816
▁1.1	-13817
▁14%	-13818
▁42%	-13819
▁CAP	-13820
▁Fam	-13821
▁Fox	-13822
▁KGB	-13823
▁Lim	-13824
▁Mag	-13825
▁Pin	-13826
▁Pot	-13827
▁Rap	-13828
▁SWF	-13829
▁Wal	-13830
▁ans	-13831
▁bom	-13832
▁cro	-13833
▁fel	-13834
▁haw	-13835
▁hol	-13836
▁jar	-13837
▁lax	-13838
▁sla	-13839
▁tip	-13840
Great	-13841
apego	-13842
chant	-13843
eters	-13844
helps	-13845
icate	-13846
ombie	-13847
overe	-13848
pling	-13849
rooms	-13850
▁$800	-13851
▁Airb	-13852
▁Amid	-13853
▁Dear	-13854
▁Hugo	-13855
▁Karl	-13856
▁Linc	-13857
▁Mong	-13858
▁OPEC	-13859
▁Oslo	-13860
▁Path	-13861
▁Plen	-13862
▁USSR	-13863
▁cher	-13864
▁dece	-13865
▁dent	-13866
▁eman	-13867
▁evac	-13868
▁glac	-13869
▁hall	-13870
▁mamm	-13871
▁park	-13872
▁synd	-13873
▁tall	-13874
▁ugly	-13875
▁unre	-13876
▁unve	-13877
CKHOLM	-13878
aiting	-13879
arling	-13880
asured	-13881
awatts	-13882
herini	-13883
inhart	-13884
riding	-13885
ulates	-13886
undrum	-13887
urable	-13888
▁Abdel	-13889
▁Bache	-13890
▁Cross	-13891
▁Cuban	-13892
▁Nepal	-13893
▁Turks	-13894
▁dwarf	-13895
▁heter	-13896
▁horse	-13897
▁hosts	-13898
▁impul	-13899
▁laund	-13900
▁loses	-13901
▁naive	-13902
▁outst	-13903
▁parks	-13904
▁prote	-13905
▁recru	-13906
▁scrat	-13907
▁stric	-13908
▁suits	-13909
▁surre	-13910
▁thank	-13911
▁unpro	-13912
▁usage	-13913
▁vowed	-13914
angered	-13915
arettes	-13916
certain	-13917
ervical	-13918
imposed	-13919
ittedly	-13920
racking	-13921
▁Aleppo	-13922
▁Arctic	-13923
▁Bernie	-13924
▁Direct	-13925
▁Establ	-13926
▁Friday	-13927
▁Mozamb	-13928
▁Napole	-13929
▁Phelps	-13930
▁Superv	-13931
▁Swaraj	-13932
▁Voters	-13933
▁ascend	-13934
▁clause	-13935
▁clinic	-13936
▁couldn	-13937
▁delays	-13938
▁enters	-13939
▁frozen	-13940
▁hugely	-13941
▁oxygen	-13942
▁prover	-13943
▁redund	-13944
▁rigged	-13945
▁tactic	-13946
▁uneven	-13947
▁unlock	-13948
▁varied	-13949
▁writes	-13950
learning	-13951
transfer	-13952
▁Baghdad	-13953
▁Burmese	-13954
▁Closing	-13955
▁Consequ	-13956
▁Farmers	-13957
▁Lincoln	-13958
▁Medical	-13959
▁battles	-13960
▁bombing	-13961
▁chaotic	-13962
▁charity	-13963
▁debacle	-13964
▁defines	-13965
▁fearing	-13966
▁fosters	-13967
▁instant	-13968
▁invaded	-13969
▁leftist	-13970
▁melting	-13971
▁nascent	-13972
▁panacea	-13973
▁polling	-13974
▁presupp	-13975
▁proving	-13976
▁provoke	-13977
▁ranking	-13978
▁retired	-13979
▁rupture	-13980
▁scapego	-13981
▁scholar	-13982
▁slavery	-13983
▁supreme	-13984
▁viewers	-13985
▁wishful	-13986
etization	-13987
exporting	-13988
▁Bachelet	-13989
▁Buddhist	-13990
▁Election	-13991
▁Mohammed	-13992
▁Refugees	-13993
▁Reinhart	-13994
▁advocacy	-13995
▁answered	-13996
▁asserted	-13997
▁counting	-13998
▁critique	-13999
▁delaying	-14000
▁delicate	-14001
▁delusion	-14002
▁depleted	-14003
▁diaspora	-14004
▁duration	-14005
▁electron	-14006
▁escaping	-14007
▁fiscally	-14008
▁hardline	-14009
▁hopeless	-14010
▁legacies	-14011
▁literary	-14012
▁mandates	-14013
▁massacre	-14014
▁modified	-14015
▁pandemic	-14016
▁predicts	-14017
▁prohibit	-14018
▁promotes	-14019
▁recourse	-14020
▁remedies	-14021
▁retained	-14022
▁senators	-14023
▁sometime	-14024
▁stresses	-14025
▁vigilant	-14026
▁vitality	-14027
ignificant	-14028
▁Barcelona	-14029
▁Confucian	-14030
▁Governing	-14031
▁Insurance	-14032
▁Mogherini	-14033
▁STOCKHOLM	-14034
▁Taiwanese	-14035
▁Therefore	-14036
▁abilities	-14037
▁apparatus	-14038
▁attending	-14039
▁believers	-14040
▁chemicals	-14041
▁civilized	-14042
▁colleague	-14043
▁dissatisf	-14044
▁dominates	-14045
▁downturns	-14046
▁fortunate	-14047
▁fulfilled	-14048
▁homegrown	-14049
▁invisible	-14050
▁measuring	-14051
▁occupying	-14052
▁paramount	-14053
▁preceding	-14054
▁recycling	-14055
▁requested	-14056
▁subjected	-14057
▁subsidize	-14058
▁survivors	-14059
▁underpins	-14060
▁yesterday	-14061
▁Statistics	-14062
▁Structural	-14063
▁Westerners	-14064
▁atrocities	-14065
▁conception	-14066
▁contingent	-14067
▁deductions	-14068
▁domination	-14069
▁enrichment	-14070
▁financiers	-14071
▁geographic	-14072
▁hardliners	-14073
▁majorities	-14074
▁objections	-14075
▁prohibited	-14076
▁properties	-14077
▁prosecutor	-14078
▁rainforest	-14079
▁resurgence	-14080
▁squandered	-14081
▁successors	-14082
▁undeniable	-14083
surprisingly	-14084
▁Opportunity	-14085
▁campaigners	-14086
▁coincidence	-14087
▁corporation	-14088
▁interpreted	-14089
▁pessimistic	-14090
▁preoccupied	-14091
▁proceedings	-14092
▁questioning	-14093
▁refinancing	-14094
▁sensitivity	-14095
▁sympathetic	-14096
▁traffickers	-14097
▁transferred	-14098
▁attributable	-14099
▁demographics	-14100
▁individually	-14101
▁prerequisite	-14102
▁consultations	-14103
▁demonstration	-14104
▁harmonization	-14105
▁mutualization	-14106
Al	-14107
CL	-14108
Ke	-14109
és	-14110
2.5	-14111
400	-14112
AGU	-14113
IFA	-14114
abe	-14115
awi	-14116
don	-14117
gel	-14118
gyz	-14119
jan	-14120
ook	-14121
rob	-14122
via	-14123
ïve	-14124
▁8,	-14125
▁Az	-14126
▁Ho	-14127
▁ID	-14128
-198	-14129
EOUL	-14130
THEN	-14131
blem	-14132
fair	-14133
from	-14134
held	-14135
inda	-14136
itim	-14137
lene	-14138
mand	-14139
open	-14140
ouri	-14141
uber	-14142
week	-14143
▁$30	-14144
▁($2	-14145
▁1.8	-14146
▁10.	-14147
▁36%	-14148
▁Fre	-14149
▁Ger	-14150
▁Kem	-14151
▁Los	-14152
▁Lou	-14153
▁MGI	-14154
▁MPs	-14155
▁Opt	-14156
▁Vir	-14157
▁Yuk	-14158
▁apt	-14159
▁gal	-14160
▁mic	-14161
▁rud	-14162
▁til	-14163
▁tur	-14164
5,000	-14165
aders	-14166
asone	-14167
awned	-14168
elong	-14169
ioxid	-14170
osity	-14171
umbia	-14172
useum	-14173
utive	-14174
▁$2.5	-14175
▁0.7%	-14176
▁1967	-14177
▁1993	-14178
▁Arun	-14179
▁Carm	-14180
▁Cond	-14181
▁Delt	-14182
▁FIFA	-14183
▁Half	-14184
▁Hans	-14185
▁Jere	-14186
▁Kofi	-14187
▁Rico	-14188
▁buck	-14189
▁bull	-14190
▁bump	-14191
▁buoy	-14192
▁dorm	-14193
▁fade	-14194
▁fits	-14195
▁guns	-14196
▁ills	-14197
▁inad	-14198
▁mode	-14199
▁pair	-14200
▁plug	-14201
▁quit	-14202
▁rift	-14203
▁sand	-14204
▁stip	-14205
▁unch	-14206
arette	-14207
conian	-14208
giving	-14209
ionage	-14210
ipient	-14211
league	-14212
licity	-14213
ocused	-14214
placed	-14215
recogn	-14216
▁1973,	-14217
▁1980,	-14218
▁Anglo	-14219
▁Hamid	-14220
▁Kurds	-14221
▁Leave	-14222
▁Pinoc	-14223
▁Poles	-14224
▁SEOUL	-14225
▁Thein	-14226
▁aided	-14227
▁blund	-14228
▁cardi	-14229
▁downs	-14230
▁envis	-14231
▁faire	-14232
▁frank	-14233
▁grain	-14234
▁hotel	-14235
▁incar	-14236
▁incub	-14237
▁looph	-14238
▁lucky	-14239
▁memor	-14240
▁naïve	-14241
▁siege	-14242
▁thick	-14243
▁tired	-14244
▁unman	-14245
African	-14246
correct	-14247
ductors	-14248
enforce	-14249
ensible	-14250
feating	-14251
icament	-14252
increas	-14253
issance	-14254
neutral	-14255
oglobin	-14256
ography	-14257
ourcing	-14258
ranking	-14259
retched	-14260
seeking	-14261
urances	-14262
venient	-14263
▁Deputy	-14264
▁Ending	-14265
▁Kyrgyz	-14266
▁Little	-14267
▁Mekong	-14268
▁Prices	-14269
▁Sovere	-14270
▁Threat	-14271
▁UNAIDS	-14272
▁albedo	-14273
▁anchor	-14274
▁brains	-14275
▁buffer	-14276
▁crunch	-14277
▁digest	-14278
▁endang	-14279
▁extrav	-14280
▁finger	-14281
▁forums	-14282
▁havens	-14283
▁hiding	-14284
▁ironic	-14285
▁misery	-14286
▁myself	-14287
▁peaked	-14288
▁priced	-14289
▁racist	-14290
▁ration	-14291
▁sister	-14292
▁spokes	-14293
▁talked	-14294
▁tumult	-14295
▁wildly	-14296
Atlantic	-14297
ensurate	-14298
existent	-14299
renching	-14300
tradable	-14301
▁Account	-14302
▁Eurasia	-14303
▁Respons	-14304
▁Sustain	-14305
▁Turkmen	-14306
▁Volcker	-14307
▁airport	-14308
▁belongs	-14309
▁blaming	-14310
▁bloated	-14311
▁clauses	-14312
▁concede	-14313
▁divides	-14314
▁ensured	-14315
▁eroding	-14316
▁expands	-14317
▁fascist	-14318
▁hackers	-14319
▁harmony	-14320
▁holiday	-14321
▁illiter	-14322
▁impeded	-14323
▁intends	-14324
▁marking	-14325
▁outdoor	-14326
▁patents	-14327
▁primacy	-14328
▁proflig	-14329
▁reprodu	-14330
▁revolts	-14331
▁station	-14332
▁stature	-14333
▁upgrade	-14334
▁virtues	-14335
President	-14336
alitarian	-14337
democracy	-14338
establish	-14339
itionally	-14340
president	-14341
uckerberg	-14342
▁Columbia	-14343
▁Globally	-14344
▁Nakasone	-14345
▁analyses	-14346
▁athletes	-14347
▁brighter	-14348
▁canceled	-14349
▁catalyze	-14350
▁cervical	-14351
▁confirms	-14352
▁councils	-14353
▁deterred	-14354
▁devising	-14355
▁ineffect	-14356
▁meddling	-14357
▁promptly	-14358
▁proteins	-14359
▁reactors	-14360
▁reaffirm	-14361
▁recruits	-14362
▁retirees	-14363
▁sticking	-14364
▁subordin	-14365
▁supplier	-14366
▁takeover	-14367
▁tradeoff	-14368
▁traveled	-14369
▁Cambridge	-14370
▁Elsewhere	-14371
▁Household	-14372
▁apartheid	-14373
▁collapses	-14374
▁curricula	-14375
▁depletion	-14376
▁disrupted	-14377
▁donations	-14378
▁enshrined	-14379
▁espionage	-14380
[...]
